<unk>	0
<s>	0
</s>	0
<pad>	0
니다	-0
▁있	-1
▁이	-2
▁사	-3
▁하	-4
▁대	-5
▁수	-6
▁구	-7
으로	-8
습니다	-9
▁보	-10
▁것	-11
성원	-12
▁구성원	-13
▁그	-14
필요	-15
▁기	-16
▁아	-17
하는	-18
▁필요	-19
▁부	-20
에서	-21
▁지	-22
업무	-23
▁제	-24
▁시	-25
▁조	-26
합니다	-27
▁전	-28
▁팀	-29
▁업무	-30
▁일	-31
▁다	-32
▁위	-33
▁개	-34
▁생	-35
하고	-36
▁의	-37
▁없	-38
▁가	-39
▁회	-40
▁않	-41
▁경	-42
▁정	-43
적인	-44
▁자	-45
▁같	-46
▁있는	-47
▁대한	-48
▁관	-49
▁주	-50
▁생각	-51
▁공	-52
▁인	-53
▁어	-54
▁해	-55
▁많	-56
▁회사	-57
▁1	-58
▁선	-59
다고	-60
▁고	-61
▁및	-62
▁좋	-63
▁모	-64
▁안	-65
▁되	-66
▁한	-67
▁문	-68
▁내	-69
으면	-70
▁근	-71
▁더	-72
▁등	-73
▁실	-74
적으로	-75
지만	-76
▁분	-77
▁상	-78
입니다	-79
▁조직	-80
▁방	-81
하여	-82
▁소	-83
▁하는	-84
▁변	-85
▁적	-86
▁역	-87
▁s	-88
▁중	-89
해서	-90
▁나	-91
▁2	-92
다는	-93
▁c	-94
▁바	-95
▁d	-96
▁연	-97
▁통	-98
들이	-99
▁불	-100
▁우	-101
▁노	-102
▁성	-103
▁비	-104
▁사업	-105
▁본	-106
▁진	-107
▁저	-108
▁협	-109
▁신	-110
▁확	-111
▁현	-112
네요	-113
▁할	-114
▁말	-115
▁과	-116
▁역량	-117
▁합니다	-118
▁잘	-119
▁좀	-120
에게	-121
하게	-122
▁직	-123
▁유	-124
▁경우	-125
평가	-126
▁팀원	-127
▁추	-128
▁아니	-129
▁위한	-130
라고	-131
▁변화	-132
프로	-133
▁결	-134
▁동	-135
▁교	-136
▁있습니다	-137
▁개선	-138
는데	-139
▁만	-140
▁함	-141
▁못	-142
▁강	-143
▁마	-144
▁오	-145
하지	-146
▁것이	-147
▁발	-148
환경	-149
▁따	-150
▁무	-151
▁리	-152
도록	-153
▁우리	-154
▁계	-155
▁때	-156
▁p	-157
▁도	-158
▁외	-159
▁받	-160
▁사람	-161
▁여	-162
▁프로	-163
겠습니다	-164
▁의견	-165
▁3	-166
▁dt	-167
▁단	-168
▁시간	-169
시간	-170
▁선거	-171
▁평가	-172
▁알	-173
너무	-174
▁요	-175
▁기술	-176
▁구성원들	-177
▁반	-178
▁공유	-179
▁사용	-180
▁같습니다	-181
▁장	-182
▁미	-183
▁있음	-184
▁고객	-185
▁활	-186
▁교육	-187
▁너무	-188
▁판	-189
시는	-190
▁당	-191
▁성과	-192
▁감	-193
▁많은	-194
▁문제	-195
▁매	-196
▁근무	-197
▁목	-198
▁소통	-199
▁들	-200
▁투	-201
▁포	-202
▁관련	-203
하기	-204
▁진행	-205
라는	-206
▁있어	-207
해야	-208
▁예	-209
▁아닌	-210
▁또	-211
▁협업	-212
▁글	-213
▁부족	-214
▁i	-215
▁부분	-216
▁o	-217
▁팀장	-218
▁올	-219
▁인력	-220
다면	-221
세요	-222
▁차	-223
▁특	-224
까지	-225
▁지원	-226
▁경영	-227
▁,	-228
▁맞	-229
하면	-230
▁운	-231
▁하고	-232
▁개인	-233
▁보고	-234
▁설	-235
▁근로	-236
▁리더	-237
되어	-238
▁외부	-239
▁거	-240
▁건	-241
▁휴	-242
▁내용	-243
▁명	-244
▁환경	-245
▁관리	-246
▁이해	-247
▁의사	-248
▁참	-249
▁배	-250
om	-251
되는	-252
▁원	-253
이나	-254
▁최	-255
▁많이	-256
▁4	-257
에는	-258
까요	-259
▁작	-260
▁서	-261
▁답	-262
▁다른	-263
리고	-264
▁스	-265
▁입	-266
립니다	-267
체계	-268
▁같은	-269
▁제도	-270
▁현재	-271
▁구성원의	-272
▁대해	-273
스템	-274
젝트	-275
▁문화	-276
▁h	-277
수당	-278
▁b	-279
▁수행	-280
▁느	-281
▁r	-282
임금	-283
▁메	-284
가요	-285
위원	-286
▁위해	-287
▁부서	-288
▁이런	-289
▁생각합니다	-290
▁운영	-291
in	-292
▁5	-293
▁대해서	-294
지는	-295
결정	-296
▁드	-297
▁t	-298
▁타	-299
의회	-300
▁개발	-301
▁다양	-302
▁했	-303
관리	-304
▁가능	-305
▁점	-306
▁sk	-307
▁후	-308
▁프로젝트	-309
사업	-310
▁어려	-311
▁파	-312
▁상황	-313
▁싶	-314
▁적극	-315
▁있도록	-316
▁본인	-317
▁간	-318
▁모르	-319
▁행	-320
회사	-321
에도	-322
▁따라	-323
혁신	-324
▁목표	-325
들의	-326
▁방향	-327
omm	-328
라도	-329
시면	-330
▁필요함	-331
▁추진	-332
▁전사	-333
▁없는	-334
on	-335
▁10	-336
▁법	-337
과의	-338
▁시스템	-339
▁확보	-340
대로	-341
▁감사	-342
▁그런	-343
됩니다	-344
하다고	-345
▁20	-346
▁노력	-347
적이	-348
협의회	-349
▁않는	-350
▁출	-351
▁될	-352
▁기존	-353
▁있으	-354
▁v	-355
지고	-356
▁양	-357
▁지금	-358
었으면	-359
▁중요	-360
▁보상	-361
▁규	-362
이트	-363
▁답변	-364
▁기회	-365
▁comm	-366
▁다양한	-367
▁집	-368
▁판단	-369
▁힘	-370
▁있을	-371
▁달	-372
er	-373
▁명확	-374
▁m	-375
▁아니라	-376
▁회사의	-377
▁열	-378
▁변경	-379
▁사항	-380
▁의사결정	-381
▁a	-382
▁투자	-383
▁좋겠습니다	-384
▁실행	-385
담당	-386
보다	-387
부터	-388
▁:	-389
▁누	-390
▁해야	-391
▁처	-392
▁hr	-393
▁만들	-394
대한	-395
▁것으로	-396
▁심	-397
▁왜	-398
▁좋은	-399
▁세	-400
렇게	-401
▁기준	-402
▁새	-403
▁권	-404
▁영	-405
▁고객사	-406
▁되어	-407
▁급	-408
▁연봉	-409
나요	-410
성을	-411
▁충	-412
로운	-413
▁제시	-414
▁통해	-415
니까	-416
인지	-417
조직	-418
▁금	-419
▁것은	-420
하다	-421
▁관심	-422
▁정말	-423
es	-424
an	-425
▁각	-426
부서	-427
▁되는	-428
문에	-429
▁메일	-430
▁이동	-431
▁물	-432
거나	-433
들은	-434
▁들어	-435
▁전략	-436
세스	-437
에서는	-438
▁지속	-439
▁책	-440
▁조금	-441
▁좋겠	-442
▁그리고	-443
▁경영협의회	-444
▁필요한	-445
▁방식	-446
▁복	-447
▁회의	-448
▁해당	-449
위기	-450
▁않을	-451
▁구성원이	-452
▁임	-453
it	-454
면서	-455
▁높	-456
▁줄	-457
al	-458
▁발생	-459
문화	-460
▁혁신	-461
▁게	-462
at	-463
▁절	-464
▁하지	-465
▁빠	-466
역량	-467
▁강화	-468
▁형	-469
▁지급	-470
▁편	-471
▁직원	-472
▁결과	-473
▁재	-474
▁접	-475
▁통한	-476
한다	-477
기술	-478
▁담당	-479
▁실제	-480
하였	-481
▁자기	-482
▁같이	-483
되고	-484
정이	-485
▁좋을	-486
▁고민	-487
▁휴가	-488
ion	-489
▁업무를	-490
랍니다	-491
▁모두	-492
▁검	-493
었습니다	-494
에대한	-495
en	-496
해주	-497
▁없어	-498
▁없음	-499
▁여러	-500
▁준	-501
lo	-502
셨으면	-503
▁어떤	-504
▁자리	-505
▁보안	-506
▁전문	-507
▁보다	-508
▁부탁	-509
▁걸	-510
▁합	-511
▁일을	-512
▁근로자	-513
▁노조	-514
▁이상	-515
▁초	-516
이라	-517
▁대응	-518
▁분위기	-519
\^	-520
▁요청	-521
▁말씀	-522
▁한다	-523
▁피	-524
▁취	-525
▁의견을	-526
▁ot	-527
▁바랍니다	-528
드립니다	-529
▁에	-530
▁해결	-531
▁남	-532
▁효	-533
▁어떻	-534
▁책임	-535
▁프로세스	-536
▁논	-537
▁공감	-538
성이	-539
▁언	-540
▁본사	-541
di	-542
▁듯	-543
아서	-544
▁회사가	-545
▁구성원들이	-546
인데	-547
▁활용	-548
사항	-549
▁장기	-550
▁추가	-551
▁생각함	-552
▁그러	-553
성과	-554
▁방법	-555
▁하나	-556
▁어떻게	-557
처럼	-558
▁구성원들의	-559
▁연차	-560
▁또는	-561
▁사내	-562
▁경우가	-563
▁사실	-564
▁인정	-565
▁찾	-566
▁활동	-567
▁수석	-568
▁존	-569
▁고려	-570
▁않고	-571
▁큰	-572
겠지만	-573
▁별	-574
들을	-575
▁기본	-576
▁정보	-577
▁된	-578
▁부문	-579
or	-580
▁향	-581
▁it	-582
▁새로운	-583
▁있다고	-584
▁일부	-585
▁8	-586
▁구성원위원	-587
▁것을	-588
▁확인	-589
▁집중	-590
▁몇	-591
기에	-592
▁두	-593
▁vdi	-594
▁하지만	-595
▁체계	-596
지요	-597
▁해주	-598
▁쓰	-599
▁증	-600
▁동의	-601
▁모든	-602
있는	-603
기를	-604
▁본부	-605
하시는	-606
하세요	-607
▁솔	-608
▁정도	-609
▁적용	-610
▁불편	-611
▁있는데	-612
▁알고	-613
▁때문에	-614
▁감사합니다	-615
하신	-616
▁제공	-617
▁구조	-618
▁업무에	-619
▁같음	-620
▁있다	-621
▁6	-622
▁약	-623
근무	-624
자가	-625
▁따른	-626
▁전체	-627
간의	-628
▁좀더	-629
▁팀원들	-630
▁관계	-631
하시	-632
▁l	-633
▁승	-634
▁그냥	-635
개발	-636
▁안녕	-637
▁창	-638
▁커	-639
▁급여	-640
▁포함	-641
주의	-642
▁모습	-643
▁이야	-644
▁다시	-645
▁중심	-646
▁만들어	-647
▁유연	-648
▁가지고	-649
▁결정	-650
▁주장	-651
리는	-652
이라고	-653
▁아직	-654
ee	-655
▁궁	-656
▁제가	-657
0%	-658
으나	-659
▁계속	-660
▁명확한	-661
▁위해서	-662
보다는	-663
▁시행	-664
▁없습니다	-665
▁반영	-666
▁것도	-667
▁우리회사	-668
▁있고	-669
▁야	-670
ic	-671
▁하면	-672
▁확대	-673
이고	-674
▁궁금	-675
▁한다고	-676
▁f	-677
▁설명	-678
▁충분	-679
▁있었	-680
▁201	-681
▁산	-682
▁퇴	-683
교육	-684
자의	-685
▁노동	-686
하지만	-687
▁사이트	-688
ge	-689
▁역할	-690
▁함께	-691
▁미흡	-692
▁앞	-693
구요	-694
봅니다	-695
▁혹	-696
소리	-697
▁u	-698
▁표	-699
▁도전	-700
ing	-701
▁규정	-702
▁수준	-703
▁이유	-704
▁얘	-705
▁선관	-706
▁n	-707
▁또한	-708
제도	-709
▁구체	-710
군요	-711
▁w	-712
▁이번	-713
하며	-714
▁채	-715
▁포괄	-716
▁당사	-717
▁문의	-718
▁저는	-719
ig	-720
▁돌	-721
▁참여	-722
▁검토	-723
00	-724
소통	-725
▁이용	-726
▁‘	-727
가는	-728
▁상대	-729
▁필요가	-730
보고	-731
▁요구	-732
지를	-733
▁그렇	-734
▁분들	-735
▁얼	-736
▁포괄임금	-737
▁부여	-738
▁안녕하세요	-739
▁보여	-740
구성원	-741
▁선관위	-742
▁드립니다	-743
▁아무	-744
보니	-745
하려	-746
▁과감	-747
필요한	-748
▁이렇게	-749
▁육	-750
▁공정	-751
▁부분이	-752
▁경험	-753
▁기업	-754
▁내부	-755
▁않은	-756
▁있으면	-757
▁갖	-758
관련	-759
▁항	-760
▁되지	-761
성에	-762
▁신청	-763
▁어려움	-764
▁종	-765
기는	-766
▁입장	-767
▁k	-768
장님	-769
▁보니	-770
▁위원	-771
▁뭐	-772
되지	-773
▁수당	-774
되어야	-775
▁평	-776
▁매우	-777
▁방안	-778
력이	-779
▁관점	-780
▁다소	-781
▁않았	-782
▁일하는	-783
전에	-784
변화	-785
▁마음	-786
▁없이	-787
▁버	-788
▁한번	-789
▁화	-790
없이	-791
▁과제	-792
▁서로	-793
▁있어서	-794
▁보면	-795
▁팀장님	-796
▁그래	-797
▁맞는	-798
▁문서	-799
▁빠른	-800
▁어느	-801
▁단기	-802
▁자신	-803
▁적절	-804
▁제수당	-805
▁문제가	-806
▁시간이	-807
근로	-808
▁자체	-809
시고	-810
시기	-811
▁선임	-812
적이고	-813
ro	-814
▁넘	-815
▁허	-816
부분	-817
▁직접	-818
▁막	-819
▁일이	-820
▁직책	-821
▁것입니다	-822
포니	-823
▁이루	-824
ation	-825
▁로	-826
▁보완	-827
▁배려	-828
▁않음	-829
▁생각이	-830
자는	-831
▁신규	-832
▁어렵	-833
▁향상	-834
▁현실	-835
개인	-836
▁공지	-837
▁아래	-838
▁저도	-839
인력	-840
▁독	-841
▁리더십	-842
어서	-843
▁필요하다고	-844
▁비용	-845
▁보입니다	-846
el	-847
▁어려운	-848
▁권한	-849
가지	-850
ar	-851
▁을	-852
▁치	-853
▁통상	-854
▁않습니다	-855
▁적극적인	-856
▁보이	-857
▁대해서는	-858
▁7	-859
▁과정	-860
셔서	-861
▁아이	-862
▁이야기	-863
▁보임	-864
▁조직의	-865
중심	-866
더라도	-867
▁사람이	-868
▁있지만	-869
▁하는데	-870
께서	-871
비스	-872
▁글을	-873
▁바뀌	-874
▁구성원을	-875
▁포괄임금제	-876
▁정책	-877
스로	-878
▁용	-879
▁이를	-880
ot	-881
지도	-882
▁몰	-883
▁최근	-884
ur	-885
ac	-886
으니	-887
▁나오	-888
이다	-889
▁무엇	-890
▁이제	-891
▁임원	-892
에서도	-893
하는데	-894
▁눈	-895
▁식	-896
▁업	-897
▁근거	-898
▁준비	-899
▁9	-900
▁좋겠음	-901
▁통상임금	-902
댓글	-903
▁구성	-904
▁등을	-905
▁실패	-906
▁얘기	-907
is	-908
▁측	-909
▁이후	-910
▁특정	-911
▁모르겠	-912
▁필요해	-913
▁필요합니다	-914
▁끝	-915
▁그룹	-916
▁조성	-917
▁효율	-918
▁순	-919
▁자유	-920
▁판교	-921
▁불필요한	-922
도가	-923
기준	-924
력을	-925
케이	-926
▁보내	-927
▁안내	-928
▁특히	-929
한다고	-930
▁됩니다	-931
▁개선이	-932
▁분들이	-933
▁입니다	-934
▁늘	-935
▁결국	-936
▁이러	-937
▁이미	-938
▁정확	-939
▁존재	-940
▁댓글	-941
▁성장	-942
▁같은데	-943
▁뿐	-944
▁작성	-945
▁힘들	-946
▁완	-947
▁수립	-948
▁절차	-949
▁담당자	-950
il	-951
▁이루어	-952
▁크	-953
▁협의	-954
▁보다는	-955
▁구성원에게	-956
▁친	-957
되었	-958
ud	-959
▁자료	-960
▁해서	-961
▁변화에	-962
▁대상	-963
▁받아	-964
밖에	-965
선거	-966
▁회사에서	-967
▁우선	-968
▁제한	-969
▁낮	-970
▁곳	-971
루션	-972
기도	-973
향이	-974
화를	-975
▁게시	-976
▁볼	-977
▁실질	-978
하도록	-979
▁물론	-980
▁처리	-981
▁질	-982
▁언제	-983
▁파트	-984
▁필요할	-985
▁능	-986
으며	-987
▁마련	-988
▁선택	-989
▁그렇게	-990
▁부서간	-991
떨어	-992
▁등의	-993
▁승진	-994
▁이슈	-995
▁g	-996
▁월	-997
▁가장	-998
▁역량을	-999
▁적절한	-1000
이드	-1001
▁먼	-1002
▁행동	-1003
▁잡	-1004
하면서	-1005
\^\^	-1006
지가	-1007
▁얼마	-1008
han	-1009
▁실무	-1010
▁의미	-1011
▁속	-1012
ea	-1013
관계	-1014
▁인해	-1015
기가	-1016
▁일정	-1017
의사	-1018
▁많아	-1019
▁회사는	-1020
이터	-1021
▁기반	-1022
▁도움	-1023
▁과감한	-1024
▁느낌	-1025
▁지난	-1026
▁선거구	-1027
▁체	-1028
▁축	-1029
eep	-1030
▁12	-1031
▁계획	-1032
▁연장	-1033
▁쉽	-1034
어야	-1035
▁pm	-1036
▁올해	-1037
▁도입	-1038
심포니	-1039
소화	-1040
▁네	-1041
므로	-1042
▁직급	-1043
▁가능한	-1044
▁그런데	-1045
▁to	-1046
▁경쟁	-1047
▁동기	-1048
▁전혀	-1049
▁휴일	-1050
▁애	-1051
목표	-1052
좌석	-1053
▁나는	-1054
▁시작	-1055
▁자세	-1056
▁봅니다	-1057
▁같다	-1058
▁파악	-1059
▁솔루션	-1060
hange	-1061
구조	-1062
▁잘못	-1063
▁살	-1064
▁오늘	-1065
와의	-1066
▁기대	-1067
▁대표	-1068
▁\^\^	-1069
는지	-1070
라면	-1071
부문	-1072
▁떨어	-1073
▁자율	-1074
에서의	-1075
▁의욕	-1076
loud	-1077
▁성과를	-1078
▁뭔	-1079
원이	-1080
▁복지	-1081
▁인식	-1082
▁생각됩니다	-1083
▁박	-1084
▁열린	-1085
들도	-1086
▁당연	-1087
아요	-1088
▁자주	-1089
▁하여	-1090
▁내용을	-1091
이가	-1092
장이	-1093
▁하였	-1094
▁발전	-1095
▁이에	-1096
▁듣	-1097
▁건강	-1098
▁전환	-1099
▁유심포니	-1100
▁사고	-1101
▁있으나	-1102
인가요	-1103
▁스스로	-1104
▁면	-1105
▁수도	-1106
▁올라	-1107
▁주변	-1108
원의	-1109
▁불가	-1110
▁아닐	-1111
▁제안	-1112
▁지나	-1113
▁하이	-1114
▁대부분	-1115
▁제대로	-1116
▁육성	-1117
▁않을까	-1118
이라는	-1119
▁못하는	-1120
▁있다는	-1121
▁회사에	-1122
▁0	-1123
당한	-1124
케이션	-1125
▁시간외	-1126
경영	-1127
어나	-1128
ite	-1129
▁논의	-1130
▁deep	-1131
닉스	-1132
려주	-1133
▁많음	-1134
▁야근	-1135
해도	-1136
▁동일	-1137
▁별도	-1138
▁부탁드립니다	-1139
▁매출	-1140
▁시도	-1141
▁아닙	-1142
▁협력	-1143
▁업무가	-1144
▁싶습니다	-1145
▁번	-1146
▁접근	-1147
▁를	-1148
▁청	-1149
르게	-1150
▁먼저	-1151
하나	-1152
ess	-1153
▁e	-1154
▁되고	-1155
▁라는	-1156
▁전화	-1157
▁측면	-1158
▁있어야	-1159
▁국	-1160
▁날	-1161
개선	-1162
리를	-1163
뮤니	-1164
없는	-1165
▁더욱	-1166
▁선출	-1167
▁시간을	-1168
▁적극적으로	-1169
인드	-1170
▁서비스	-1171
▁아니고	-1172
▁“	-1173
▁만족	-1174
▁미래	-1175
▁작업	-1176
▁작년	-1177
▁찾아	-1178
했으면	-1179
ff	-1180
것이	-1181
▁가끔	-1182
▁바로	-1183
▁변화를	-1184
▁신기술	-1185
▁cloud	-1186
려고	-1187
수행	-1188
▁전달	-1189
▁주차	-1190
▁공간	-1191
▁팀의	-1192
들에게	-1193
iz	-1194
▁민	-1195
조건	-1196
▁누구	-1197
▁본인의	-1198
리가	-1199
▁가져	-1200
▁밖에	-1201
▁사무	-1202
▁주는	-1203
되면	-1204
마다	-1205
성화	-1206
▁불만	-1207
▁유지	-1208
▁중요한	-1209
▁직책자	-1210
사이트	-1211
▁기회가	-1212
▁있었으면	-1213
기회	-1214
로서	-1215
어요	-1216
추진	-1217
치를	-1218
▁기간	-1219
▁반대	-1220
▁없고	-1221
▁본인이	-1222
동완	-1223
확보	-1224
▁느끼	-1225
▁말고	-1226
▁사례	-1227
▁없다	-1228
워크	-1229
▁사전	-1230
▁가이드	-1231
▁토	-1232
정도	-1233
▁사측	-1234
▁중간	-1235
▁부족한	-1236
▁유연한	-1237
▁인한	-1238
뮤니케이션	-1239
▁카	-1240
방향	-1241
▁투표	-1242
▁하기	-1243
▁개인의	-1244
별로	-1245
▁다만	-1246
▁다음	-1247
▁참고	-1248
▁하이닉스	-1249
ec	-1250
▁공개	-1251
▁생각을	-1252
▁구성원들에게	-1253
ow	-1254
▁응	-1255
▁즉	-1256
▁pc	-1257
▁영역	-1258
▁출근	-1259
▁pro	-1260
un	-1261
▁와	-1262
피스	-1263
▁si	-1264
▁되었	-1265
▁경영층	-1266
하겠습니다	-1267
pi	-1268
▁꼭	-1269
▁데	-1270
로는	-1271
▁장애	-1272
▁발굴	-1273
▁어디	-1274
▁일방	-1275
▁지속적인	-1276
▁갈	-1277
▁희	-1278
상이	-1279
▁있게	-1280
▁지시	-1281
▁후보	-1282
방식	-1283
심히	-1284
▁받는	-1285
▁개개인	-1286
▁되어야	-1287
▁임금	-1288
▁있지	-1289
▁주시기	-1290
다가	-1291
▁연락	-1292
▁부분은	-1293
▁전사공	-1294
디어	-1295
분이	-1296
이기	-1297
▁않아	-1298
▁경향이	-1299
▁현장	-1300
이라도	-1301
▁변화가	-1302
▁양동완	-1303
as	-1304
▁손	-1305
ent	-1306
▁저희	-1307
▁아니면	-1308
▁이러한	-1309
▁조직간	-1310
위한	-1311
휴가	-1312
▁내가	-1313
▁입사	-1314
▁구성원에	-1315
▁장기적인	-1316
▁엄	-1317
부여	-1318
사람	-1319
▁연차수당	-1320
▁대체	-1321
▁리딩	-1322
▁안되	-1323
▁효과	-1324
▁충분히	-1325
것도	-1326
점이	-1327
▁사규	-1328
▁수평	-1329
▁혹시	-1330
▁갑	-1331
협업	-1332
▁전문가	-1333
▁팀원들의	-1334
▁무슨	-1335
았습니다	-1336
▁챙	-1337
조합	-1338
▁성공	-1339
듭니다	-1340
▁앞으로	-1341
ve	-1342
▁먹	-1343
▁단순	-1344
▁상태	-1345
▁ᅲ	-1346
▁습	-1347
텐데	-1348
활동	-1349
히려	-1350
▁좋아	-1351
▁특별	-1352
▁못하고	-1353
▁근로시간	-1354
▁근무시간	-1355
▁아닌가요	-1356
▁신뢰	-1357
▁사용자	-1358
▁열심히	-1359
▁의견이	-1360
▁있으며	-1361
▁활성화	-1362
▁오히려	-1363
▁아닙니다	-1364
▁설정	-1365
▁예약	-1366
하네요	-1367
ce	-1368
▁ib	-1369
▁강한	-1370
▁자발	-1371
▁조직이	-1372
▁않을까요	-1373
지원	-1374
▁부담	-1375
▁있는지	-1376
▁협업을	-1377
▁놓	-1378
해보	-1379
▁싶은	-1380
▁그럼	-1381
▁행복	-1382
▁하시는	-1383
직원	-1384
▁기능	-1385
▁이익	-1386
▁정의	-1387
▁진짜	-1388
▁격	-1389
마트	-1390
▁고생	-1391
▁일반	-1392
▁투입	-1393
원에서	-1394
하였습니다	-1395
▁김	-1396
▁위해서는	-1397
▁하시	-1398
▁것인지	-1399
▁중심의	-1400
▁은	-1401
▁혼	-1402
▁말이	-1403
▁이전	-1404
하거나	-1405
▁지속적으로	-1406
▁커뮤니케이션	-1407
▁못한	-1408
겠죠	-1409
▁bm	-1410
▁단위	-1411
▁퇴근	-1412
건가요	-1413
▁전략적	-1414
려는	-1415
정을	-1416
지지	-1417
▁동료	-1418
▁제고	-1419
▁해도	-1420
▁열린소리	-1421
▁구성원과의	-1422
시키	-1423
▁up	-1424
▁비교	-1425
▁없을	-1426
▁소통이	-1427
et	-1428
▁코	-1429
▁호	-1430
리더	-1431
▁대하여	-1432
는게	-1433
어도	-1434
▁높은	-1435
▁스마트	-1436
▁돈	-1437
▁음	-1438
윤리	-1439
▁정기	-1440
▁하루	-1441
▁기본급	-1442
▁항상	-1443
▁관심을	-1444
▁구체적인	-1445
건지	-1446
던데	-1447
했다	-1448
▁누가	-1449
▁대비	-1450
▁예를	-1451
▁제외	-1452
▁있다면	-1453
▁키	-1454
져야	-1455
회의	-1456
▁대화	-1457
▁등에	-1458
▁이의	-1459
▁협조	-1460
▁biz	-1461
니터	-1462
▁노사	-1463
▁실적	-1464
겁니다	-1465
더군요	-1466
▁여러분	-1467
▁떠	-1468
ign	-1469
▁받고	-1470
▁처음	-1471
cess	-1472
했습니다	-1473
▁아이디어	-1474
감을	-1475
처리	-1476
▁기다	-1477
▁아쉬	-1478
▁접속	-1479
▁근로기준	-1480
▁필요하다	-1481
이익	-1482
점을	-1483
▁좌석	-1484
▁회의실	-1485
▁근로기준법	-1486
수가	-1487
우리	-1488
자를	-1489
▁in	-1490
▁소속	-1491
었는데	-1492
▁부분에	-1493
▁팀원의	-1494
동안	-1495
들과	-1496
ice	-1497
▁과거	-1498
▁이게	-1499
▁합의	-1500
으로서	-1501
하고자	-1502
▁부족함	-1503
▁우리가	-1504
▁한다는	-1505
▁많습니다	-1506
▁믿	-1507
▁쉬	-1508
객관	-1509
▁인원	-1510
▁표현	-1511
▁이해가	-1512
▁site	-1513
▁하겠습니다	-1514
리한	-1515
프라	-1516
▁자동	-1517
▁그래서	-1518
▁삭	-1519
정보	-1520
▁그에	-1521
▁무조건	-1522
▁선거관리	-1523
시다	-1524
▁창출	-1525
▁상황이	-1526
▁수석님	-1527
보면	-1528
시에	-1529
▁것에	-1530
▁분이	-1531
▁이끌	-1532
▁합리	-1533
▁게시판	-1534
▁문화가	-1535
▁사업을	-1536
▁업무량	-1537
▁사람들이	-1538
▁패	-1539
▁계산	-1540
▁받을	-1541
▁분야	-1542
▁윤리	-1543
▁기회를	-1544
▁change	-1545
하셨	-1546
▁의문	-1547
▁추구	-1548
▁도움이	-1549
▁협업이	-1550
▁ᄒ	-1551
▁가지	-1552
▁시장	-1553
ol	-1554
ᄏᄏ	-1555
▁뒤	-1556
▁온	-1557
관점	-1558
니스	-1559
이는	-1560
ork	-1561
▁객관	-1562
▁요즘	-1563
다보니	-1564
▁삼	-1565
사용	-1566
▁그만	-1567
▁분석	-1568
▁kpi	-1569
▁공감대	-1570
▁실질적인	-1571
센터	-1572
소한	-1573
수석	-1574
중에	-1575
▁신경	-1576
시스템	-1577
,,	-1578
핵심	-1579
▁습득	-1580
▁신입	-1581
▁주말	-1582
▁자신의	-1583
dt	-1584
들에	-1585
만원	-1586
주도	-1587
할수	-1588
▁30	-1589
▁라고	-1590
▁원하는	-1591
▁의사소통	-1592
▁써	-1593
같은	-1594
미나	-1595
▁등이	-1596
▁내용이	-1597
▁급여체계	-1598
▁모르겠습니다	-1599
▁귀	-1600
▁고정	-1601
▁기획	-1602
▁불구	-1603
▁삭제	-1604
▁올리	-1605
▁제보	-1606
▁행위	-1607
▁사업에	-1608
▁맡	-1609
▁읽	-1610
▁클	-1611
년도	-1612
이지	-1613
하겠	-1614
▁거의	-1615
▁형성	-1616
▁혹은	-1617
의사결정	-1618
든지	-1619
이면	-1620
▁돌아	-1621
▁경우도	-1622
▁보여주	-1623
▁실행력	-1624
▁정확한	-1625
▁주시면	-1626
10	-1627
▁틀	-1628
수를	-1629
▁바라	-1630
▁100	-1631
▁아닌가	-1632
일을	-1633
▁공식	-1634
▁핵심	-1635
▁노력이	-1636
▁따라서	-1637
▁않도록	-1638
▁충분한	-1639
되었으면	-1640
▁조직문화	-1641
▁익	-1642
공유	-1643
봐야	-1644
▁때문	-1645
▁마인드	-1646
▁모니터	-1647
▁안되는	-1648
▁선거관리위원	-1649
▁는	-1650
도를	-1651
치가	-1652
▁나아	-1653
▁지양	-1654
한다는	-1655
▁지원이	-1656
▁평가를	-1657
그램	-1658
인이	-1659
▁느껴	-1660
▁어떨	-1661
▁형태	-1662
▁같네요	-1663
▁악	-1664
▁개별	-1665
▁보는	-1666
▁원칙	-1667
▁원활	-1668
▁당연히	-1669
▁생각됨	-1670
▁동기부여	-1671
▁주셨으면	-1672
▁긍	-1673
▁늦	-1674
드리	-1675
스럽	-1676
▁오픈	-1677
▁절대	-1678
정적인	-1679
▁그대로	-1680
▁노동조합	-1681
▁process	-1682
▁죄	-1683
롭게	-1684
▁ai	-1685
▁강조	-1686
▁나가	-1687
▁신속	-1688
▁인사	-1689
▁공정한	-1690
▁성과에	-1691
▁역량개발	-1692
▁전사공지	-1693
보안	-1694
산업	-1695
의견	-1696
▁관한	-1697
▁달성	-1698
▁목적	-1699
▁뭔가	-1700
한다면	-1701
▁사람은	-1702
▁없다고	-1703
ew	-1704
▁폐	-1705
기업	-1706
헬스	-1707
▁능력	-1708
▁설치	-1709
▁아마	-1710
▁팀내	-1711
up	-1712
▁컨	-1713
인트	-1714
▁st	-1715
▁여기	-1716
▁운동	-1717
▁정리	-1718
▁하게	-1719
하다는	-1720
ay	-1721
▁학	-1722
더라	-1723
운동	-1724
▁반복	-1725
▁진급	-1726
팀에서	-1727
▁칭	-1728
▁ᄒᄒ	-1729
▁수용	-1730
▁채용	-1731
▁초과	-1732
하여야	-1733
▁인력이	-1734
▁생각하는	-1735
▁하면서	-1736
▁불구하고	-1737
▁난	-1738
▁18	-1739
▁바꾸	-1740
▁진정	-1741
하시면	-1742
▁업무의	-1743
▁법률	-1744
▁상호	-1745
▁관계사	-1746
▁하는지	-1747
▁구성원과	-1748
▁외부사이트	-1749
▁극	-1750
▁얻	-1751
▁과연	-1752
▁달라	-1753
▁솔직	-1754
▁언급	-1755
▁예전	-1756
▁인재	-1757
▁특성	-1758
▁하며	-1759
으로는	-1760
▁방향성	-1761
단위	-1762
전히	-1763
▁사유	-1764
부서의	-1765
▁관련하여	-1766
▁되었으면	-1767
ul	-1768
us	-1769
▁쌓	-1770
러운	-1771
▁부터	-1772
▁수렴	-1773
▁의무	-1774
▁칭찬	-1775
▁희망	-1776
▁답변을	-1777
▁했으면	-1778
▁되면	-1779
▁보장	-1780
▁상관	-1781
▁일에	-1782
▁제조	-1783
▁상황에	-1784
▁현재의	-1785
▁납	-1786
▁봤	-1787
▁태	-1788
▁트	-1789
감이	-1790
서는	-1791
스트	-1792
제로	-1793
▁re	-1794
▁비해	-1795
▁작은	-1796
▁주도	-1797
▁리더쉽	-1798
▁분들은	-1799
▁미흡하다고	-1800
한테	-1801
▁계신	-1802
▁독려	-1803
▁참석	-1804
▁헬스	-1805
▁교육을	-1806
▁환경이	-1807
▁근로자위원	-1808
일이	-1809
ind	-1810
▁과도	-1811
▁배치	-1812
▁분명	-1813
▁한계	-1814
중심의	-1815
▁듭니다	-1816
▁목표를	-1817
▁생각해	-1818
▁아직도	-1819
▁사용하는	-1820
▁생각한다	-1821
장의	-1822
하니	-1823
▁po	-1824
▁공동	-1825
▁사회	-1826
▁으로	-1827
▁조합	-1828
▁크게	-1829
▁윤리경영	-1830
▁있었습니다	-1831
ut	-1832
▁첫	-1833
것을	-1834
시길	-1835
전문	-1836
▁15	-1837
▁등등	-1838
▁없었	-1839
▁유관	-1840
▁제기	-1841
▁준수	-1842
▁증가	-1843
▁경영진	-1844
▁소통을	-1845
▁좋겠다	-1846
ication	-1847
▁담	-1848
▁탈	-1849
운영	-1850
이상	-1851
전략	-1852
▁구축	-1853
▁위반	-1854
하려는	-1855
▁세미나	-1856
▁환경을	-1857
ct	-1858
▁됨	-1859
▁다수	-1860
▁여유	-1861
▁차이가	-1862
▁궁금합니다	-1863
am	-1864
▁필	-1865
효율	-1866
▁만드	-1867
▁수정	-1868
▁예정	-1869
▁전에	-1870
▁조정	-1871
▁주고	-1872
▁불이익	-1873
▁평가가	-1874
▁왔	-1875
기간	-1876
스를	-1877
아야	-1878
일에	-1879
했던	-1880
pen	-1881
▁구분	-1882
▁영업	-1883
▁전자	-1884
▁존중	-1885
▁주어	-1886
▁모습이	-1887
▁없어서	-1888
▁교체	-1889
▁분실	-1890
▁회사와	-1891
▁엘	-1892
▁잠	-1893
▁테	-1894
식을	-1895
치는	-1896
팀의	-1897
▁만큼	-1898
▁이건	-1899
▁하셨	-1900
졌으면	-1901
▁its	-1902
▁휴가를	-1903
▁나는우리	-1904
▁꾸	-1905
▁빨	-1906
인가	-1907
후보	-1908
▁갖고	-1909
▁비슷	-1910
▁비즈	-1911
▁입력	-1912
▁주관	-1913
▁목소리	-1914
▁길	-1915
▁라	-1916
▁윗	-1917
▁id	-1918
▁가는	-1919
▁오래	-1920
▁중에	-1921
▁평균	-1922
▁사항은	-1923
▁추진력	-1924
▁개인적으로	-1925
장실	-1926
▁받았	-1927
▁비전	-1928
▁출마	-1929
수석님	-1930
▁실제로	-1931
▁넣	-1932
▁범	-1933
eer	-1934
▁금융	-1935
▁불안	-1936
▁출장	-1937
습니까	-1938
▁노력을	-1939
더라구요	-1940
▁기준으로	-1941
unication	-1942
fr	-1943
▁앉	-1944
만을	-1945
▁52	-1946
▁바탕	-1947
오피스	-1948
하는게	-1949
▁관점에서	-1950
▁팀원들이	-1951
▁긴	-1952
명을	-1953
번호	-1954
▁근데	-1955
▁누군	-1956
▁매일	-1957
▁물어	-1958
▁발휘	-1959
▁아쉽	-1960
▁행사	-1961
▁skt	-1962
▁공유가	-1963
▁고객사의	-1964
▁깊	-1965
▁방해	-1966
▁야간	-1967
▁점심	-1968
▁향후	-1969
▁힘든	-1970
시간을	-1971
▁내용은	-1972
▁스마트워크	-1973
▁쪽	-1974
노동	-1975
▁글이	-1976
▁많았	-1977
▁매년	-1978
▁없애	-1979
▁여부	-1980
주세요	-1981
집니다	-1982
▁제도가	-1983
▁프로그램	-1984
에만	-1985
▁so	-1986
▁개입	-1987
▁논리	-1988
▁바람	-1989
▁보유	-1990
▁승인	-1991
▁아침	-1992
▁인상	-1993
▁채널	-1994
▁간소화	-1995
▁관심이	-1996
▁회사를	-1997
▁계약	-1998
▁많으	-1999
▁말을	-2000
▁사이	-2001
▁제발	-2002
▁통신	-2003
▁통합	-2004
▁그러나	-2005
▁들어가	-2006
▁사무실	-2007
▁개인적인	-2008
▁경우에는	-2009
▁잦	-2010
eed	-2011
▁시키	-2012
▁영향	-2013
▁판결	-2014
▁형식	-2015
십니다	-2016
▁기술을	-2017
▁않으면	-2018
▁우리는	-2019
▁있으니	-2020
▁장기적	-2021
▁구성원들은	-2022
▁#	-2023
▁병	-2024
▁옆	-2025
명이	-2026
지급	-2027
▁24	-2028
▁경청	-2029
▁쉽지	-2030
▁아주	-2031
▁얼마나	-2032
▁입장에서	-2033
▁자기주도	-2034
▁선거관리위원회	-2035
le	-2036
드백	-2037
▁동안	-2038
▁따로	-2039
▁자격	-2040
▁추천	-2041
▁항목	-2042
▁허용	-2043
겠다는	-2044
베이터	-2045
▁리더의	-2046
▁상대적으로	-2047
▁”	-2048
▁굳	-2049
드시	-2050
려면	-2051
많은	-2052
바일	-2053
장기	-2054
▁경협	-2055
▁나와	-2056
▁선정	-2057
▁연구	-2058
▁토론	-2059
변화에	-2060
했는데	-2061
▁메일을	-2062
같이	-2063
분들	-2064
장을	-2065
▁ᅲᅲ	-2066
▁다르	-2067
▁받은	-2068
▁위주	-2069
▁창의	-2070
하려고	-2071
▁불가능	-2072
▁되었습니다	-2073
ok	-2074
▁디	-2075
▁품	-2076
미팅	-2077
▁금액	-2078
▁지정	-2079
▁판례	-2080
▁의견에	-2081
▁자리를	-2082
▁피드백	-2083
▁하네요	-2084
ms	-2085
▁뽑	-2086
놓고	-2087
만큼	-2088
주차	-2089
▁때가	-2090
▁부장	-2091
▁요소	-2092
▁지식	-2093
▁팀이	-2094
▁건가요	-2095
▁선거에	-2096
▁역할을	-2097
▁백	-2098
▁암	-2099
부족	-2100
줘야	-2101
화된	-2102
▁넘어	-2103
▁설득	-2104
▁엄청	-2105
▁오해	-2106
▁확실	-2107
▁결과를	-2108
▁방법이	-2109
▁communication	-2110
리지	-2111
업체	-2112
함이	-2113
▁기여	-2114
▁맞지	-2115
▁무시	-2116
▁상당	-2117
▁인지	-2118
▁관련된	-2119
▁등으로	-2120
▁역량확보	-2121
이며	-2122
주는	-2123
▁계시	-2124
▁맞게	-2125
▁전반	-2126
▁죄송	-2127
▁겁니다	-2128
▁근무자	-2129
▁모바일	-2130
▁모습을	-2131
팀입니다	-2132
▁방향으로	-2133
▁자유로운	-2134
▁노사협의회	-2135
ri	-2136
▁괜	-2137
▁플	-2138
스크	-2139
퇴근	-2140
▁등록	-2141
▁사원	-2142
▁소송	-2143
▁아님	-2144
▁의도	-2145
▁의한	-2146
▁지켜	-2147
가능	-2148
사원	-2149
ack	-2150
ult	-2151
▁이거	-2152
▁초기	-2153
▁같아요	-2154
▁규정을	-2155
▁그래도	-2156
▁모두가	-2157
▁역량이	-2158
▁이끌어	-2159
▁적극적	-2160
▁공유오피스	-2161
17	-2162
개편	-2163
계획	-2164
보는	-2165
▁pl	-2166
▁가진	-2167
▁경력	-2168
▁안타	-2169
▁않으	-2170
▁200	-2171
▁기업문화	-2172
▁생각하고	-2173
▁시스템이	-2174
▁프로젝트를	-2175
규모	-2176
내용	-2177
임을	-2178
투표	-2179
화가	-2180
▁결론	-2181
▁교통	-2182
▁다니	-2183
▁조치	-2184
까지는	-2185
▁그렇지	-2186
▁많은데	-2187
▁명확히	-2188
▁선거를	-2189
▁중요하지만	-2190
jt	-2191
▁j	-2192
▁뭘	-2193
▁벌	-2194
▁죽	-2195
함을	-2196
▁ce	-2197
▁수가	-2198
▁수주	-2199
▁이직	-2200
▁적은	-2201
캔미팅	-2202
▁상황을	-2203
▁했는데	-2204
▁화장실	-2205
▁open	-2206
▁밀	-2207
▁싫	-2208
elf	-2209
▁뿐만	-2210
▁연계	-2211
때문에	-2212
▁부분을	-2213
▁빠르게	-2214
▁사항에	-2215
▁알려주	-2216
▁위하여	-2217
▁확보를	-2218
▁바탕으로	-2219
▁팀원들과	-2220
▁y	-2221
▁님	-2222
본부	-2223
상을	-2224
소스	-2225
▁별로	-2226
▁알려	-2227
▁저의	-2228
▁투명	-2229
▁수평적	-2230
▁신속한	-2231
▁팀원들에게	-2232
▁년	-2233
▁머	-2234
▁첨	-2235
라우	-2236
▁17	-2237
▁다들	-2238
▁매번	-2239
▁무효	-2240
▁일단	-2241
▁지방	-2242
▁축소	-2243
▁파일	-2244
▁해외	-2245
위주의	-2246
이라면	-2247
▁des	-2248
▁반드시	-2249
▁보상이	-2250
▁사항을	-2251
▁정당한	-2252
사업부문	-2253
프로세스	-2254
▁쓸	-2255
것은	-2256
요일	-2257
져서	-2258
지에	-2259
▁눈치	-2260
▁대외	-2261
▁맞춰	-2262
▁박탈	-2263
▁보관	-2264
▁상위	-2265
▁소리	-2266
▁어쩔	-2267
십니까	-2268
▁것처럼	-2269
▁기존의	-2270
▁느낌이	-2271
▁모르는	-2272
▁모르겠지만	-2273
▁우리회사는	-2274
20	-2275
▁욕	-2276
여서	-2277
트북	-2278
end	-2279
tom	-2280
▁드리	-2281
▁점검	-2282
▁정당	-2283
▁정해	-2284
▁사업의	-2285
▁여전히	-2286
▁조직을	-2287
▁최소한	-2288
ap	-2289
▁폭	-2290
더니	-2291
십시	-2292
집중	-2293
팀장	-2294
▁11	-2295
▁격려	-2296
▁시급	-2297
▁안된	-2298
▁주요	-2299
▁지하	-2300
▁퇴직	-2301
▁방식의	-2302
▁보고서	-2303
▁자체가	-2304
▁활동을	-2305
▁중심으로	-2306
ad	-2307
로만	-2308
▁내재	-2309
▁당장	-2310
▁못함	-2311
▁부하	-2312
▁리더가	-2313
▁문제를	-2314
▁벗	-2315
▁압	-2316
가고	-2317
단계	-2318
메일	-2319
영역	-2320
정에	-2321
혁명	-2322
▁co	-2323
▁tr	-2324
▁굳이	-2325
▁그때	-2326
▁낮은	-2327
▁듣고	-2328
▁만약	-2329
▁일관	-2330
하시고	-2331
▁개선을	-2332
▁답변이	-2333
▁입후보	-2334
▁캔미팅	-2335
▁차원에서	-2336
▁찬	-2337
자리	-2338
정책	-2339
혜택	-2340
ead	-2341
▁건의	-2342
▁명시	-2343
▁빨리	-2344
▁어떠	-2345
▁이는	-2346
▁장소	-2347
▁잦은	-2348
▁정착	-2349
라우드	-2350
▁경우는	-2351
▁팀원이	-2352
▁2017	-2353
▁과정에서	-2354
▁홍	-2355
개월	-2356
균형	-2357
방안	-2358
의식	-2359
제가	-2360
▁ᄏᄏ	-2361
▁규모	-2362
▁비율	-2363
▁역시	-2364
▁예상	-2365
▁인터	-2366
는데요	-2367
▁고객의	-2368
▁데이터	-2369
▁팀장이	-2370
▁하는게	-2371
ottom	-2372
▁옳	-2373
규칙	-2374
만의	-2375
베이	-2376
사를	-2377
▁기타	-2378
▁단계	-2379
▁방송	-2380
▁수는	-2381
▁쉽게	-2382
▁이어	-2383
▁좋지	-2384
▁줄어	-2385
▁지연	-2386
조직의	-2387
▁기준급	-2388
▁실패를	-2389
▁업무와	-2390
▁주세요	-2391
▁work	-2392
▁구성원은	-2393
▁업무환경	-2394
▁이야기를	-2395
ob	-2396
▁넓	-2397
▁sp	-2398
▁저하	-2399
▁피해	-2400
차산업	-2401
▁노트북	-2402
▁동일한	-2403
▁소통의	-2404
▁구성원들과	-2405
▁획	-2406
거죠	-2407
계약	-2408
기획	-2409
하실	-2410
▁같아	-2411
▁개념	-2412
▁몰입	-2413
▁부재	-2414
▁스텝	-2415
▁이뤄	-2416
▁점이	-2417
시간에	-2418
▁관리가	-2419
▁최소화	-2420
▁투자가	-2421
▁혁신을	-2422
▁분위기가	-2423
▁아닐까요	-2424
▁연장근로	-2425
▁휴일근로	-2426
▁슬	-2427
그룹	-2428
명확	-2429
의를	-2430
자에	-2431
▁ex	-2432
▁단호	-2433
▁면담	-2434
▁범위	-2435
▁주기	-2436
▁것이라	-2437
▁문제는	-2438
▁우리의	-2439
▁이유로	-2440
▁책임을	-2441
▁추가로	-2442
▁한다면	-2443
▁협의회	-2444
▁아니라고	-2445
▁클라우드	-2446
▁걱	-2447
▁빈	-2448
간에	-2449
셔야	-2450
함에	-2451
▁al	-2452
▁사라	-2453
▁산업	-2454
▁예산	-2455
▁우려	-2456
▁응원	-2457
▁후배	-2458
하라고	-2459
▁보고를	-2460
▁사항이	-2461
▁100%	-2462
▁self	-2463
▁외부환경	-2464
▁블	-2465
▁술	-2466
년에	-2467
니어	-2468
비용	-2469
사고	-2470
isk	-2471
▁가족	-2472
▁비밀	-2473
▁시너	-2474
▁제거	-2475
▁처럼	-2476
명으로	-2477
▁성과가	-2478
▁잘못된	-2479
▁하였습니다	-2480
ch	-2481
▁총	-2482
분의	-2483
진행	-2484
참여	-2485
aff	-2486
▁강력	-2487
▁같고	-2488
▁나누	-2489
▁당시	-2490
▁산정	-2491
▁에서	-2492
▁올려	-2493
▁원래	-2494
▁정산	-2495
▁혼자	-2496
▁결과가	-2497
▁된다고	-2498
▁때로는	-2499
▁사용할	-2500
▁포인트	-2501
▁비즈니스	-2502
▁선거운동	-2503
▁조직구조	-2504
▁유심포니에	-2505
▁움	-2506
변경	-2507
여야	-2508
있게	-2509
지면	-2510
ure	-2511
▁강요	-2512
▁그게	-2513
▁많고	-2514
겠네요	-2515
▁new	-2516
▁off	-2517
▁top	-2518
▁개발을	-2519
▁현재는	-2520
▁근로자의	-2521
▁자유롭게	-2522
▁의사결정이	-2523
느냐	-2524
팀원	-2525
own	-2526
▁금번	-2527
▁나서	-2528
▁배분	-2529
▁순환	-2530
▁의해	-2531
▁적어	-2532
▁첨부	-2533
ital	-2534
▁과도한	-2535
▁분들도	-2536
▁이동을	-2537
▁대상으로	-2538
▁측면에서	-2539
▁해주세요	-2540
▁구성원들을	-2541
▁끼	-2542
▁딱	-2543
분야	-2544
장에	-2545
제를	-2546
int	-2547
▁li	-2548
▁강제	-2549
▁것임	-2550
▁긍정	-2551
▁맞추	-2552
▁미리	-2553
▁소요	-2554
▁수고	-2555
▁알아	-2556
▁업체	-2557
▁정작	-2558
겠지요	-2559
▁pjt	-2560
▁상대방	-2561
▁있나요	-2562
▁통해서	-2563
▁고려하여	-2564
▁양수석님	-2565
▁deepc	-2566
▁팀원들과의	-2567
▁해주셨으면	-2568
▁둘	-2569
▁봄	-2570
받는	-2571
셔틀	-2572
일수	-2573
esh	-2574
▁꾸준	-2575
▁내려	-2576
▁대리	-2577
▁엘리	-2578
▁인적	-2579
▁일할	-2580
▁제약	-2581
▁지향	-2582
식으로	-2583
▁고민이	-2584
▁교육이	-2585
▁아쉬움	-2586
▁deepchange	-2587
상의	-2588
신이	-2589
심이	-2590
▁pi	-2591
▁새로	-2592
▁시각	-2593
▁시대	-2594
▁움직	-2595
▁자연	-2596
▁지키	-2597
▁차이	-2598
▁하니	-2599
▁하다	-2600
으로써	-2601
▁방안을	-2602
▁인터넷	-2603
▁무엇인지	-2604
▁상황에서	-2605
▁있겠지만	-2606
▁낼	-2607
▁붙	-2608
▁훨	-2609
끼리	-2610
나는	-2611
년차	-2612
없음	-2613
자와	-2614
▁가치	-2615
▁도출	-2616
▁바꿔	-2617
▁받지	-2618
▁보기	-2619
▁복잡	-2620
▁약간	-2621
▁어찌	-2622
▁용량	-2623
▁주신	-2624
▁혜택	-2625
▁비슷한	-2626
▁사람들	-2627
하십니까	-2628
▁근무환경	-2629
▁대해서도	-2630
▁방식으로	-2631
▁조직개편	-2632
▁staff	-2633
ht	-2634
▁싸	-2635
▁억	-2636
라인	-2637
상황	-2638
었던	-2639
오는	-2640
▁바쁘	-2641
▁삼성	-2642
▁일은	-2643
업무에	-2644
이네요	-2645
자에게	-2646
▁ceo	-2647
▁관리를	-2648
▁리소스	-2649
▁비효율	-2650
▁사전에	-2651
▁오피스	-2652
▁이동이	-2653
▁중장기	-2654
▁아니지만	-2655
im	-2656
강화	-2657
로의	-2658
이니	-2659
자기	-2660
ver	-2661
▁대처	-2662
▁오류	-2663
▁저녁	-2664
▁적합	-2665
▁정상	-2666
▁홍보	-2667
▁나오는	-2668
▁출퇴근	-2669
▁cult	-2670
▁팀원과의	-2671
▁bottom	-2672
▁뛰	-2673
▁옮	-2674
▁페	-2675
실행	-2676
▁개방	-2677
▁건지	-2678
▁방문	-2679
▁안될	-2680
▁안정	-2681
▁참조	-2682
▁챙겨	-2683
서비스	-2684
▁car	-2685
▁만드는	-2686
▁수당을	-2687
▁싶네요	-2688
▁아무리	-2689
▁이유는	-2690
▁정확히	-2691
▁팀장의	-2692
▁2018	-2693
▁개개인의	-2694
▁수행하는	-2695
▁지금까지	-2696
▁괴	-2697
지막	-2698
▁간혹	-2699
▁납득	-2700
▁민주	-2701
▁생기	-2702
▁생활	-2703
▁이하	-2704
▁탈피	-2705
▁통보	-2706
▁가능할	-2707
▁교통비	-2708
▁기준이	-2709
▁방향에	-2710
▁아닐까	-2711
▁않는다	-2712
▁자발적	-2713
▁조직에	-2714
fresh	-2715
▁신입사원	-2716
▁이해관계	-2717
▁있을까요	-2718
ex	-2719
▁똑	-2720
기반	-2721
카드	-2722
▁개편	-2723
▁규칙	-2724
▁답답	-2725
▁분배	-2726
▁이기	-2727
▁점점	-2728
▁회식	-2729
했다고	-2730
▁ict	-2731
▁말씀드	-2732
▁신사업	-2733
▁알아서	-2734
▁위주의	-2735
주셨으면	-2736
▁제수당이	-2737
▁엘리베이터	-2738
▁감사드립니다	-2739
30	-2740
▁꺼	-2741
▁뒷	-2742
▁숙	-2743
▁쓴	-2744
▁프	-2745
려서	-2746
수준	-2747
외부	-2748
우고	-2749
트레	-2750
▁40	-2751
▁금지	-2752
▁높아	-2753
▁분은	-2754
▁성격	-2755
▁시점	-2756
▁유도	-2757
▁종료	-2758
▁종종	-2759
▁직위	-2760
▁퇴사	-2761
▁훨씬	-2762
▁같아서	-2763
▁개인별	-2764
▁느끼는	-2765
▁받아야	-2766
▁방향을	-2767
▁이제는	-2768
프로젝트	-2769
▁lead	-2770
▁신규사업	-2771
▁했습니다	-2772
sk	-2773
▁놀	-2774
▁묻	-2775
년간	-2776
노조	-2777
생각	-2778
심을	-2779
ata	-2780
▁부드	-2781
▁사안	-2782
▁선배	-2783
▁연말	-2784
▁장려	-2785
ance	-2786
▁dig	-2787
▁많아서	-2788
▁보이는	-2789
▁이해하고	-2790
▁digital	-2791
ue	-2792
생활	-2793
시켜	-2794
자료	-2795
직급	-2796
our	-2797
▁ag	-2798
▁구매	-2799
▁나온	-2800
▁대신	-2801
▁마치	-2802
▁설문	-2803
▁일의	-2804
십시오	-2805
일까요	-2806
▁sup	-2807
▁관심과	-2808
▁방법을	-2809
▁사람을	-2810
▁스트레	-2811
▁없네요	-2812
▁인프라	-2813
▁있네요	-2814
시겠지만	-2815
▁기반으로	-2816
▁어려움이	-2817
▁너	-2818
▁층	-2819
▁침	-2820
만한	-2821
번째	-2822
스가	-2823
요청	-2824
▁on	-2825
▁근본	-2826
▁수직	-2827
▁스타	-2828
▁아는	-2829
▁원인	-2830
▁이외	-2831
▁청취	-2832
▁축하	-2833
▁취지	-2834
▁할당	-2835
▁해보	-2836
▁솔직히	-2837
▁타부서	-2838
▁판단됨	-2839
▁구성원간	-2840
▁근무하는	-2841
▁업무수행	-2842
▁스마트워크팀	-2843
st	-2844
▁멀	-2845
▁밑	-2846
▁철	-2847
과정	-2848
느라	-2849
물을	-2850
상에	-2851
할때	-2852
000	-2853
▁16	-2854
▁50	-2855
▁기사	-2856
▁선제	-2857
▁아예	-2858
▁증설	-2859
▁평소	-2860
께서는	-2861
▁벗어나	-2862
▁없다는	-2863
▁이해를	-2864
▁자리가	-2865
▁보고문화	-2866
▁일방적인	-2867
▁우리회사의	-2868
▁culture	-2869
em	-2870
▁팩	-2871
결과	-2872
고객	-2873
받고	-2874
▁공통	-2875
▁기억	-2876
▁어제	-2877
▁질문	-2878
▁차라	-2879
것으로	-2880
▁경험을	-2881
▁그동안	-2882
▁내용에	-2883
▁다르게	-2884
▁달성을	-2885
▁지원을	-2886
hr	-2887
▁ᄋ	-2888
▁레	-2889
세대	-2890
식당	-2891
신청	-2892
했을	-2893
▁과장	-2894
▁나왔	-2895
▁된다	-2896
▁봐야	-2897
▁조사	-2898
▁체크	-2899
▁할수	-2900
분들이	-2901
적이지	-2902
▁것이다	-2903
▁심포니	-2904
▁이유가	-2905
▁적어도	-2906
▁정도로	-2907
▁정보를	-2908
▁특별한	-2909
▁끊	-2910
성장	-2911
었다	-2912
지시	-2913
▁간의	-2914
▁글로	-2915
▁마찬	-2916
▁쓰고	-2917
▁적응	-2918
▁좋았	-2919
▁최고	-2920
줬으면	-2921
▁마지막	-2922
▁방식이	-2923
▁부장님	-2924
▁설명회	-2925
▁차라리	-2926
▁환경에	-2927
▁뜻	-2928
▁흐	-2929
걸로	-2930
라서	-2931
분에	-2932
수의	-2933
bal	-2934
▁13	-2935
▁단체	-2936
▁도와	-2937
▁많다	-2938
▁무관	-2939
▁의존	-2940
▁읽어	-2941
▁챙기	-2942
▁충원	-2943
사항에	-2944
사항을	-2945
식회사	-2946
▁너무나	-2947
▁누군가	-2948
▁당사의	-2949
▁문화를	-2950
▁본부장	-2951
▁이상의	-2952
▁일하고	-2953
▁전문성	-2954
▁특별히	-2955
▁특성상	-2956
▁평가에	-2957
적으로는	-2958
▁어렵습니다	-2959
pt	-2960
▁됐	-2961
▁밝	-2962
▁풀	-2963
라이	-2964
밀한	-2965
수로	-2966
호화	-2967
ort	-2968
vey	-2969
▁sm	-2970
▁믿고	-2971
▁불합	-2972
▁셔틀	-2973
▁실천	-2974
▁의지	-2975
▁이름	-2976
▁해소	-2977
주시면	-2978
comm	-2979
▁res	-2980
▁고려한	-2981
▁기본적인	-2982
▁말씀하신	-2983
▁사용자는	-2984
▁시스템을	-2985
▁전자투표	-2986
▁끌	-2987
▁좌	-2988
과제	-2989
대응	-2990
르는	-2991
보호	-2992
수도	-2993
이동	-2994
자로	-2995
통신	-2996
한데	-2997
ase	-2998
▁간단	-2999
▁권리	-3000
▁대변	-3001
▁등급	-3002
▁보통	-3003
▁에게	-3004
▁저장	-3005
▁조항	-3006
▁팀간	-3007
해주는	-3008
▁내에서	-3009
▁생각은	-3010
▁수준의	-3011
▁시간에	-3012
▁자료를	-3013
▁마찬가지	-3014
▁헬스센터	-3015
▁design	-3016
ip	-3017
▁숫	-3018
▁즐	-3019
▁찍	-3020
겠다	-3021
르고	-3022
자고	-3023
ang	-3024
for	-3025
▁19	-3026
▁부정	-3027
▁분리	-3028
▁정부	-3029
▁bal	-3030
▁개인이	-3031
▁관점의	-3032
▁않나요	-3033
▁제도를	-3034
▁조금은	-3035
▁조직과	-3036
▁직원이	-3037
▁투자를	-3038
하였으면	-3039
urvey	-3040
▁기술중심	-3041
▁도전적인	-3042
▁진행하고	-3043
해주셨으면	-3044
던지	-3045
등을	-3046
법원	-3047
주신	-3048
지어	-3049
치고	-3050
휴무	-3051
▁36	-3052
▁lo	-3053
▁개진	-3054
▁교류	-3055
▁근태	-3056
▁두려	-3057
▁심각	-3058
▁익명	-3059
▁인간	-3060
만으로	-3061
▁ibm	-3062
▁강력한	-3063
▁선택과	-3064
▁식으로	-3065
▁어려워	-3066
▁이익을	-3067
▁일처리	-3068
▁지금도	-3069
▁차원의	-3070
▁최대한	-3071
▁data	-3072
▁mind	-3073
▁어떨까요	-3074
▁point	-3075
▁예정입니다	-3076
▁안녕하십니까	-3077
거리	-3078
대비	-3079
여금	-3080
제시	-3081
amm	-3082
ill	-3083
▁os	-3084
▁sy	-3085
▁가시	-3086
▁과반	-3087
▁발표	-3088
▁부당	-3089
▁사진	-3090
▁수익	-3091
▁안됨	-3092
▁의식	-3093
▁지지	-3094
▁통화	-3095
▁휴게	-3096
▁규정이	-3097
▁기존에	-3098
▁목표에	-3099
▁역량에	-3100
▁원활한	-3101
▁이번에	-3102
▁합리적인	-3103
▁공감합니다	-3104
▁프로세스가	-3105
▁환	-3106
고요	-3107
다니	-3108
려야	-3109
신저	-3110
으신	-3111
▁기울	-3112
▁나무	-3113
▁배포	-3114
▁위임	-3115
▁팀을	-3116
하는지	-3117
▁수준이	-3118
▁아닌지	-3119
▁것이라고	-3120
▁의욕관리	-3121
▁조직에서	-3122
▁현실적으로	-3123
ab	-3124
형태	-3125
ile	-3126
▁25	-3127
▁가고	-3128
▁바뀐	-3129
▁오후	-3130
▁위법	-3131
▁일일	-3132
▁있기	-3133
▁중복	-3134
▁직무	-3135
▁학습	-3136
스럽게	-3137
해서는	-3138
form	-3139
▁win	-3140
▁내재화	-3141
▁메신저	-3142
▁보이지	-3143
▁없으니	-3144
▁영향을	-3145
▁인력을	-3146
ammer	-3147
ource	-3148
▁refresh	-3149
tr	-3150
▁’	-3151
▁봐	-3152
구나	-3153
맞는	-3154
인다	-3155
인상	-3156
치게	-3157
▁가까	-3158
▁그럴	-3159
▁나올	-3160
▁네트	-3161
▁방지	-3162
▁장비	-3163
▁조건	-3164
▁지적	-3165
▁취업	-3166
▁편의	-3167
수당을	-3168
전문가	-3169
하다면	-3170
ango	-3171
▁con	-3172
▁상당히	-3173
▁안타깝	-3174
▁팀에서	-3175
lobal	-3176
▁짜	-3177
▁컬	-3178
냄새	-3179
듯이	-3180
사례	-3181
▁le	-3182
▁my	-3183
▁or	-3184
▁sh	-3185
▁가입	-3186
▁괜찮	-3187
▁그리	-3188
▁노무	-3189
▁등은	-3190
▁상사	-3191
▁생산	-3192
▁시켜	-3193
▁신고	-3194
▁영입	-3195
▁주지	-3196
▁mis	-3197
▁기술력	-3198
▁단위로	-3199
▁부분도	-3200
▁의미가	-3201
▁있어요	-3202
▁주차장	-3203
▁하나요	-3204
▁risk	-3205
▁사람들은	-3206
▁어느정도	-3207
▁효율적인	-3208
▁tango	-3209
mp	-3210
▁벤	-3211
▁잔	-3212
공간	-3213
대체	-3214
대화	-3215
모델	-3216
▁남겨	-3217
▁복리	-3218
▁사물	-3219
▁상세	-3220
▁차별	-3221
▁처벌	-3222
▁현상	-3223
분위기	-3224
하기도	-3225
▁그러면	-3226
▁단호한	-3227
▁변화의	-3228
▁불만이	-3229
▁심지어	-3230
▁업무는	-3231
▁줄어들	-3232
▁혁신이	-3233
▁힘들어	-3234
▁발생하는	-3235
▁사람에게	-3236
▁구성원입니다	-3237
기로	-3238
나서	-3239
스러	-3240
시로	-3241
어난	-3242
우는	-3243
으시	-3244
인의	-3245
작업	-3246
day	-3247
▁가질	-3248
▁국내	-3249
▁달리	-3250
▁대안	-3251
▁두고	-3252
▁마케	-3253
▁만든	-3254
▁매너	-3255
▁법과	-3256
▁안좋	-3257
▁않나	-3258
▁양해	-3259
▁연결	-3260
▁우수	-3261
▁자꾸	-3262
▁재무	-3263
▁차단	-3264
역량을	-3265
▁갑자기	-3266
▁것이고	-3267
▁관리자	-3268
▁그룹사	-3269
▁실무자	-3270
▁일어나	-3271
▁주어진	-3272
▁향상을	-3273
▁협업에	-3274
▁진행하는	-3275
▁align	-3276
▁중요하다고	-3277
▁global	-3278
▁yammer	-3279
▁구성원들과의	-3280
▁&	-3281
렌드	-3282
리라	-3283
에요	-3284
하던	-3285
ity	-3286
▁un	-3287
▁검색	-3288
▁그걸	-3289
▁남아	-3290
▁메뉴	-3291
▁소모	-3292
▁정자	-3293
▁태도	-3294
▁필수	-3295
▁했던	-3296
▁구체적	-3297
▁방식을	-3298
▁사람의	-3299
▁성장을	-3300
▁아래와	-3301
▁없는데	-3302
▁테스트	-3303
▁평가는	-3304
▁한계가	-3305
셨습니다	-3306
하더라도	-3307
▁여러가지	-3308
▁자기개발	-3309
▁근로자에게	-3310
▁survey	-3311
▁깨	-3312
▁컴	-3313
능력	-3314
반기	-3315
을때	-3316
정의	-3317
age	-3318
▁균형	-3319
▁때는	-3320
▁많지	-3321
▁모델	-3322
▁발송	-3323
▁보지	-3324
▁순간	-3325
▁정한	-3326
▁커피	-3327
▁마케팅	-3328
▁아닌데	-3329
▁좋을것	-3330
▁팀원을	-3331
▁활동이	-3332
렸습니다	-3333
▁명확하게	-3334
▁모르겠음	-3335
▁보여주기	-3336
▁사전선거	-3337
▁않았으면	-3338
▁의사결정을	-3339
▁꼼	-3340
▁망	-3341
▁워	-3342
▁징	-3343
▁탄	-3344
동의	-3345
보상	-3346
비가	-3347
서를	-3348
워서	-3349
원을	-3350
이든	-3351
적극	-3352
후생	-3353
▁갖추	-3354
▁계정	-3355
▁까지	-3356
▁내년	-3357
▁말도	-3358
▁배정	-3359
▁보호	-3360
▁세부	-3361
▁쓰는	-3362
▁자산	-3363
▁적이	-3364
▁취합	-3365
▁통제	-3366
▁한데	-3367
▁화면	-3368
▁확산	-3369
시키는	-3370
하라는	-3371
▁out	-3372
▁권리를	-3373
▁노조가	-3374
▁동의를	-3375
▁사업팀	-3376
▁위에서	-3377
▁지속적	-3378
▁현상이	-3379
▁회사측	-3380
▁구성원도	-3381
▁사업부서	-3382
▁상관없이	-3383
▁주었으면	-3384
▁모르겠네요	-3385
▁일방적으로	-3386
▁감사하겠습니다	-3387
ed	-3388
sh	-3389
▁갔	-3390
▁덜	-3391
대표	-3392
들어	-3393
방법	-3394
일로	-3395
회전	-3396
▁ms	-3397
▁반응	-3398
▁법인	-3399
▁서울	-3400
▁시설	-3401
▁외에	-3402
▁점은	-3403
▁제목	-3404
▁종합	-3405
관점의	-3406
된다면	-3407
ight	-3408
▁고민을	-3409
▁기술에	-3410
▁단순히	-3411
▁마음이	-3412
▁메일로	-3413
▁목표달	-3414
▁인력의	-3415
겠습니까	-3416
▁많았으면	-3417
ns	-3418
▁뉴	-3419
▁니	-3420
가야	-3421
방송	-3422
유연	-3423
통한	-3424
해요	-3425
ans	-3426
▁단지	-3427
▁들고	-3428
▁본질	-3429
▁비난	-3430
▁어쩌	-3431
▁저런	-3432
▁하신	-3433
▁현업	-3434
가능한	-3435
더라고	-3436
을까요	-3437
잖아요	-3438
▁강하게	-3439
▁기준을	-3440
▁노동자	-3441
▁만들고	-3442
▁무엇을	-3443
▁별도로	-3444
▁않다고	-3445
▁회사로	-3446
이기주의	-3447
▁건강관리	-3448
▁공유하고	-3449
▁상대평가	-3450
▁supex	-3451
▁실질적으로	-3452
fe	-3453
id	-3454
▁닫	-3455
▁짧	-3456
▁촉	-3457
경험	-3458
따른	-3459
쳐서	-3460
▁가산	-3461
▁놓고	-3462
▁다가	-3463
▁만한	-3464
▁수강	-3465
▁압박	-3466
▁정년	-3467
▁커리	-3468
▁포도	-3469
▁활발	-3470
했다는	-3471
▁soc	-3472
▁권한이	-3473
▁대응이	-3474
▁된다면	-3475
▁주시길	-3476
▁지금의	-3477
▁책임감	-3478
▁통하여	-3479
차원에서	-3480
▁대부분의	-3481
▁안됩니다	-3482
▁취업규칙	-3483
▁해주시면	-3484
▁구체적으로	-3485
▁부족하다고	-3486
과는	-3487
▁가야	-3488
▁공격	-3489
▁글쓴	-3490
▁느낄	-3491
▁당선	-3492
▁몇년	-3493
▁모금	-3494
▁문자	-3495
▁월급	-3496
▁유사	-3497
▁재미	-3498
▁제일	-3499
▁조회	-3500
▁폐지	-3501
으로의	-3502
site	-3503
▁대법원	-3504
▁업무로	-3505
▁유리한	-3506
▁이해와	-3507
▁인하여	-3508
▁있으신	-3509
▁조금더	-3510
▁좋지만	-3511
▁진정한	-3512
▁같은데요	-3513
▁단기적인	-3514
▁방향성에	-3515
▁복리후생	-3516
▁필요하며	-3517
▁구성원역량	-3518
▁office	-3519
▁resource	-3520
50	-3521
▁몸	-3522
▁착	-3523
권을	-3524
내는	-3525
비즈	-3526
셔도	-3527
연차	-3528
음을	-3529
자체	-3530
전환	-3531
측면	-3532
텐츠	-3533
투자	-3534
특성	-3535
해결	-3536
▁구글	-3537
▁금전	-3538
▁내는	-3539
▁돌파	-3540
▁소외	-3541
▁속도	-3542
▁이천	-3543
▁있던	-3544
▁조심	-3545
▁치우	-3546
▁팀에	-3547
▁해석	-3548
사항이	-3549
▁경쟁력	-3550
▁나중에	-3551
▁마시고	-3552
▁변경이	-3553
▁보완이	-3554
▁분들의	-3555
▁산정이	-3556
▁아니다	-3557
▁않아서	-3558
▁없지만	-3559
▁정도는	-3560
해주세요	-3561
▁150%	-3562
▁sent	-3563
▁근로계약	-3564
▁사용하지	-3565
▁생각하지	-3566
▁체계적인	-3567
▁구성원들에	-3568
24	-3569
ss	-3570
▁터	-3571
드맵	-3572
일은	-3573
있고	-3574
중인	-3575
지털	-3576
한번	-3577
,,,	-3578
:00	-3579
ail	-3580
▁각각	-3581
▁경향	-3582
▁서버	-3583
▁성향	-3584
▁않게	-3585
▁위에	-3586
▁위치	-3587
▁출입	-3588
▁포기	-3589
업무를	-3590
▁단기적	-3591
▁댓글을	-3592
▁동시에	-3593
▁목표가	-3594
▁수행을	-3595
▁어떠한	-3596
▁위주로	-3597
▁적합한	-3598
▁하시면	-3599
▁down	-3600
▁고객과의	-3601
▁유관부서	-3602
되었습니다	-3603
▁가능하도록	-3604
ft	-3605
거든	-3606
경우	-3607
내고	-3608
만이	-3609
성은	-3610
아니	-3611
주고	-3612
하되	-3613
▁de	-3614
▁고용	-3615
▁그랬	-3616
▁살펴	-3617
▁팩트	-3618
달라고	-3619
사업에	-3620
수당이	-3621
차원의	-3622
하셔서	-3623
▁경우에	-3624
▁경험이	-3625
▁꾸준히	-3626
▁나가는	-3627
▁노조의	-3628
▁대기업	-3629
▁변경에	-3630
▁별도의	-3631
▁보상을	-3632
▁사회적	-3633
▁상여금	-3634
▁소규모	-3635
▁없으면	-3636
▁올리는	-3637
▁이전에	-3638
▁저에게	-3639
▁집중할	-3640
▁활동에	-3641
▁후보자	-3642
ision	-3643
▁법인카드	-3644
▁있었는데	-3645
▁추진하는	-3646
▁입장에서는	-3647
▁자발적으로	-3648
▁ᅮ	-3649
▁광	-3650
▁헌	-3651
되기	-3652
랜드	-3653
순환	-3654
시킬	-3655
와서	-3656
티브	-3657
▁나름	-3658
▁동적	-3659
▁모호	-3660
▁소진	-3661
▁신설	-3662
▁연관	-3663
▁적정	-3664
▁정신	-3665
▁치중	-3666
▁품질	-3667
스러운	-3668
시간이	-3669
았는데	-3670
▁com	-3671
▁교육비	-3672
▁미지급	-3673
▁사람도	-3674
▁지금은	-3675
▁확보가	-3676
▁idea	-3677
▁기술역량	-3678
▁떨어지는	-3679
▁부족하다	-3680
▁선관위의	-3681
▁자리에서	-3682
▁평가제도	-3683
▁하더라도	-3684
▁구성원들도	-3685
▁들었습니다	-3686
▁받았습니다	-3687
▁balance	-3688
:1	-3689
db	-3690
ds	-3691
gr	-3692
pp	-3693
re	-3694
▁까	-3695
나마	-3696
너스	-3697
된다	-3698
선을	-3699
여부	-3700
오고	-3701
월에	-3702
하에	-3703
all	-3704
▁공공	-3705
▁관여	-3706
▁나은	-3707
▁배제	-3708
▁법정	-3709
▁산출	-3710
▁실시	-3711
▁진심	-3712
▁현황	-3713
▁형평	-3714
▁확장	-3715
들과의	-3716
이지만	-3717
▁같다는	-3718
▁개발에	-3719
▁결과에	-3720
▁경쟁사	-3721
▁권한을	-3722
▁근거로	-3723
▁배려가	-3724
▁부서의	-3725
▁선거가	-3726
▁하나의	-3727
▁회사내	-3728
있습니다	-3729
▁객관적인	-3730
▁방향성을	-3731
▁시스템에	-3732
▁정보보호	-3733
▁좋겠네요	-3734
▁의사결정에	-3735
▁빼	-3736
▁앱	-3737
거라	-3738
나고	-3739
르면	-3740
선수	-3741
어를	-3742
웃룩	-3743
조에	-3744
주시	-3745
책임	-3746
초에	-3747
치지	-3748
팀에	-3749
▁그건	-3750
▁냄새	-3751
▁대책	-3752
▁무언	-3753
▁비판	-3754
▁소개	-3755
▁완료	-3756
▁조율	-3757
▁증거	-3758
▁특이	-3759
▁패기	-3760
선거권	-3761
선수범	-3762
이트온	-3763
하려면	-3764
하였고	-3765
▁끝까지	-3766
▁체계가	-3767
▁하고자	-3768
▁문서보안	-3769
▁팀장님이	-3770
▁필요하고	-3771
▁죄송합니다	-3772
▁통상임금의	-3773
▁프로젝트에	-3774
ansform	-3775
▁삶	-3776
▁짐	-3777
▁천	-3778
건데	-3779
등급	-3780
말고	-3781
이버	-3782
이해	-3783
전한	-3784
절차	-3785
조차	-3786
티켓	-3787
▁걸로	-3788
▁것과	-3789
▁담배	-3790
▁더불	-3791
▁민감	-3792
▁발견	-3793
▁사과	-3794
▁스피	-3795
▁심의	-3796
▁이로	-3797
▁일도	-3798
▁친절	-3799
▁후에	-3800
개개인	-3801
근무제	-3802
포인트	-3803
▁가끔은	-3804
▁계시는	-3805
▁기준에	-3806
▁말하는	-3807
▁미래를	-3808
▁보면서	-3809
▁불편을	-3810
▁성과로	-3811
▁자리에	-3812
▁자신이	-3813
▁정해진	-3814
▁조치를	-3815
▁주셔서	-3816
▁참고로	-3817
해주시면	-3818
▁고민하고	-3819
▁단기성과	-3820
▁말씀드리	-3821
▁사용자의	-3822
▁이기주의	-3823
▁진행되고	-3824
▁팀장님의	-3825
차산업혁명	-3826
▁아쉽습니다	-3827
▁통상임금에	-3828
▁낭	-3829
▁흡	-3830
거면	-3831
님이	-3832
문서	-3833
분은	-3834
아닌	-3835
었음	-3836
오면	-3837
요소	-3838
전체	-3839
중한	-3840
▁14	-3841
▁21	-3842
▁80	-3843
▁감시	-3844
▁감정	-3845
▁걱정	-3846
▁다름	-3847
▁대다	-3848
▁메모	-3849
▁병행	-3850
▁사옥	-3851
▁상기	-3852
▁심야	-3853
▁올린	-3854
▁의심	-3855
▁주제	-3856
▁표시	-3857
▁했을	-3858
하기가	-3859
▁변화와	-3860
▁사업이	-3861
▁아쉬운	-3862
▁조직은	-3863
▁지나친	-3864
▁파트장	-3865
▁하세요	-3866
▁회의를	-3867
▁공식적인	-3868
▁관리하는	-3869
▁긍정적인	-3870
▁대체휴무	-3871
▁방법으로	-3872
▁사업개발	-3873
▁사업조직	-3874
▁올립니다	-3875
▁현실적인	-3876
▁부탁합니다	-3877
ansformation	-3878
▁겪	-3879
▁냉	-3880
▁숨	-3881
▁씁	-3882
▁팔	-3883
랫폼	-3884
려요	-3885
무리	-3886
승인	-3887
실을	-3888
은행	-3889
적임	-3890
향상	-3891
▁27	-3892
▁bp	-3893
▁가서	-3894
▁규제	-3895
▁나머	-3896
▁로그	-3897
▁못할	-3898
▁받으	-3899
▁분도	-3900
▁상시	-3901
▁이내	-3902
▁이와	-3903
▁조용	-3904
▁최종	-3905
▁희생	-3906
니까요	-3907
사업을	-3908
시간의	-3909
2017	-3910
▁kdb	-3911
▁규정에	-3912
▁근무를	-3913
▁네이버	-3914
▁되는데	-3915
▁명확화	-3916
▁시간과	-3917
▁아시는	-3918
▁여기서	-3919
▁연봉이	-3920
▁있었던	-3921
▁작년에	-3922
▁포함한	-3923
▁하려고	-3924
▁해야할	-3925
구성원의	-3926
▁대표하는	-3927
▁모니터링	-3928
▁때문입니다	-3929
cc	-3930
▁견	-3931
▁밖	-3932
검진	-3933
던가	-3934
따라	-3935
때는	-3936
레이	-3937
말을	-3938
역할	-3939
오니	-3940
음이	-3941
점은	-3942
지로	-3943
했고	-3944
▁검증	-3945
▁다를	-3946
▁바쁜	-3947
▁불법	-3948
▁스탭	-3949
▁오는	-3950
▁임의	-3951
▁전송	-3952
▁중시	-3953
▁직장	-3954
센티브	-3955
하지는	-3956
해야할	-3957
해야함	-3958
▁것인데	-3959
▁더불어	-3960
▁무언가	-3961
▁발생할	-3962
▁방안이	-3963
▁보인다	-3964
▁않지만	-3965
▁의견은	-3966
▁입장을	-3967
▁제도는	-3968
▁조금만	-3969
▁조성이	-3970
▁주장이	-3971
▁행동이	-3972
보입니다	-3973
졌습니다	-3974
▁고객사와	-3975
▁교육기회	-3976
▁분위기를	-3977
▁사업수행	-3978
▁전략적인	-3979
▁지나치게	-3980
▁진행되는	-3981
▁피선거권	-3982
▁협력업체	-3983
▁가능합니다	-3984
▁생각입니다	-3985
▁굉	-3986
▁빌	-3987
도로	-3988
심한	-3989
육성	-3990
▁22	-3991
▁pr	-3992
▁깊이	-3993
▁눈에	-3994
▁시정	-3995
▁인수	-3996
▁자제	-3997
▁저만	-3998
▁저해	-3999
▁전기	-4000
▁점을	-4001
▁지역	-4002
▁진입	-4003
▁찬성	-4004
▁청구	-4005
▁혼란	-4006
깁니다	-4007
로부터	-4008
명확한	-4009
부장님	-4010
옵니다	-4011
▁고객이	-4012
▁다수의	-4013
▁도대체	-4014
▁바라는	-4015
▁수행할	-4016
▁아마존	-4017
▁아웃룩	-4018
▁안되고	-4019
▁업무상	-4020
▁여유가	-4021
▁이메일	-4022
▁전사적	-4023
▁초집중	-4024
▁하는거	-4025
▁부서에서	-4026
▁솔선수범	-4027
▁여러분의	-4028
▁제수당에	-4029
▁최소한의	-4030
▁포함하여	-4031
▁않았습니다	-4032
▁우리회사가	-4033
▁career	-4034
br	-4035
op	-4036
▁z	-4037
▁꽤	-4038
▁덕	-4039
▁잃	-4040
▁젊	-4041
▁흔	-4042
득이	-4043
등이	-4044
뿐만	-4045
용이	-4046
인을	-4047
정산	-4048
지향	-4049
ive	-4050
▁26	-4051
▁lg	-4052
▁mo	-4053
▁ss	-4054
▁‘9	-4055
▁각종	-4056
▁경직	-4057
▁김상	-4058
▁대단	-4059
▁로컬	-4060
▁메시	-4061
▁몇몇	-4062
▁비중	-4063
▁식당	-4064
▁열정	-4065
▁체감	-4066
지니스	-4067
하기에	-4068
회사의	-4069
alue	-4070
back	-4071
▁50%	-4072
▁노무법	-4073
▁변경된	-4074
▁생각되	-4075
▁아무런	-4076
▁이해할	-4077
▁인력에	-4078
▁차세대	-4079
▁활용할	-4080
하다보니	-4081
▁2016	-4082
▁skms	-4083
▁공유하는	-4084
▁부드러운	-4085
▁외부교육	-4086
▁주십시오	-4087
▁포함되어	-4088
▁환경에서	-4089
▁궁금하네요	-4090
▁프로세스를	-4091
52	-4092
▁x	-4093
▁땅	-4094
▁뜨	-4095
▁맘	-4096
▁맨	-4097
▁묵	-4098
구성	-4099
기만	-4100
디오	-4101
에대	-4102
장은	-4103
장히	-4104
차피	-4105
창출	-4106
추구	-4107
act	-4108
ell	-4109
▁ch	-4110
▁가정	-4111
▁결재	-4112
▁공부	-4113
▁과다	-4114
▁늦게	-4115
▁들면	-4116
▁얼굴	-4117
▁응답	-4118
▁전부	-4119
▁주로	-4120
▁집단	-4121
▁포용	-4122
▁하실	-4123
으로만	-4124
▁job	-4125
▁결정을	-4126
▁구조가	-4127
▁글로벌	-4128
▁목표와	-4129
▁본인은	-4130
▁불편함	-4131
▁비용이	-4132
▁수당이	-4133
▁연봉제	-4134
▁의문이	-4135
▁절차를	-4136
▁편하게	-4137
▁효율화	-4138
▁feed	-4139
▁경영층의	-4140
▁네이트온	-4141
▁리더로서	-4142
▁바뀌어야	-4143
▁사업기회	-4144
▁업무추진	-4145
▁연봉인상	-4146
▁해당하는	-4147
▁노동조합이	-4148
▁사이트에서	-4149
▁생각하시는	-4150
▁경영협의회가	-4151
18	-4152
▁겨	-4153
▁깜	-4154
▁베	-4155
▁탁	-4156
냐고	-4157
님의	-4158
등의	-4159
때가	-4160
래도	-4161
우선	-4162
자도	-4163
팀은	-4164
했음	-4165
alk	-4166
ect	-4167
▁가중	-4168
▁간섭	-4169
▁글에	-4170
▁꼼꼼	-4171
▁대로	-4172
▁듯한	-4173
▁많을	-4174
▁모여	-4175
▁성립	-4176
▁손해	-4177
▁수동	-4178
▁이젠	-4179
▁종이	-4180
▁지는	-4181
▁휴식	-4182
하다가	-4183
work	-4184
▁app	-4185
▁공동의	-4186
▁공유를	-4187
▁굉장히	-4188
▁기술적	-4189
▁노조는	-4190
▁마음을	-4191
▁메일이	-4192
▁미사용	-4193
▁받으면	-4194
▁방향이	-4195
▁사례가	-4196
▁수행에	-4197
▁안하고	-4198
▁연봉에	-4199
▁자동차	-4200
였습니다	-4201
▁case	-4202
▁그렇다고	-4203
▁근본적인	-4204
▁상태에서	-4205
▁수평적인	-4206
▁연차휴가	-4207
▁인센티브	-4208
▁존재하는	-4209
▁직책자의	-4210
▁팀원에게	-4211
▁회사에서는	-4212
▁빠른의사결정	-4213
oc	-4214
대가	-4215
대상	-4216
리면	-4217
배치	-4218
사가	-4219
저히	-4220
중요	-4221
한게	-4222
art	-4223
ine	-4224
▁ro	-4225
▁거짓	-4226
▁결단	-4227
▁곳이	-4228
▁그것	-4229
▁기분	-4230
▁기자	-4231
▁대우	-4232
▁딱히	-4233
▁보수	-4234
▁보험	-4235
▁생겨	-4236
▁안나	-4237
▁주면	-4238
▁지도	-4239
▁질책	-4240
▁케이	-4241
▁파견	-4242
거든요	-4243
관리를	-4244
릅니다	-4245
시나요	-4246
주셔서	-4247
했지만	-4248
▁tea	-4249
▁계획을	-4250
▁교육과	-4251
▁그것을	-4252
▁그래야	-4253
▁더이상	-4254
▁도움을	-4255
▁로드맵	-4256
▁마무리	-4257
▁마음에	-4258
▁못하게	-4259
▁바람직	-4260
▁받아들	-4261
▁사실을	-4262
▁선임급	-4263
▁어떨까	-4264
▁어차피	-4265
▁의지가	-4266
▁형태로	-4267
▁사용하고	-4268
▁선관위가	-4269
▁중간관리	-4270
▁불편합니다	-4271
▁사항입니다	-4272
▁시간외수당	-4273
▁이루어져야	-4274
▁feedback	-4275
▁밥	-4276
▁웃	-4277
▁핸	-4278
다양	-4279
사의	-4280
설팅	-4281
수록	-4282
식의	-4283
었고	-4284
이신	-4285
임이	-4286
자면	-4287
캠퍼	-4288
한거	-4289
▁23	-4290
▁us	-4291
▁개설	-4292
▁권위	-4293
▁나타	-4294
▁대기	-4295
▁대팀	-4296
▁드는	-4297
▁들을	-4298
▁생겼	-4299
▁약함	-4300
▁위의	-4301
▁장점	-4302
▁주위	-4303
▁처우	-4304
▁최소	-4305
▁추후	-4306
분들의	-4307
▁180	-4308
▁고객과	-4309
▁그렇고	-4310
▁근무지	-4311
▁기능을	-4312
▁된다는	-4313
▁두려워	-4314
▁맞다고	-4315
▁부당한	-4316
▁부족해	-4317
▁분들께	-4318
▁상황임	-4319
▁생기는	-4320
▁소통과	-4321
▁얘기를	-4322
▁어려울	-4323
▁자세가	-4324
▁직원의	-4325
▁트렌드	-4326
▁팀원과	-4327
▁하라고	-4328
▁2010	-4329
▁tool	-4330
▁고객사에	-4331
▁근무하고	-4332
▁리더십을	-4333
▁반영하여	-4334
▁받아들이	-4335
▁있는데요	-4336
▁있으므로	-4337
▁제외하고	-4338
▁담당자에게	-4339
▁vision	-4340
▁※	-4341
거운	-4342
규정	-4343
대를	-4344
마디	-4345
명의	-4346
비를	-4347
연봉	-4348
하라	-4349
훌륭	-4350
휴일	-4351
hon	-4352
▁tf	-4353
▁미팅	-4354
▁불쾌	-4355
▁살아	-4356
▁소극	-4357
▁전공	-4358
▁접수	-4359
▁정체	-4360
▁정치	-4361
▁제품	-4362
▁차원	-4363
▁카페	-4364
▁타팀	-4365
▁확정	-4366
▁휴무	-4367
분들은	-4368
았으면	-4369
ment	-4370
▁cns	-4371
▁ins	-4372
▁ppt	-4373
▁rec	-4374
▁결정이	-4375
▁과정을	-4376
▁과정이	-4377
▁과제를	-4378
▁기술의	-4379
▁눈치보	-4380
▁많다고	-4381
▁변화는	-4382
▁분실물	-4383
▁비용을	-4384
▁사례를	-4385
▁사실이	-4386
▁사장님	-4387
▁암호화	-4388
▁에티켓	-4389
▁연봉의	-4390
▁올해는	-4391
▁이라는	-4392
▁이상한	-4393
▁확실한	-4394
▁peer	-4395
▁그럼에도	-4396
▁네트워크	-4397
▁안되나요	-4398
▁요구하는	-4399
▁전반적인	-4400
▁정보공유	-4401
▁직원들이	-4402
▁value	-4403
▁역량확보를	-4404
▁전사적으로	-4405
▁구성원위원이	-4406
56	-4407
▁q	-4408
▁융	-4409
▁푸	-4410
개의	-4411
다른	-4412
발굴	-4413
웨어	-4414
적일	-4415
진다	-4416
파트	-4417
▁감소	-4418
▁개정	-4419
▁거죠	-4420
▁단축	-4421
▁대답	-4422
▁둘째	-4423
▁버스	-4424
▁버튼	-4425
▁법무	-4426
▁사기	-4427
▁상식	-4428
▁안쓰	-4429
▁에너	-4430
▁여건	-4431
▁용기	-4432
▁의혹	-4433
▁자부	-4434
▁자원	-4435
▁정립	-4436
▁집착	-4437
▁차량	-4438
▁추정	-4439
▁카드	-4440
▁품의	-4441
▁피로	-4442
관리가	-4443
사항은	-4444
었다고	-4445
회사가	-4446
,000	-4447
▁개발자	-4448
▁게시글	-4449
▁기반의	-4450
▁김상범	-4451
▁느끼고	-4452
▁모르고	-4453
▁받아서	-4454
▁분명히	-4455
▁설명을	-4456
▁수시로	-4457
▁실패에	-4458
▁어렵다	-4459
▁오늘은	-4460
▁절차가	-4461
▁주차권	-4462
▁직원들	-4463
▁했지만	-4464
▁회의가	-4465
obile	-4466
▁life	-4467
▁다시한번	-4468
▁보안정책	-4469
▁실명으로	-4470
▁아니라면	-4471
▁아직까지	-4472
▁안된다고	-4473
▁안될까요	-4474
▁안정적인	-4475
▁인정하는	-4476
▁지급하는	-4477
▁필요하지	-4478
▁아이디어를	-4479
▁조직간협업	-4480
▁락	-4481
▁홀	-4482
가며	-4483
기념	-4484
도에	-4485
버스	-4486
브라	-4487
실적	-4488
이야	-4489
인에	-4490
채용	-4491
▁가격	-4492
▁계열	-4493
▁관행	-4494
▁깊은	-4495
▁넣어	-4496
▁독서	-4497
▁듣는	-4498
▁먹고	-4499
▁부모	-4500
▁비상	-4501
▁상담	-4502
▁약속	-4503
▁어필	-4504
▁없으	-4505
▁열악	-4506
▁완결	-4507
▁절실	-4508
▁지부	-4509
▁축적	-4510
▁코칭	-4511
▁회계	-4512
▁휴직	-4513
입니까	-4514
캠퍼스	-4515
iver	-4516
rive	-4517
▁가지는	-4518
▁강화를	-4519
▁것들이	-4520
▁그나마	-4521
▁내용의	-4522
▁늘어나	-4523
▁능력을	-4524
▁되나요	-4525
▁바뀌고	-4526
▁방식에	-4527
▁생각도	-4528
▁소통에	-4529
▁시너지	-4530
▁신성장	-4531
▁온라인	-4532
▁이유를	-4533
▁전체를	-4534
▁정도의	-4535
▁정하여	-4536
▁제시가	-4537
▁조직별	-4538
▁주장을	-4539
▁환경조	-4540
더라고요	-4541
되었다고	-4542
▁리더십이	-4543
▁전체적인	-4544
▁지금처럼	-4545
si	-4546
▁골	-4547
가면	-4548
가치	-4549
검토	-4550
구가	-4551
드폰	-4552
리게	-4553
리기	-4554
와는	-4555
위해	-4556
항목	-4557
ner	-4558
▁각자	-4559
▁갑질	-4560
▁곳에	-4561
▁금일	-4562
▁나이	-4563
▁다녀	-4564
▁당당	-4565
▁때도	-4566
▁보일	-4567
▁부수	-4568
▁블라	-4569
▁실현	-4570
▁업계	-4571
▁원가	-4572
▁원할	-4573
▁이라	-4574
▁일괄	-4575
▁자사	-4576
▁전파	-4577
▁중인	-4578
▁짜증	-4579
▁찾을	-4580
▁책상	-4581
▁현행	-4582
▁훌륭	-4583
부터는	-4584
시키고	-4585
혁신팀	-4586
▁40%	-4587
▁lik	-4588
▁loc	-4589
▁pat	-4590
▁기간이	-4591
▁디지털	-4592
▁설명이	-4593
▁시키는	-4594
▁아무도	-4595
▁유연성	-4596
▁이슈가	-4597
▁조합원	-4598
▁주변에	-4599
▁하나도	-4600
▁하려는	-4601
리적으로	-4602
▁공정성을	-4603
▁공정하게	-4604
▁관련해서	-4605
▁그렇다면	-4606
▁목적으로	-4607
▁무엇보다	-4608
▁보상체계	-4609
▁비지니스	-4610
▁서비스를	-4611
▁앞으로도	-4612
▁유연하게	-4613
▁정확하게	-4614
▁제수당은	-4615
▁추가적인	-4616
▁힘듭니다	-4617
▁구성원간의	-4618
▁보았습니다	-4619
▁부서간협업	-4620
▁장기적으로	-4621
▁적극적이고	-4622
▁전체적으로	-4623
12	-4624
▁맛	-4625
▁엑	-4626
▁풍	-4627
로써	-4628
말이	-4629
백만	-4630
수립	-4631
신을	-4632
어버	-4633
지않	-4634
acy	-4635
▁ᅮᅮ	-4636
▁가면	-4637
▁갖춰	-4638
▁거부	-4639
▁구내	-4640
▁당해	-4641
▁들이	-4642
▁발언	-4643
▁상하	-4644
▁선물	-4645
▁성능	-4646
▁식의	-4647
▁싶어	-4648
▁양성	-4649
▁일과	-4650
▁있겠	-4651
▁좋게	-4652
▁즉시	-4653
▁진출	-4654
▁한국	-4655
▁한해	-4656
급휴가	-4657
된다고	-4658
였으면	-4659
look	-4660
oice	-4661
▁209	-4662
▁고민해	-4663
▁그러한	-4664
▁되네요	-4665
▁마세요	-4666
▁바뀌는	-4667
▁보시면	-4668
▁부문장	-4669
▁안에서	-4670
▁않네요	-4671
▁않아도	-4672
▁어려우	-4673
▁어렵고	-4674
▁없다면	-4675
▁없도록	-4676
▁역량과	-4677
▁역량은	-4678
▁전화를	-4679
▁주시는	-4680
▁진행이	-4681
▁플랫폼	-4682
▁하거나	-4683
▁협력사	-4684
▁협의를	-4685
▁힘들게	-4686
▁비밀번호	-4687
▁뿐입니다	-4688
▁소통하는	-4689
▁수준으로	-4690
▁수행하고	-4691
▁운영업무	-4692
▁자발적인	-4693
▁조직간의	-4694
▁직원들의	-4695
▁형식적인	-4696
▁trend	-4697
▁고객사와의	-4698
▁문의합니다	-4699
▁아시겠지만	-4700
▁프로젝트가	-4701
▁mobile	-4702
▁insight	-4703
be	-4704
▁겸	-4705
▁쏟	-4706
▁캐	-4707
가기	-4708
가서	-4709
게시	-4710
때도	-4711
받을	-4712
순위	-4713
시설	-4714
ade	-4715
▁br	-4716
▁고충	-4717
▁권장	-4718
▁다행	-4719
▁대충	-4720
▁못된	-4721
▁사망	-4722
▁선도	-4723
▁실력	-4724
▁여자	-4725
▁유효	-4726
▁최대	-4727
▁타파	-4728
▁표준	-4729
▁하던	-4730
▁한편	-4731
었지만	-4732
의견을	-4733
이라서	-4734
▁나머지	-4735
▁납니다	-4736
▁도전적	-4737
▁떨어짐	-4738
▁메모리	-4739
▁모여서	-4740
▁문제에	-4741
▁부담이	-4742
▁불합리	-4743
▁신경을	-4744
▁실행이	-4745
▁우회전	-4746
▁의욕이	-4747
▁이미지	-4748
▁인식이	-4749
▁자세한	-4750
▁컨설팅	-4751
▁판단을	-4752
▁하시고	-4753
▁했다고	-4754
▁헬스장	-4755
려주세요	-4756
▁soft	-4757
▁개인정보	-4758
▁계십니다	-4759
▁리더들의	-4760
▁모르겠다	-4761
▁모르지만	-4762
▁목소리를	-4763
▁봤습니다	-4764
▁불이익이	-4765
▁사람들을	-4766
▁양부장님	-4767
▁업무량이	-4768
▁조직으로	-4769
▁중입니다	-4770
▁팀원들을	-4771
▁drive	-4772
▁내부적으로	-4773
▁팀장으로서	-4774
▁드리겠습니다	-4775
gm	-4776
▁멘	-4777
권한	-4778
기고	-4779
냐는	-4780
동이	-4781
번에	-4782
봐도	-4783
예약	-4784
인것	-4785
자인	-4786
제공	-4787
하러	-4788
활용	-4789
ech	-4790
▁내고	-4791
▁다운	-4792
▁당일	-4793
▁동종	-4794
▁바빠	-4795
▁요망	-4796
▁위험	-4797
▁자극	-4798
▁적음	-4799
▁증대	-4800
▁키워	-4801
▁할애	-4802
근무자	-4803
립기념	-4804
하기로	-4805
bril	-4806
enda	-4807
▁거기에	-4808
▁걸까요	-4809
▁곳에서	-4810
▁극대화	-4811
▁근거를	-4812
▁납득할	-4813
▁보내는	-4814
▁불편한	-4815
▁시도를	-4816
▁아직은	-4817
▁여기에	-4818
▁영역에	-4819
▁운영을	-4820
▁제도에	-4821
▁주말에	-4822
▁최근에	-4823
▁특성에	-4824
▁팀원에	-4825
▁해야함	-4826
▁핸드폰	-4827
관점에서	-4828
해야하는	-4829
▁공감대를	-4830
▁본사에서	-4831
▁부족하여	-4832
▁솔루션을	-4833
▁실행력이	-4834
▁아닙니까	-4835
▁언제든지	-4836
▁외부에서	-4837
▁좋습니다	-4838
▁지원하는	-4839
▁선관위에서	-4840
▁판단됩니다	-4841
▁agenda	-4842
▁포괄임금제를	-4843
bm	-4844
▁군	-4845
▁꼰	-4846
▁울	-4847
▁흘	-4848
드는	-4849
률이	-4850
문제	-4851
시대	-4852
이를	-4853
이죠	-4854
통령	-4855
ate	-4856
▁sw	-4857
▁공모	-4858
▁기록	-4859
▁나갈	-4860
▁낭비	-4861
▁내에	-4862
▁느린	-4863
▁무료	-4864
▁뭐가	-4865
▁보냈	-4866
▁부합	-4867
▁비례	-4868
▁비방	-4869
▁사건	-4870
▁생긴	-4871
▁서면	-4872
▁선발	-4873
▁소급	-4874
▁실망	-4875
▁악성	-4876
▁안에	-4877
▁알게	-4878
▁앞서	-4879
▁엑셀	-4880
▁원격	-4881
▁유출	-4882
▁젊은	-4883
▁제출	-4884
▁주시	-4885
▁징계	-4886
▁찾기	-4887
▁충돌	-4888
▁충전	-4889
▁포장	-4890
겠다고	-4891
다양한	-4892
방향에	-4893
성과를	-4894
인프라	-4895
ship	-4896
▁교육의	-4897
▁구체화	-4898
▁근거가	-4899
▁리스크	-4900
▁바뀌지	-4901
▁분야에	-4902
▁야근을	-4903
▁이해도	-4904
▁일관성	-4905
▁일들이	-4906
▁있어도	-4907
▁있음을	-4908
▁좋으나	-4909
▁투자와	-4910
▁팀장과	-4911
▁cell	-4912
▁talk	-4913
▁경영진의	-4914
▁마음으로	-4915
▁만들어야	-4916
▁배려하는	-4917
▁사내방송	-4918
▁업무지시	-4919
▁없을까요	-4920
▁직책자가	-4921
▁창의적인	-4922
▁하다보니	-4923
▁관점에서의	-4924
▁없었습니다	-4925
▁축하드립니다	-4926
▁outlook	-4927
▁낫	-4928
▁빅	-4929
계발	-4930
되며	-4931
또는	-4932
런스	-4933
받은	-4934
부로	-4935
시적	-4936
입을	-4937
지게	-4938
ain	-4939
▁관철	-4940
▁관해	-4941
▁뉴스	-4942
▁대학	-4943
▁들은	-4944
▁반면	-4945
▁번거	-4946
▁생길	-4947
▁쉬운	-4948
▁식사	-4949
▁연속	-4950
▁올림	-4951
▁완벽	-4952
▁음식	-4953
▁의구	-4954
▁이걸	-4955
▁차장	-4956
▁첫째	-4957
▁한정	-4958
▁한쪽	-4959
▁흡연	-4960
겁니까	-4961
되도록	-4962
라이브	-4963
성과에	-4964
으면서	-4965
▁del	-4966
▁man	-4967
▁것보다	-4968
▁공유할	-4969
▁공지가	-4970
▁논의를	-4971
▁대응을	-4972
▁드리고	-4973
▁로그인	-4974
▁무엇이	-4975
▁미흡함	-4976
▁부문의	-4977
▁부서가	-4978
▁사용이	-4979
▁사유로	-4980
▁성과와	-4981
▁소속감	-4982
▁실명을	-4983
▁심각한	-4984
▁없으며	-4985
▁의견도	-4986
▁임직원	-4987
▁제기한	-4988
▁주니어	-4989
▁포함된	-4990
▁할까요	-4991
▁효과가	-4992
없습니다	-4993
역량개발	-4994
주식회사	-4995
하겠다는	-4996
하였으며	-4997
ition	-4998
▁가능성이	-4999
▁고객에게	-5000
▁노력하고	-5001
▁맞습니다	-5002
▁생각해보	-5003
▁언제까지	-5004
▁직접적인	-5005
▁혁신적인	-5006
▁활용하여	-5007
▁자연스럽게	-5008
▁전반적으로	-5009
▁효과적으로	-5010
▁구성원으로서	-5011
▁사전선거운동	-5012
▁leading	-5013
▁곧	-5014
▁눌	-5015
▁뚜	-5016
▁밤	-5017
▁브	-5018
▁윈	-5019
▁큼	-5020
년이	-5021
빠른	-5022
소를	-5023
수에	-5024
시행	-5025
위주	-5026
있어	-5027
지기	-5028
차례	-5029
텔레	-5030
화에	-5031
확대	-5032
효과	-5033
gmt	-5034
ime	-5035
▁ci	-5036
▁감성	-5037
▁거리	-5038
▁경고	-5039
▁고취	-5040
▁공약	-5041
▁교환	-5042
▁그간	-5043
▁나쁜	-5044
▁느려	-5045
▁늘어	-5046
▁마라	-5047
▁안전	-5048
▁않다	-5049
▁올렸	-5050
▁용인	-5051
▁이래	-5052
▁잠깐	-5053
▁주의	-5054
▁증명	-5055
▁진단	-5056
▁최신	-5057
▁취소	-5058
▁취약	-5059
▁친밀	-5060
▁침해	-5061
▁휴지	-5062
▁힘을	-5063
가면서	-5064
게시판	-5065
기획팀	-5066
던데요	-5067
마인드	-5068
분들도	-5069
사업의	-5070
임에도	-5071
팀장님	-5072
하자는	-5073
hony	-5074
▁pot	-5075
▁가까운	-5076
▁강제로	-5077
▁공정성	-5078
▁과감히	-5079
▁관계로	-5080
▁관련한	-5081
▁그것도	-5082
▁내용과	-5083
▁능력이	-5084
▁대응할	-5085
▁대화를	-5086
▁동의가	-5087
▁발생시	-5088
▁사적인	-5089
▁상대적	-5090
▁선거는	-5091
▁안되어	-5092
▁안타까	-5093
▁어디에	-5094
▁요청에	-5095
▁이의제	-5096
▁이직을	-5097
▁일방적	-5098
▁제도의	-5099
▁줄이고	-5100
▁참여를	-5101
▁참여할	-5102
▁초기화	-5103
▁컨텐츠	-5104
▁활용한	-5105
유급휴가	-5106
▁800%	-5107
▁plan	-5108
▁symp	-5109
▁경우에도	-5110
▁과감하게	-5111
▁구내식당	-5112
▁동의하지	-5113
▁블라인드	-5114
▁스트레스	-5115
▁업무시간	-5116
▁주식회사	-5117
▁voice	-5118
▁기본적으로	-5119
▁보여주기식	-5120
▁leader	-5121
▁구성원에대한	-5122
▁낙	-5123
▁농	-5124
거지	-5125
관에	-5126
구를	-5127
나게	-5128
다운	-5129
도는	-5130
리스	-5131
링크	-5132
서에	-5133
업계	-5134
원에	-5135
조치	-5136
회를	-5137
biz	-5138
ict	-5139
▁go	-5140
▁감수	-5141
▁감안	-5142
▁결여	-5143
▁공기	-5144
▁그림	-5145
▁글은	-5146
▁끌어	-5147
▁내역	-5148
▁논란	-5149
▁누락	-5150
▁돈을	-5151
▁락커	-5152
▁말할	-5153
▁몇번	-5154
▁못해	-5155
▁밀어	-5156
▁바닥	-5157
▁받게	-5158
▁빈번	-5159
▁상승	-5160
▁어린	-5161
▁엄격	-5162
▁열어	-5163
▁이럴	-5164
▁익숙	-5165
▁조절	-5166
▁치열	-5167
▁타사	-5168
관계를	-5169
노동부	-5170
리스마	-5171
였는데	-5172
인력의	-5173
장에서	-5174
층에서	-5175
특성상	-5176
활동을	-5177
▁big	-5178
▁sds	-5179
▁가치를	-5180
▁공감이	-5181
▁그것이	-5182
▁누구나	-5183
▁되는지	-5184
▁말이죠	-5185
▁사측의	-5186
▁삼성전	-5187
▁상태로	-5188
▁세심한	-5189
▁실질적	-5190
▁여부를	-5191
▁역할에	-5192
▁있는것	-5193
▁있었음	-5194
▁있을까	-5195
▁장점이	-5196
▁중요시	-5197
▁추진을	-5198
▁한가지	-5199
▁해결을	-5200
▁혁신에	-5201
▁회사도	-5202
grade	-5203
▁부정적인	-5204
▁선거관련	-5205
▁시스템의	-5206
▁있으시면	-5207
▁팀원들에	-5208
▁비효율적인	-5209
▁양동완입니다	-5210
og	-5211
▁깔	-5212
▁닦	-5213
▁띄	-5214
▁엔	-5215
▁왕	-5216
▁좁	-5217
경쟁	-5218
등한	-5219
만에	-5220
성도	-5221
안에	-5222
연히	-5223
이슈	-5224
제한	-5225
조사	-5226
층에	-5227
프트	-5228
훼손	-5229
des	-5230
iew	-5231
now	-5232
▁an	-5233
▁kt	-5234
▁강함	-5235
▁거기	-5236
▁그저	-5237
▁급급	-5238
▁나의	-5239
▁남은	-5240
▁능동	-5241
▁당신	-5242
▁되기	-5243
▁면이	-5244
▁바꿀	-5245
▁백업	-5246
▁법적	-5247
▁세분	-5248
▁시기	-5249
▁왔다	-5250
▁요새	-5251
▁의뢰	-5252
▁이것	-5253
▁좋고	-5254
▁지침	-5255
▁최적	-5256
▁편임	-5257
▁한두	-5258
기술에	-5259
기적인	-5260
아니라	-5261
에게는	-5262
있는데	-5263
텔레콤	-5264
하므로	-5265
했으나	-5266
vice	-5267
▁1:1	-5268
▁각자의	-5269
▁것인가	-5270
▁공간이	-5271
▁구조를	-5272
▁글에서	-5273
▁못한다	-5274
▁물어보	-5275
▁변경을	-5276
▁분들을	-5277
▁시대에	-5278
▁약간의	-5279
▁전략을	-5280
▁전환이	-5281
▁파트너	-5282
▁평가와	-5283
▁하라는	-5284
▁한마디	-5285
▁확실히	-5286
노동조합	-5287
팀에서는	-5288
▁개개인에	-5289
▁노력하는	-5290
▁연봉동의	-5291
▁하셨는데	-5292
▁skill	-5293
▁기술중심의	-5294
▁수석입니다	-5295
▁의사결정과	-5296
▁aibril	-5297
▁경영협의회에	-5298
▁연차유급휴가	-5299
36	-5300
:4	-5301
▁곤	-5302
▁북	-5303
▁핑	-5304
겠지	-5305
기능	-5306
는다	-5307
데요	-5308
두고	-5309
리퍼	-5310
먹고	-5311
명세	-5312
부재	-5313
스틱	-5314
이란	-5315
일한	-5316
조정	-5317
차가	-5318
퓨터	-5319
현수	-5320
히는	-5321
ast	-5322
▁간략	-5323
▁극복	-5324
▁단점	-5325
▁명절	-5326
▁배경	-5327
▁분당	-5328
▁분의	-5329
▁선행	-5330
▁설계	-5331
▁심사	-5332
▁안보	-5333
▁옳은	-5334
▁왜곡	-5335
▁임기	-5336
▁촉진	-5337
▁특수	-5338
▁힘드	-5339
리더십	-5340
면서도	-5341
목표를	-5342
방식의	-5343
성으로	-5344
업무가	-5345
으시는	-5346
주차권	-5347
하시기	-5348
▁500	-5349
▁그만큼	-5350
▁나오고	-5351
▁다양화	-5352
▁대상이	-5353
▁도전을	-5354
▁뛰어난	-5355
▁보안을	-5356
▁부서와	-5357
▁사실상	-5358
▁사용에	-5359
▁선제적	-5360
▁성과자	-5361
▁소통은	-5362
▁승인을	-5363
▁신뢰가	-5364
▁엄청난	-5365
▁역할이	-5366
▁예정이	-5367
▁위하는	-5368
▁자신감	-5369
▁접속이	-5370
▁제도와	-5371
▁집중이	-5372
▁최선을	-5373
▁하도록	-5374
▁하반기	-5375
ivery	-5376
▁mgmt	-5377
▁가이드가	-5378
▁궁금해서	-5379
▁대응하기	-5380
▁동일하게	-5381
▁모르겠고	-5382
▁문제해결	-5383
▁아니라는	-5384
▁왔습니다	-5385
▁자율적인	-5386
▁전문성을	-5387
▁주장하는	-5388
▁진심으로	-5389
▁피드백을	-5390
▁다양한교육	-5391
▁모르겠으나	-5392
▁부족합니다	-5393
▁연차수당은	-5394
▁요청합니다	-5395
▁자율적으로	-5396
▁효율적으로	-5397
▁구성원개개인	-5398
▁제조사업부문	-5399
:2	-5400
▁잊	-5401
▁척	-5402
▁탓	-5403
금액	-5404
리티	-5405
많이	-5406
발생	-5407
밴드	-5408
사실	-5409
세한	-5410
어진	-5411
이션	-5412
주면	-5413
투입	-5414
하우	-5415
해라	-5416
are	-5417
tok	-5418
▁er	-5419
▁귀찮	-5420
▁나쁘	-5421
▁답이	-5422
▁돌려	-5423
▁동감	-5424
▁드러	-5425
▁말은	-5426
▁맡은	-5427
▁뭔지	-5428
▁바뀔	-5429
▁사료	-5430
▁쓰레	-5431
▁억울	-5432
▁없지	-5433
▁여론	-5434
▁옆에	-5435
▁원천	-5436
▁잠시	-5437
▁재판	-5438
▁한달	-5439
▁확립	-5440
▁힘이	-5441
개선이	-5442
데이터	-5443
드리고	-5444
시네요	-5445
환경에	-5446
daym	-5447
▁300	-5448
▁‘99	-5449
▁국회의	-5450
▁긍정적	-5451
▁느껴짐	-5452
▁들어서	-5453
▁똑같이	-5454
▁문서를	-5455
▁발전을	-5456
▁방안에	-5457
▁보내고	-5458
▁부득이	-5459
▁사규에	-5460
▁사업과	-5461
▁사업화	-5462
▁상황은	-5463
▁서베이	-5464
▁성장에	-5465
▁수직적	-5466
▁신청에	-5467
▁싶어서	-5468
▁알지만	-5469
▁어디서	-5470
▁없어졌	-5471
▁올리고	-5472
▁이런거	-5473
▁있는게	-5474
▁있었고	-5475
▁잘하는	-5476
▁전략에	-5477
▁직급별	-5478
▁직원을	-5479
▁진행할	-5480
▁특성을	-5481
▁피해를	-5482
▁합리적	-5483
▁힘들고	-5484
함으로써	-5485
▁불합리한	-5486
▁선관위는	-5487
▁아무것도	-5488
▁역량강화	-5489
▁이의신청	-5490
▁인지하고	-5491
▁자기계발	-5492
▁전문인력	-5493
▁제시하는	-5494
▁추구하는	-5495
▁해야하는	-5496
하셨습니다	-5497
▁개선되어야	-5498
▁보겠습니다	-5499
▁이해관계자	-5500
▁통신사업부문	-5501
▁포괄임금제에	-5502
▁upgrade	-5503
▁delivery	-5504
▁symphony	-5505
11	-5506
ly	-5507
▁택	-5508
감독	-5509
등에	-5510
또한	-5511
선택	-5512
장소	-5513
층은	-5514
퇴직	-5515
협조	-5516
:30	-5517
ard	-5518
ook	-5519
▁64	-5520
▁hi	-5521
▁것만	-5522
▁곤란	-5523
▁괜히	-5524
▁그거	-5525
▁기초	-5526
▁낮아	-5527
▁도서	-5528
▁드릴	-5529
▁마이	-5530
▁분산	-5531
▁비젼	-5532
▁사태	-5533
▁수단	-5534
▁시에	-5535
▁쓰지	-5536
▁애매	-5537
▁약한	-5538
▁연초	-5539
▁오랜	-5540
▁의결	-5541
▁잡아	-5542
▁적당	-5543
▁전용	-5544
▁조화	-5545
▁줘야	-5546
▁지표	-5547
▁회피	-5548
▁힘내	-5549
기술을	-5550
단위로	-5551
되면서	-5552
인지는	-5553
조직이	-5554
혁신을	-5555
▁tok	-5556
▁개선할	-5557
▁공지에	-5558
▁노동부	-5559
▁대통령	-5560
▁드네요	-5561
▁바라며	-5562
▁발휘할	-5563
▁보고가	-5564
▁빠르고	-5565
▁산출물	-5566
▁생각과	-5567
▁신청을	-5568
▁실행을	-5569
▁윗사람	-5570
▁이라고	-5571
▁이용할	-5572
▁이후에	-5573
▁있거나	-5574
▁있는거	-5575
▁조금씩	-5576
▁조치가	-5577
▁좋다고	-5578
▁주시고	-5579
▁중간에	-5580
▁지원해	-5581
▁팀원간	-5582
▁현재도	-5583
▁훌륭한	-5584
적극적인	-5585
적이라고	-5586
하였으나	-5587
▁know	-5588
▁path	-5589
▁가졌으면	-5590
▁근로자가	-5591
▁대응하는	-5592
▁불이익을	-5593
▁사이트에	-5594
▁생각하면	-5595
▁어렵다고	-5596
▁처음부터	-5597
▁목표달성을	-5598
▁복지포인트	-5599
▁사실입니다	-5600
▁연차수당에	-5601
▁이런식으로	-5602
▁지급하여야	-5603
▁많으셨습니다	-5604
▁transformation	-5605
ag	-5606
eb	-5607
pm	-5608
▁^	-5609
▁→	-5610
▁끈	-5611
▁루	-5612
▁셀	-5613
▁쪼	-5614
▁켜	-5615
▁횟	-5616
도체	-5617
되서	-5618
리적	-5619
외에	-5620
점검	-5621
한지	-5622
fra	-5623
▁th	-5624
▁걸어	-5625
▁고쳐	-5626
▁괴롭	-5627
▁끊임	-5628
▁나눠	-5629
▁답을	-5630
▁대면	-5631
▁따뜻	-5632
▁리뷰	-5633
▁매니	-5634
▁법을	-5635
▁보궐	-5636
▁부디	-5637
▁선호	-5638
▁소수	-5639
▁소홀	-5640
▁숫자	-5641
▁신호	-5642
▁악용	-5643
▁양보	-5644
▁에어	-5645
▁완화	-5646
▁요건	-5647
▁위배	-5648
▁인증	-5649
▁자가	-5650
▁잡고	-5651
▁저와	-5652
▁점수	-5653
▁조언	-5654
▁팀별	-5655
▁편한	-5656
▁한참	-5657
▁허락	-5658
▁협상	-5659
▁훼손	-5660
간소화	-5661
근무를	-5662
납니다	-5663
담당자	-5664
되거나	-5665
실에서	-5666
이므로	-5667
주차장	-5668
하기는	-5669
하나요	-5670
해지는	-5671
down	-5672
ject	-5673
▁set	-5674
▁계열사	-5675
▁공감을	-5676
▁관계가	-5677
▁구조로	-5678
▁그런지	-5679
▁나누어	-5680
▁나와서	-5681
▁답변은	-5682
▁되도록	-5683
▁때마다	-5684
▁무브라	-5685
▁반대로	-5686
▁반영이	-5687
▁방식은	-5688
▁보이고	-5689
▁복잡한	-5690
▁본사에	-5691
▁불리한	-5692
▁속도가	-5693
▁솔직한	-5694
▁수준을	-5695
▁신경써	-5696
▁아니었	-5697
▁어쩔수	-5698
▁없었음	-5699
▁올라왔	-5700
▁이상을	-5701
▁인원이	-5702
▁임의로	-5703
▁있을지	-5704
▁자체를	-5705
▁적절히	-5706
▁접근이	-5707
▁조용히	-5708
▁조직내	-5709
▁주장은	-5710
▁책임과	-5711
▁추진할	-5712
▁판단이	-5713
▁해결할	-5714
▁혁신적	-5715
▁like	-5716
▁가이드를	-5717
▁것인가요	-5718
▁내용으로	-5719
▁독서통신	-5720
▁바라보는	-5721
▁부서간의	-5722
▁사측에서	-5723
▁있었지만	-5724
▁제시하고	-5725
▁추진하고	-5726
▁활용하는	-5727
▁speed	-5728
▁고용노동부	-5729
▁근로시간의	-5730
▁연차수당을	-5731
▁이루어지지	-5732
▁전사공지를	-5733
15	-5734
16	-5735
▁`	-5736
▁컵	-5737
▁퍼	-5738
개로	-5739
곳에	-5740
공지	-5741
그레	-5742
금을	-5743
문의	-5744
받지	-5745
보임	-5746
비는	-5747
쓰고	-5748
았다	-5749
야간	-5750
용량	-5751
위를	-5752
율이	-5753
을까	-5754
주지	-5755
직책	-5756
쪽에	-5757
파일	-5758
휴직	-5759
ask	-5760
lab	-5761
off	-5762
▁건물	-5763
▁구현	-5764
▁국민	-5765
▁내기	-5766
▁대형	-5767
▁듣지	-5768
▁머리	-5769
▁모를	-5770
▁밑에	-5771
▁반말	-5772
▁보게	-5773
▁부작	-5774
▁상향	-5775
▁성취	-5776
▁시야	-5777
▁시킬	-5778
▁연동	-5779
▁오른	-5780
▁위로	-5781
▁일찍	-5782
▁조차	-5783
▁줄여	-5784
▁측정	-5785
▁친분	-5786
▁타당	-5787
▁편안	-5788
▁프레	-5789
▁함양	-5790
▁했다	-5791
▁허위	-5792
하느라	-5793
하였음	-5794
해지고	-5795
port	-5796
▁20%	-5797
▁gap	-5798
▁ᄒᄒᄒ	-5799
▁갑니다	-5800
▁결정에	-5801
▁계획이	-5802
▁기다리	-5803
▁내용도	-5804
▁눈치를	-5805
▁덕분에	-5806
▁따르면	-5807
▁만들기	-5808
▁목적이	-5809
▁방향과	-5810
▁보시고	-5811
▁부문별	-5812
▁비율이	-5813
▁사무국	-5814
▁사이에	-5815
▁사측에	-5816
▁소통할	-5817
▁아침에	-5818
▁얘기는	-5819
▁예전에	-5820
▁외에도	-5821
▁요청을	-5822
▁이해는	-5823
▁인재를	-5824
▁있던데	-5825
▁정책에	-5826
▁정책이	-5827
▁제외한	-5828
▁준수한	-5829
▁해결책	-5830
▁해주는	-5831
▁행복한	-5832
▁협업과	-5833
▁형태의	-5834
▁휴지통	-5835
부서에서	-5836
조직과의	-5837
▁2019	-5838
▁myhr	-5839
▁기술력을	-5840
▁리더들이	-5841
▁만들어서	-5842
▁무관하게	-5843
▁본부장님	-5844
▁사업구조	-5845
▁않는다고	-5846
▁얼마든지	-5847
▁이야기가	-5848
▁정기적인	-5849
▁제공하는	-5850
▁좋겠어요	-5851
▁주장하고	-5852
▁중간리더	-5853
▁창립기념	-5854
▁필요한데	-5855
▁하겠다는	-5856
▁하였으나	-5857
▁객관적으로	-5858
▁고객사에서	-5859
▁동기부여가	-5860
▁응원합니다	-5861
▁전략적사고	-5862
▁꼬	-5863
▁탑	-5864
▁휘	-5865
공감	-5866
기명	-5867
끄럽	-5868
나라	-5869
달라	-5870
답변	-5871
도전	-5872
딩스	-5873
라니	-5874
보드	-5875
시가	-5876
아이	-5877
않고	-5878
인한	-5879
자동	-5880
판단	-5881
하길	-5882
com	-5883
del	-5884
dge	-5885
ist	-5886
▁07	-5887
▁1,	-5888
▁강점	-5889
▁괴리	-5890
▁국가	-5891
▁꼰대	-5892
▁낮음	-5893
▁넘게	-5894
▁느낀	-5895
▁마시	-5896
▁번호	-5897
▁보강	-5898
▁보낸	-5899
▁봤을	-5900
▁불과	-5901
▁사후	-5902
▁상급	-5903
▁상이	-5904
▁앞에	-5905
▁워크	-5906
▁적게	-5907
▁접목	-5908
▁제반	-5909
▁편중	-5910
▁폭넓	-5911
▁할것	-5912
로서의	-5913
맙시다	-5914
부서가	-5915
상으로	-5916
업무의	-5917
에서만	-5918
인데요	-5919
mind	-5920
▁고민과	-5921
▁공지를	-5922
▁관리에	-5923
▁궁금한	-5924
▁기다려	-5925
▁기반한	-5926
▁노하우	-5927
▁당사는	-5928
▁당사자	-5929
▁당연한	-5930
▁말라고	-5931
▁말씀을	-5932
▁메일에	-5933
▁문제점	-5934
▁불안감	-5935
▁불필요	-5936
▁사소한	-5937
▁사업장	-5938
▁서로의	-5939
▁시간도	-5940
▁업무도	-5941
▁운영에	-5942
▁운영이	-5943
▁육성을	-5944
▁이현수	-5945
▁일부러	-5946
▁작업을	-5947
▁적용할	-5948
▁전체의	-5949
▁정책을	-5950
▁조항이	-5951
▁체계를	-5952
▁측면이	-5953
▁하려면	-5954
▁협업의	-5955
▁형평성	-5956
▁혜택을	-5957
구성원이	-5958
으로부터	-5959
하셨으면	-5960
해주시는	-5961
▁spec	-5962
▁건강검진	-5963
▁고객사가	-5964
▁급여명세	-5965
▁담당자가	-5966
▁담당하는	-5967
▁문제라고	-5968
▁변화해야	-5969
▁부족으로	-5970
▁불편함을	-5971
▁알았는데	-5972
▁업무처리	-5973
▁파트리더	-5974
▁하나하나	-5975
▁효과적인	-5976
▁긍정적으로	-5977
▁사무실에서	-5978
▁toktok	-5979
▁불필요한보고	-5980
▁요청드립니다	-5981
▁커뮤니케이션이	-5982
35	-5983
co	-5984
▁랜	-5985
▁씨	-5986
▁옛	-5987
글을	-5988
기기	-5989
나지	-5990
들로	-5991
력과	-5992
배정	-5993
버리	-5994
비로	-5995
승진	-5996
오지	-5997
이랑	-5998
이팅	-5999
증진	-6000
지속	-6001
차로	-6002
코드	-6003
파악	-6004
▁28	-6005
▁가르	-6006
▁거쳐	-6007
▁고맙	-6008
▁근처	-6009
▁기피	-6010
▁남의	-6011
▁넓은	-6012
▁노출	-6013
▁높일	-6014
▁단합	-6015
▁달려	-6016
▁독립	-6017
▁될수	-6018
▁말만	-6019
▁말아	-6020
▁몰랐	-6021
▁벌써	-6022
▁심한	-6023
▁써야	-6024
▁얻을	-6025
▁없게	-6026
▁여름	-6027
▁오전	-6028
▁올바	-6029
▁왜냐	-6030
▁워라	-6031
▁육아	-6032
▁이중	-6033
▁있죠	-6034
▁전통	-6035
▁점에	-6036
▁중앙	-6037
▁지고	-6038
▁차지	-6039
▁창문	-6040
▁출발	-6041
▁현지	-6042
▁확신	-6043
▁회원	-6044
라스틱	-6045
분들께	-6046
제도가	-6047
지면서	-6048
하시길	-6049
해주면	-6050
향상을	-6051
cing	-6052
▁010	-6053
▁10%	-6054
▁ᄏᄏᄏ	-6055
▁과거의	-6056
▁교육에	-6057
▁규모가	-6058
▁금요일	-6059
▁기업의	-6060
▁높이기	-6061
▁높이는	-6062
▁느낌을	-6063
▁떨어져	-6064
▁무리한	-6065
▁문제로	-6066
▁문화는	-6067
▁문화의	-6068
▁반도체	-6069
▁발전에	-6070
▁성장할	-6071
▁아마도	-6072
▁오프라	-6073
▁우선시	-6074
▁의사를	-6075
▁의욕을	-6076
▁인력은	-6077
▁일정을	-6078
▁적극성	-6079
▁중심이	-6080
▁지난주	-6081
▁진행될	-6082
▁커리어	-6083
▁필요로	-6084
▁필요에	-6085
▁하는건	-6086
▁하다가	-6087
▁합시다	-6088
하시나요	-6089
▁1000	-6090
▁cont	-6091
▁port	-6092
▁과반수로	-6093
▁국회의원	-6094
▁돌아가는	-6095
▁들어가서	-6096
▁떨어지고	-6097
▁모습으로	-6098
▁부족하고	-6099
▁부하직원	-6100
▁분들에게	-6101
▁상대방의	-6102
▁수석님이	-6103
▁이용하는	-6104
▁있음에도	-6105
▁특이사항	-6106
▁포함되지	-6107
▁협의하여	-6108
▁확인하고	-6109
▁환경조성	-6110
▁infra	-6111
▁union	-6112
▁노동조합의	-6113
▁느껴집니다	-6114
▁상황입니다	-6115
▁성과에대한	-6116
▁역량개발을	-6117
▁프로젝트의	-6118
커뮤니케이션	-6119
rm	-6120
▁겉	-6121
▁둔	-6122
▁멋	-6123
▁쌍	-6124
▁잇	-6125
까봐	-6126
놓은	-6127
대는	-6128
목을	-6129
분기	-6130
비전	-6131
설정	-6132
식사	-6133
어져	-6134
운데	-6135
의한	-6136
있음	-6137
적절	-6138
좋은	-6139
지나	-6140
타워	-6141
팀이	-6142
프레	-6143
함과	-6144
해진	-6145
행사	-6146
lot	-6147
▁거라	-6148
▁걸림	-6149
▁글의	-6150
▁달아	-6151
▁동결	-6152
▁디테	-6153
▁링크	-6154
▁마땅	-6155
▁막상	-6156
▁매월	-6157
▁맨날	-6158
▁모양	-6159
▁바램	-6160
▁법원	-6161
▁분기	-6162
▁불러	-6163
▁불신	-6164
▁소문	-6165
▁숙소	-6166
▁스팸	-6167
▁쓰신	-6168
▁쓸데	-6169
▁않기	-6170
▁언행	-6171
▁없기	-6172
▁엘레	-6173
▁용어	-6174
▁유대	-6175
▁음료	-6176
▁전담	-6177
▁주실	-6178
▁증진	-6179
▁찾는	-6180
▁초래	-6181
▁클릭	-6182
▁편리	-6183
▁했고	-6184
▁힘써	-6185
달라는	-6186
된다는	-6187
변화를	-6188
보너스	-6189
셨네요	-6190
체계가	-6191
▁ssl	-6192
▁개발이	-6193
▁경우를	-6194
▁고려해	-6195
▁공감할	-6196
▁과제에	-6197
▁교육은	-6198
▁궁금해	-6199
▁맞춰서	-6200
▁방법도	-6201
▁본사와	-6202
▁부수직	-6203
▁비전을	-6204
▁사람과	-6205
▁생각할	-6206
▁세밀한	-6207
▁슬리퍼	-6208
▁언제나	-6209
▁없나요	-6210
▁여지가	-6211
▁역량의	-6212
▁연봉은	-6213
▁오류가	-6214
▁오해를	-6215
▁이런건	-6216
▁이슈에	-6217
▁자기가	-6218
▁저희는	-6219
▁정자동	-6220
▁제시한	-6221
▁제한을	-6222
▁추진이	-6223
▁케이스	-6224
▁행위가	-6225
▁협업은	-6226
▁활발한	-6227
▁휴가가	-6228
과정에서	-6229
하기에는	-6230
▁2015	-6231
▁개선해야	-6232
▁개인에게	-6233
▁게시판에	-6234
▁고려하지	-6235
▁근무형태	-6236
▁남깁니다	-6237
▁사용자와	-6238
▁산업혁명	-6239
▁아무래도	-6240
▁앞으로는	-6241
▁없었으면	-6242
▁연말정산	-6243
▁우선순위	-6244
▁운영되고	-6245
▁인정하고	-6246
▁일입니다	-6247
▁있더군요	-6248
▁있어서는	-6249
▁조직과의	-6250
▁주기적인	-6251
▁지급한다	-6252
▁투명하게	-6253
▁파악하여	-6254
▁평가하는	-6255
▁회사생활	-6256
ervice	-6257
office	-6258
▁근로자참여	-6259
▁마지막으로	-6260
▁무브라디오	-6261
▁아니더라도	-6262
▁엘레베이터	-6263
▁프로세스는	-6264
▁project	-6265
gb	-6266
▁굴	-6267
▁쥐	-6268
▁쳐	-6269
▁황	-6270
개년	-6271
고를	-6272
는가	-6273
등록	-6274
라기	-6275
로드	-6276
르지	-6277
부팅	-6278
서가	-6279
시점	-6280
시죠	-6281
신지	-6282
울러	-6283
인듯	-6284
주일	-6285
착오	-6286
토리	-6287
ore	-6288
win	-6289
▁31	-6290
▁is	-6291
▁건데	-6292
▁걸쳐	-6293
▁검진	-6294
▁겨울	-6295
▁결격	-6296
▁계실	-6297
▁곳은	-6298
▁구두	-6299
▁남자	-6300
▁될것	-6301
▁드려	-6302
▁때론	-6303
▁레벨	-6304
▁맞춤	-6305
▁무리	-6306
▁미루	-6307
▁바와	-6308
▁법에	-6309
▁세계	-6310
▁소신	-6311
▁수십	-6312
▁실비	-6313
▁알기	-6314
▁암호	-6315
▁업데	-6316
▁예외	-6317
▁요인	-6318
▁원고	-6319
▁유리	-6320
▁입증	-6321
▁장악	-6322
▁집에	-6323
▁최초	-6324
▁텐데	-6325
▁하위	-6326
▁휴대	-6327
거라고	-6328
걸까요	-6329
것인지	-6330
변하는	-6331
변화가	-6332
지네요	-6333
지니어	-6334
질적인	-6335
페이지	-6336
평가가	-6337
해주고	-6338
해주신	-6339
eeds	-6340
gacy	-6341
view	-6342
▁erp	-6343
▁가끔씩	-6344
▁가는데	-6345
▁객관적	-6346
▁걱정이	-6347
▁결과는	-6348
▁고객을	-6349
▁권한위	-6350
▁글쓴이	-6351
▁다니는	-6352
▁다음과	-6353
▁대하는	-6354
▁되지만	-6355
▁목적을	-6356
▁복호화	-6357
▁부서에	-6358
▁불균형	-6359
▁사용한	-6360
▁생각에	-6361
▁앞에서	-6362
▁어린이	-6363
▁연차를	-6364
▁완전히	-6365
▁외적인	-6366
▁운동을	-6367
▁이것도	-6368
▁인력충	-6369
▁입장이	-6370
▁잘하고	-6371
▁전략과	-6372
▁전부터	-6373
▁제시해	-6374
▁준비가	-6375
▁투표를	-6376
▁팀단위	-6377
▁하구요	-6378
▁하나로	-6379
▁향상에	-6380
▁협조를	-6381
▁혹시나	-6382
▁확보할	-6383
하겠지만	-6384
▁care	-6385
▁road	-6386
▁ᄏᄏᄏᄏ	-6387
▁가능하게	-6388
▁게시판이	-6389
▁공감하고	-6390
▁리딩하는	-6391
▁민주주의	-6392
▁사람들도	-6393
▁시너지를	-6394
▁업데이트	-6395
▁인력들이	-6396
▁일반적인	-6397
▁일을통한	-6398
▁조직관리	-6399
▁좋겠다는	-6400
▁지급하고	-6401
▁카리스마	-6402
경영협의회	-6403
etwork	-6404
▁구체적이고	-6405
▁무엇인가요	-6406
▁문제입니다	-6407
▁사람들에게	-6408
▁주도적으로	-6409
▁판교캠퍼스	-6410
▁해주었으면	-6411
드리겠습니다	-6412
▁근로자위원의	-6413
▁부서이기주의	-6414
40	-6415
ls	-6416
▁멈	-6417
▁뻔	-6418
▁셋	-6419
▁콘	-6420
▁퀄	-6421
가족	-6422
갔다	-6423
거고	-6424
도우	-6425
머니	-6426
사유	-6427
수렴	-6428
안이	-6429
연한	-6430
움이	-6431
조금	-6432
차원	-6433
채널	-6434
치기	-6435
isc	-6436
uid	-6437
▁be	-6438
▁rm	-6439
▁개최	-6440
▁근속	-6441
▁대의	-6442
▁도모	-6443
▁동참	-6444
▁드렸	-6445
▁막혀	-6446
▁비공	-6447
▁비치	-6448
▁신중	-6449
▁싶다	-6450
▁어플	-6451
▁예측	-6452
▁옛날	-6453
▁옮겨	-6454
▁운운	-6455
▁이행	-6456
▁일만	-6457
▁저동	-6458
▁적재	-6459
▁절감	-6460
▁정량	-6461
▁정액	-6462
▁조장	-6463
▁주체	-6464
▁직속	-6465
▁타인	-6466
▁프린	-6467
▁피곤	-6468
▁행태	-6469
▁확충	-6470
까지의	-6471
되는데	-6472
솔루션	-6473
시켜야	-6474
위원회	-6475
있어서	-6476
자들이	-6477
체계를	-6478
평가를	-6479
활동이	-6480
stem	-6481
▁fri	-6482
▁rol	-6483
▁개인적	-6484
▁거라고	-6485
▁건전한	-6486
▁규정은	-6487
▁기분이	-6488
▁나아가	-6489
▁노력과	-6490
▁다같이	-6491
▁리더급	-6492
▁많지만	-6493
▁목적에	-6494
▁목표로	-6495
▁뭔가요	-6496
▁미흡한	-6497
▁방법은	-6498
▁부담을	-6499
▁사용을	-6500
▁세분화	-6501
▁승진을	-6502
▁신뢰를	-6503
▁실적을	-6504
▁알아야	-6505
▁애초에	-6506
▁업그레	-6507
▁없으나	-6508
▁역할과	-6509
▁연봉을	-6510
▁연차가	-6511
▁위원이	-6512
▁의미를	-6513
▁인정할	-6514
▁일일이	-6515
▁있기에	-6516
▁자세히	-6517
▁자율적	-6518
▁재부팅	-6519
▁저렇게	-6520
▁줄여야	-6521
▁진행해	-6522
▁창출을	-6523
▁취지는	-6524
▁판단에	-6525
▁페이지	-6526
▁필요성	-6527
▁필요시	-6528
▁행복을	-6529
▁협업시	-6530
▁확보에	-6531
▁확인이	-6532
▁확인할	-6533
바랍니다	-6534
조직문화	-6535
ledge	-6536
▁disc	-6537
▁tech	-6538
▁강조하는	-6539
▁경영층에	-6540
▁공간에서	-6541
▁관련부서	-6542
▁그룹웨어	-6543
▁말입니다	-6544
▁못합니다	-6545
▁분위기는	-6546
▁사업장의	-6547
▁사용자가	-6548
▁생각하며	-6549
▁시스템은	-6550
▁시행규칙	-6551
▁신기술에	-6552
▁어려움을	-6553
▁원활하게	-6554
▁파악하고	-6555
▁하였으면	-6556
▁했었는데	-6557
▁확인하는	-6558
▁휴가일수	-6559
▁model	-6560
▁전사관점의	-6561
▁타부서와의	-6562
▁포괄임금약	-6563
▁하셨습니다	-6564
▁안타깝습니다	-6565
▁포괄임금제라고	-6566
▁든	-6567
▁뿌	-6568
▁탐	-6569
게요	-6570
견을	-6571
고자	-6572
급여	-6573
내역	-6574
님은	-6575
들면	-6576
리에	-6577
받침	-6578
보단	-6579
상태	-6580
서로	-6581
연의	-6582
요구	-6583
의가	-6584
이블	-6585
인사	-6586
입사	-6587
자율	-6588
정한	-6589
조제	-6590
총괄	-6591
큘럼	-6592
토록	-6593
폴더	-6594
하죠	-6595
항의	-6596
eak	-6597
eek	-6598
ket	-6599
ord	-6600
vdi	-6601
wbe	-6602
▁08	-6603
▁60	-6604
▁ip	-6605
▁간에	-6606
▁것일	-6607
▁공평	-6608
▁내야	-6609
▁넘는	-6610
▁담보	-6611
▁대내	-6612
▁독단	-6613
▁드린	-6614
▁등과	-6615
▁명백	-6616
▁모아	-6617
▁무서	-6618
▁물품	-6619
▁미비	-6620
▁밝혀	-6621
▁배우	-6622
▁분담	-6623
▁설마	-6624
▁세상	-6625
▁소식	-6626
▁씁쓸	-6627
▁알지	-6628
▁어도	-6629
▁일어	-6630
▁일치	-6631
▁임시	-6632
▁있나	-6633
▁저를	-6634
▁적시	-6635
▁좋음	-6636
▁줄이	-6637
▁집행	-6638
▁피력	-6639
▁핑계	-6640
▁한명	-6641
▁합병	-6642
갑니다	-6643
교육을	-6644
드리며	-6645
성화를	-6646
음에도	-6647
적이며	-6648
line	-6649
▁60%	-6650
▁act	-6651
▁갈수록	-6652
▁검토가	-6653
▁것이며	-6654
▁글들이	-6655
▁급여로	-6656
▁기울여	-6657
▁기자회	-6658
▁꾸준한	-6659
▁나가야	-6660
▁나아갈	-6661
▁나오지	-6662
▁넘어서	-6663
▁누구를	-6664
▁달라고	-6665
▁당장의	-6666
▁두번째	-6667
▁말하면	-6668
▁문화에	-6669
▁미래의	-6670
▁반영한	-6671
▁발생한	-6672
▁보상은	-6673
▁보유한	-6674
▁부당성	-6675
▁사안에	-6676
▁선물을	-6677
▁시기에	-6678
▁시행령	-6679
▁않으니	-6680
▁없음을	-6681
▁예약이	-6682
▁외부의	-6683
▁외에는	-6684
▁우리도	-6685
▁위원은	-6686
▁윈도우	-6687
▁의하면	-6688
▁이것이	-6689
▁이익이	-6690
▁이정도	-6691
▁인가요	-6692
▁적용이	-6693
▁제도적	-6694
▁제시할	-6695
▁중요함	-6696
▁최우선	-6697
▁투명한	-6698
▁파악이	-6699
▁평소에	-6700
▁필요는	-6701
▁행동을	-6702
▁행위를	-6703
▁현장에	-6704
▁혼자서	-6705
▁환경의	-6706
봤습니다	-6707
의사소통	-6708
하겠다고	-6709
▁fast	-6710
▁hard	-6711
▁pack	-6712
▁unit	-6713
▁개인별로	-6714
▁궁금하신	-6715
▁기술적인	-6716
▁달성하기	-6717
▁동종업계	-6718
▁발생되는	-6719
▁변화관리	-6720
▁보유하고	-6721
▁보이네요	-6722
▁사업대표	-6723
▁제대로된	-6724
▁제시하지	-6725
▁중요하지	-6726
▁지금보다	-6727
▁가능하다면	-6728
▁개별적으로	-6729
▁업그레이드	-6730
▁우선적으로	-6731
▁의사결정의	-6732
▁정기적으로	-6733
▁주기적으로	-6734
▁중요합니다	-6735
▁필요하지만	-6736
▁newict	-6737
▁경영협의회의	-6738
▁네이트온비즈	-6739
▁topdown	-6740
▁필요해보입니다	-6741
ᅲᅲ	-6742
▁득	-6743
▁맥	-6744
▁며	-6745
▁염	-6746
▁짓	-6747
▁칸	-6748
▁캠	-6749
나면	-6750
님께	-6751
로그	-6752
리딩	-6753
만족	-6754
모르	-6755
바람	-6756
배려	-6757
보험	-6758
사옥	-6759
상승	-6760
선이	-6761
수기	-6762
시도	-6763
심과	-6764
완결	-6765
월말	-6766
의미	-6767
자발	-6768
자유	-6769
졌다	-6770
주기	-6771
하긴	-6772
협력	-6773
훈련	-6774
ogn	-6775
pro	-6776
try	-6777
▁09	-6778
▁oa	-6779
▁가깝	-6780
▁가처	-6781
▁귀를	-6782
▁그로	-6783
▁내일	-6784
▁늘려	-6785
▁단말	-6786
▁도달	-6787
▁마감	-6788
▁말에	-6789
▁맡겨	-6790
▁멀리	-6791
▁모색	-6792
▁몰아	-6793
▁미안	-6794
▁받기	-6795
▁벌어	-6796
▁본격	-6797
▁볼수	-6798
▁봐도	-6799
▁비데	-6800
▁사는	-6801
▁상처	-6802
▁선고	-6803
▁선진	-6804
▁수록	-6805
▁실습	-6806
▁안건	-6807
▁앉아	-6808
▁오랫	-6809
▁오면	-6810
▁일한	-6811
▁자녀	-6812
▁절반	-6813
▁주인	-6814
▁초등	-6815
▁친구	-6816
▁카똑	-6817
▁타고	-6818
▁탄력	-6819
▁파격	-6820
▁필히	-6821
▁하겠	-6822
▁하되	-6823
▁할지	-6824
▁흐름	-6825
가지고	-6826
까지도	-6827
께서도	-6828
년동안	-6829
님께서	-6830
목으로	-6831
버리는	-6832
시까지	-6833
시키기	-6834
에대해	-6835
역량에	-6836
유연한	-6837
으니까	-6838
점으로	-6839
skcc	-6840
▁day	-6841
▁pmo	-6842
▁vls	-6843
▁경직된	-6844
▁관계를	-6845
▁그러니	-6846
▁근거는	-6847
▁다양성	-6848
▁리더로	-6849
▁많다는	-6850
▁맙시다	-6851
▁모습은	-6852
▁버리고	-6853
▁보니까	-6854
▁보상에	-6855
▁분야의	-6856
▁불만은	-6857
▁사물함	-6858
▁상대로	-6859
▁수행이	-6860
▁스타트	-6861
▁스피드	-6862
▁시간적	-6863
▁신경쓰	-6864
▁싶은데	-6865
▁업무외	-6866
▁여유를	-6867
▁여직원	-6868
▁영향이	-6869
▁외부에	-6870
▁의사표	-6871
▁인해서	-6872
▁있을것	-6873
▁작업이	-6874
▁줄이기	-6875
▁지지를	-6876
▁직급이	-6877
▁진행된	-6878
▁진행에	-6879
▁처리가	-6880
▁퀄리티	-6881
▁키보드	-6882
▁평가로	-6883
▁합의가	-6884
▁해결해	-6885
▁협력을	-6886
▁화이팅	-6887
▁확인해	-6888
측면에서	-6889
프로그램	-6890
하신다면	-6891
▁bill	-6892
▁task	-6893
▁time	-6894
▁vwbe	-6895
▁가시적인	-6896
▁나오는데	-6897
▁노동자의	-6898
▁당해년도	-6899
▁마음대로	-6900
▁빅데이터	-6901
▁사람들의	-6902
▁수직적인	-6903
▁스마트폰	-6904
▁실행력을	-6905
▁엔지니어	-6906
▁여러분이	-6907
▁오프라인	-6908
▁위원으로	-6909
▁이루어질	-6910
▁적용되는	-6911
▁전사적인	-6912
▁정상적인	-6913
▁제수당을	-6914
▁집중하는	-6915
▁출근해서	-6916
▁플라스틱	-6917
▁필요성이	-6918
▁현장에서	-6919
▁협의회의	-6920
▁결과적으로	-6921
▁말씀하시는	-6922
▁법리적으로	-6923
▁보여집니다	-6924
▁생각하지만	-6925
▁의문입니다	-6926
▁자기개발비	-6927
▁지금이라도	-6928
▁프로세스의	-6929
▁하이닉스는	-6930
▁system	-6931
ognition	-6932
▁경영협의회에서	-6933
▁구성원위원들이	-6934
▁knowledge	-6935
13	-6936
23	-6937
ir	-6938
iv	-6939
mb	-6940
▁ᄏ	-6941
▁▶	-6942
▁밸	-6943
▁송	-6944
▁썼	-6945
▁웹	-6946
▁쟁	-6947
▁헐	-6948
개가	-6949
거니	-6950
견이	-6951
곡표	-6952
과도	-6953
그러	-6954
기관	-6955
내기	-6956
님들	-6957
드릴	-6958
마저	-6959
벤트	-6960
부모	-6961
부탁	-6962
분배	-6963
분석	-6964
분을	-6965
사에	-6966
선임	-6967
수련	-6968
여러	-6969
이에	-6970
이후	-6971
정은	-6972
차를	-6973
토산	-6974
해볼	-6975
현재	-6976
ker	-6977
▁pw	-6978
▁가기	-6979
▁같지	-6980
▁고도	-6981
▁공용	-6982
▁규약	-6983
▁길어	-6984
▁나면	-6985
▁넣고	-6986
▁누적	-6987
▁느림	-6988
▁따져	-6989
▁떠나	-6990
▁막기	-6991
▁매달	-6992
▁몰라	-6993
▁미들	-6994
▁박근	-6995
▁방어	-6996
▁보낼	-6997
▁본문	-6998
▁산재	-6999
▁서서	-7000
▁성숙	-7001
▁셀프	-7002
▁스킨	-7003
▁아랫	-7004
▁알수	-7005
▁업적	-7006
▁여쭤	-7007
▁요약	-7008
▁운용	-7009
▁위촉	-7010
▁유용	-7011
▁은근	-7012
▁적도	-7013
▁전가	-7014
▁전형	-7015
▁키우	-7016
▁틀을	-7017
▁팀은	-7018
▁페이	-7019
▁평일	-7020
▁폐쇄	-7021
▁피고	-7022
▁협박	-7023
▁흔들	-7024
기반의	-7025
기회가	-7026
되었던	-7027
목표와	-7028
부서에	-7029
새로운	-7030
선에서	-7031
신수련	-7032
실행력	-7033
업무량	-7034
인력에	-7035
장으로	-7036
제도를	-7037
지에서	-7038
텐데요	-7039
하겠다	-7040
하는거	-7041
했는지	-7042
했다면	-7043
했으니	-7044
회사는	-7045
aceb	-7046
sion	-7047
uide	-7048
▁360	-7049
▁게다가	-7050
▁결국은	-7051
▁관하여	-7052
▁그러지	-7053
▁노력은	-7054
▁단순화	-7055
▁대상자	-7056
▁대팀제	-7057
▁댓글에	-7058
▁되는거	-7059
▁될까요	-7060
▁똑같은	-7061
▁메일은	-7062
▁모두의	-7063
▁보너스	-7064
▁보안이	-7065
▁부서별	-7066
▁사유를	-7067
▁선곡표	-7068
▁성격이	-7069
▁성향이	-7070
▁소리를	-7071
▁속에서	-7072
▁시간은	-7073
▁실적에	-7074
▁쓰레기	-7075
▁안내가	-7076
▁안하는	-7077
▁않다는	-7078
▁없어요	-7079
▁없어진	-7080
▁열악한	-7081
▁올라온	-7082
▁올려주	-7083
▁원칙을	-7084
▁일하기	-7085
▁임금을	-7086
▁입사한	-7087
▁자동화	-7088
▁장애가	-7089
▁적당히	-7090
▁전기차	-7091
▁절차에	-7092
▁정보가	-7093
▁졌으면	-7094
▁조직도	-7095
▁직원은	-7096
▁최고의	-7097
▁컬쳐서	-7098
▁팀이동	-7099
▁팀장은	-7100
▁판단할	-7101
▁해보고	-7102
▁행위는	-7103
▁협업할	-7104
▁협의가	-7105
▁협조가	-7106
▁확인을	-7107
되었다는	-7108
하였으니	-7109
arket	-7110
cloud	-7111
ustry	-7112
▁desk	-7113
▁fact	-7114
▁week	-7115
▁가산하여	-7116
▁개개인이	-7117
▁대부분이	-7118
▁리더쉽이	-7119
▁마인드가	-7120
▁만족하고	-7121
▁명확하지	-7122
▁모두에게	-7123
▁무시하고	-7124
▁반대하는	-7125
▁부문장님	-7126
▁분실하신	-7127
▁불가능한	-7128
▁불편함이	-7129
▁사업모델	-7130
▁사업이나	-7131
▁서로간의	-7132
▁수석님의	-7133
▁않는다면	-7134
▁역량향상	-7135
▁예상되는	-7136
▁왜냐하면	-7137
▁인력관리	-7138
▁조직별로	-7139
▁중장기적	-7140
▁지원하고	-7141
▁직원들은	-7142
▁직원에게	-7143
▁판단하고	-7144
▁하는데요	-7145
▁회의실을	-7146
design	-7147
▁minds	-7148
▁공식적으로	-7149
▁내용입니다	-7150
▁시스템으로	-7151
▁이루어지고	-7152
▁환경변화에	-7153
acebook	-7154
▁legacy	-7155
▁불필요한회의	-7156
▁network	-7157
pc	-7158
pl	-7159
pu	-7160
▁끄	-7161
▁났	-7162
▁널	-7163
▁녹	-7164
▁닉	-7165
▁캡	-7166
끄러	-7167
당사	-7168
러닝	-7169
명하	-7170
민국	-7171
바로	-7172
발전	-7173
부는	-7174
부를	-7175
부장	-7176
시지	-7177
않는	-7178
연우	-7179
움을	-7180
인원	-7181
자세	-7182
작성	-7183
전화	-7184
정신	-7185
존중	-7186
줘도	-7187
질이	-7188
측의	-7189
테니	-7190
하자	-7191
해줄	-7192
협약	-7193
확인	-7194
ial	-7195
low	-7196
vel	-7197
▁#4	-7198
▁가만	-7199
▁강압	-7200
▁급한	-7201
▁나라	-7202
▁날아	-7203
▁단어	-7204
▁뒤에	-7205
▁등도	-7206
▁모른	-7207
▁받음	-7208
▁발급	-7209
▁방치	-7210
▁사번	-7211
▁상실	-7212
▁소비	-7213
▁습관	-7214
▁어울	-7215
▁오고	-7216
▁와서	-7217
▁인생	-7218
▁일률	-7219
▁증빙	-7220
▁지주	-7221
▁질의	-7222
▁짐을	-7223
▁차를	-7224
▁창구	-7225
▁청소	-7226
▁체결	-7227
▁카톡	-7228
▁캠페	-7229
▁특징	-7230
▁폐기	-7231
▁하도	-7232
▁할때	-7233
▁헌법	-7234
되네요	-7235
되어서	-7236
로서는	-7237
문화가	-7238
사람이	-7239
소리를	-7240
시간은	-7241
시는데	-7242
시면서	-7243
없네요	-7244
월부터	-7245
으로도	-7246
자들의	-7247
조직간	-7248
직원이	-7249
처리를	-7250
추진에	-7251
퍼런스	-7252
하는것	-7253
할까요	-7254
합시다	-7255
활성화	-7256
ales	-7257
▁and	-7258
▁drm	-7259
▁mac	-7260
▁가져야	-7261
▁개선에	-7262
▁거시적	-7263
▁건강을	-7264
▁검토를	-7265
▁것들을	-7266
▁것이죠	-7267
▁공유와	-7268
▁기간을	-7269
▁나오면	-7270
▁논리를	-7271
▁단위의	-7272
▁당신이	-7273
▁대다수	-7274
▁대화가	-7275
▁뒷받침	-7276
▁무기명	-7277
▁민감한	-7278
▁변하지	-7279
▁본부내	-7280
▁불만을	-7281
▁불명확	-7282
▁사규를	-7283
▁사람에	-7284
▁상관없	-7285
▁상반기	-7286
▁새롭게	-7287
▁생겨서	-7288
▁성공을	-7289
▁성과는	-7290
▁수당은	-7291
▁숫자가	-7292
▁스피커	-7293
▁쓰시는	-7294
▁안좋은	-7295
▁앉아서	-7296
▁압니다	-7297
▁어쩌면	-7298
▁얼마전	-7299
▁없어야	-7300
▁영역의	-7301
▁올라갈	-7302
▁이외의	-7303
▁있었다	-7304
▁자세로	-7305
▁장점을	-7306
▁전환을	-7307
▁정기회	-7308
▁정직원	-7309
▁제약이	-7310
▁존재함	-7311
▁좋은데	-7312
▁주변의	-7313
▁주어야	-7314
▁준다는	-7315
▁집에서	-7316
▁차연우	-7317
▁테이블	-7318
▁팀장을	-7319
▁판결이	-7320
▁폭넓은	-7321
▁현실은	-7322
▁현실을	-7323
▁wind	-7324
▁고민하는	-7325
▁구성되어	-7326
▁다양하고	-7327
▁단체협약	-7328
▁당당하게	-7329
▁대한민국	-7330
▁무시하는	-7331
▁받습니다	-7332
▁받아들여	-7333
▁보안점검	-7334
▁사람마다	-7335
▁시행하고	-7336
▁어디까지	-7337
▁어린이집	-7338
▁업무성과	-7339
▁업무진행	-7340
▁운영하는	-7341
▁이용하여	-7342
▁일어나고	-7343
▁직급체계	-7344
▁팀장님에	-7345
구성원들의	-7346
▁pilot	-7347
▁근로시간을	-7348
▁마찬가지로	-7349
▁사내시스템	-7350
▁업무시간에	-7351
▁이루어지는	-7352
▁읽어주셔서	-7353
▁중장기적인	-7354
▁지하주차장	-7355
▁경영협의회는	-7356
▁경영협의회를	-7357
▁근무시간관리	-7358
▁포괄임금제가	-7359
▁스마트워크팀입니다	-7360
60	-7361
▁낸	-7362
▁냈	-7363
▁닿	-7364
▁딴	-7365
▁벽	-7366
▁왠	-7367
▁툴	-7368
▁헤	-7369
감사	-7370
내지	-7371
뉴얼	-7372
들만	-7373
론을	-7374
받아	-7375
범위	-7376
분도	-7377
산정	-7378
영상	-7379
의욕	-7380
인정	-7381
진적	-7382
협의	-7383
kpi	-7384
ter	-7385
▁70	-7386
▁ad	-7387
▁cl	-7388
▁no	-7389
▁oo	-7390
▁걸고	-7391
▁걸리	-7392
▁결코	-7393
▁경제	-7394
▁권익	-7395
▁기계	-7396
▁기원	-7397
▁기재	-7398
▁날이	-7399
▁노후	-7400
▁놀랐	-7401
▁늦어	-7402
▁다는	-7403
▁들여	-7404
▁막말	-7405
▁매몰	-7406
▁명예	-7407
▁모순	-7408
▁배양	-7409
▁법령	-7410
▁벤더	-7411
▁보신	-7412
▁본다	-7413
▁불리	-7414
▁불통	-7415
▁비추	-7416
▁사정	-7417
▁쉬고	-7418
▁싶음	-7419
▁아프	-7420
▁에이	-7421
▁여성	-7422
▁외국	-7423
▁위생	-7424
▁위와	-7425
▁유명	-7426
▁융합	-7427
▁이론	-7428
▁임산	-7429
▁전년	-7430
▁점차	-7431
▁정식	-7432
▁직군	-7433
▁참가	-7434
▁충실	-7435
▁침묵	-7436
▁팀과	-7437
▁하려	-7438
▁허리	-7439
▁활력	-7440
겠어요	-7441
모니터	-7442
밀하게	-7443
시간만	-7444
신가요	-7445
었네요	-7446
으므로	-7447
이기에	-7448
인력이	-7449
조직은	-7450
주시고	-7451
deep	-7452
▁30%	-7453
▁ass	-7454
▁ind	-7455
▁같구요	-7456
▁개방적	-7457
▁검토해	-7458
▁것이지	-7459
▁게시물	-7460
▁공지된	-7461
▁과정에	-7462
▁구성이	-7463
▁근무가	-7464
▁근무에	-7465
▁급하게	-7466
▁나가서	-7467
▁논리가	-7468
▁댓글부	-7469
▁되면서	-7470
▁드리는	-7471
▁많네요	-7472
▁말로만	-7473
▁모습도	-7474
▁무대응	-7475
▁바꿔야	-7476
▁변화할	-7477
▁비중을	-7478
▁사업은	-7479
▁사정이	-7480
▁선택할	-7481
▁수석이	-7482
▁시도가	-7483
▁시점에	-7484
▁실행에	-7485
▁아울러	-7486
▁안된다	-7487
▁않으며	-7488
▁어려웠	-7489
▁업무만	-7490
▁없었던	-7491
▁영역을	-7492
▁영역이	-7493
▁올해도	-7494
▁요구를	-7495
▁요청이	-7496
▁우수한	-7497
▁위원을	-7498
▁유사한	-7499
▁의견과	-7500
▁의도가	-7501
▁의지를	-7502
▁이슈를	-7503
▁일해야	-7504
▁임원의	-7505
▁자체에	-7506
▁작성자	-7507
▁재검토	-7508
▁정도가	-7509
▁정의가	-7510
▁정하는	-7511
▁줬으면	-7512
▁지시가	-7513
▁지원과	-7514
▁첫번째	-7515
▁추진에	-7516
▁트랜드	-7517
▁팀장에	-7518
▁프레임	-7519
▁한번에	-7520
▁항목에	-7521
▁했으나	-7522
▁환경과	-7523
▁활용이	-7524
▁휴게실	-7525
적으로도	-7526
하는데요	-7527
휴일근로	-7528
▁cost	-7529
▁silo	-7530
▁것이라면	-7531
▁과도하게	-7532
▁대다수의	-7533
▁들어가는	-7534
▁말씀드린	-7535
▁변화하는	-7536
▁보고체계	-7537
▁생각보다	-7538
▁선거구를	-7539
▁성과창출	-7540
▁스스로의	-7541
▁스타트업	-7542
▁스피커폰	-7543
▁심신수련	-7544
▁아쉬움이	-7545
▁요구사항	-7546
▁우리나라	-7547
▁의견수렴	-7548
▁인정받는	-7549
▁자동으로	-7550
▁존중하는	-7551
▁주변에서	-7552
▁중요하게	-7553
▁찾습니다	-7554
▁책임있는	-7555
▁초과근무	-7556
▁해결방안	-7557
해주었으면	-7558
▁guide	-7559
▁teams	-7560
▁관련해서는	-7561
▁근로계약서	-7562
▁동기부여를	-7563
▁동의합니다	-7564
▁없는건가요	-7565
▁자기주도적	-7566
▁제조인프라	-7567
▁조직문화가	-7568
▁window	-7569
▁통상임금으로	-7570
▁나는우리회사가	-7571
▁facebook	-7572
▁selfdesign	-7573
76	-7574
ai	-7575
▁內	-7576
▁떼	-7577
▁빡	-7578
▁섞	-7579
▁큽	-7580
▁히	-7581
교통	-7582
길래	-7583
년의	-7584
는건	-7585
능한	-7586
더욱	-7587
동기	-7588
롭고	-7589
무효	-7590
비의	-7591
셨을	-7592
스런	-7593
스터	-7594
신뢰	-7595
심에	-7596
어리	-7597
요건	-7598
워요	-7599
인식	-7600
일의	-7601
저기	-7602
적소	-7603
적용	-7604
지식	-7605
트를	-7606
son	-7607
▁xx	-7608
▁가벼	-7609
▁건에	-7610
▁공문	-7611
▁길게	-7612
▁나눌	-7613
▁눌러	-7614
▁다루	-7615
▁대략	-7616
▁독자	-7617
▁들지	-7618
▁듯함	-7619
▁막아	-7620
▁맞을	-7621
▁멘토	-7622
▁모범	-7623
▁문득	-7624
▁백팩	-7625
▁밴드	-7626
▁벤처	-7627
▁보단	-7628
▁복구	-7629
▁비정	-7630
▁상충	-7631
▁상품	-7632
▁소유	-7633
▁수집	-7634
▁신임	-7635
▁실효	-7636
▁싫어	-7637
▁심화	-7638
▁싶지	-7639
▁애로	-7640
▁완전	-7641
▁응대	-7642
▁이관	-7643
▁이나	-7644
▁이때	-7645
▁일시	-7646
▁자의	-7647
▁작용	-7648
▁장갑	-7649
▁적지	-7650
▁전해	-7651
▁정규	-7652
▁정성	-7653
▁조기	-7654
▁줄일	-7655
▁지내	-7656
▁지워	-7657
▁지인	-7658
▁직진	-7659
▁짧은	-7660
▁차등	-7661
▁차주	-7662
▁풀어	-7663
▁플랜	-7664
그리고	-7665
만원을	-7666
만하면	-7667
메일을	-7668
사업팀	-7669
세미나	-7670
에게도	-7671
일부터	-7672
자동차	-7673
주시기	-7674
지는데	-7675
하게도	-7676
하지도	-7677
합니까	-7678
reat	-7679
▁iss	-7680
▁pod	-7681
▁강점이	-7682
▁개선의	-7683
▁결론을	-7684
▁경험과	-7685
▁고려가	-7686
▁구시대	-7687
▁권한과	-7688
▁그룹의	-7689
▁기대를	-7690
▁기억이	-7691
▁기업이	-7692
▁나무를	-7693
▁느끼게	-7694
▁대규모	-7695
▁돌아가	-7696
▁떠나서	-7697
▁맞나요	-7698
▁맞는지	-7699
▁맞추어	-7700
▁매니저	-7701
▁메일함	-7702
▁몰라도	-7703
▁뭘해도	-7704
▁미들맨	-7705
▁바꾸고	-7706
▁변해야	-7707
▁보상과	-7708
▁보여서	-7709
▁본연의	-7710
▁부서는	-7711
▁상명하	-7712
▁설득력	-7713
▁소프트	-7714
▁시니어	-7715
▁시장에	-7716
▁알아보	-7717
▁오늘도	-7718
▁올라오	-7719
▁위원의	-7720
▁의무가	-7721
▁이어폰	-7722
▁일관된	-7723
▁일요일	-7724
▁잘모르	-7725
▁전체가	-7726
▁정말로	-7727
▁정상화	-7728
▁조직된	-7729
▁좋을듯	-7730
▁진행을	-7731
▁쪽으로	-7732
▁찾아서	-7733
▁채널이	-7734
▁취지에	-7735
▁큽니다	-7736
▁판단과	-7737
▁표현이	-7738
▁필요도	-7739
▁한번씩	-7740
▁항목은	-7741
▁해주면	-7742
▁했다는	-7743
▁향상이	-7744
▁현장의	-7745
▁형성이	-7746
▁환경적	-7747
드라이브	-7748
하다보면	-7749
하시는데	-7750
▁isac	-7751
▁개선사항	-7752
▁것이라는	-7753
▁경쟁력을	-7754
▁경청하는	-7755
▁계산하여	-7756
▁공지사항	-7757
▁동적요소	-7758
▁되었다고	-7759
▁들었는데	-7760
▁듯합니다	-7761
▁리더쉽을	-7762
▁방향성이	-7763
▁부분에서	-7764
▁사내교육	-7765
▁사내에서	-7766
▁사업영역	-7767
▁사업장이	-7768
▁성공사례	-7769
▁소통하고	-7770
▁시행착오	-7771
▁신기술을	-7772
▁실제로는	-7773
▁실행하는	-7774
▁않더라도	-7775
▁야간근로	-7776
▁어떻게든	-7777
▁언급하신	-7778
▁엄청나게	-7779
▁여기저기	-7780
▁오랫동안	-7781
▁있더라도	-7782
▁자기완결	-7783
▁전문가가	-7784
▁초과근로	-7785
▁추진력이	-7786
▁행동하는	-7787
▁활성화를	-7788
▁needs	-7789
▁swing	-7790
▁근로시간에	-7791
▁선제적으로	-7792
▁양수석님의	-7793
▁정기보너스	-7794
skcccom	-7795
▁개인적으로는	-7796
▁bottomup	-7797
▁recognition	-7798
th	-7799
▁균	-7800
▁꽉	-7801
▁딸	-7802
▁색	-7803
▁섬	-7804
▁센	-7805
▁옷	-7806
▁홈	-7807
감한	-7808
개를	-7809
격을	-7810
곡과	-7811
기존	-7812
내재	-7813
되게	-7814
리즈	-7815
메인	-7816
불호	-7817
비에	-7818
사내	-7819
서함	-7820
선관	-7821
습득	-7822
었을	-7823
였던	-7824
원은	-7825
위에	-7826
인거	-7827
일도	-7828
일자	-7829
일정	-7830
제에	-7831
제의	-7832
지부	-7833
층의	-7834
톡톡	-7835
파는	-7836
판교	-7837
함께	-7838
map	-7839
ory	-7840
▁,,	-7841
▁34	-7842
▁가상	-7843
▁갖춘	-7844
▁고참	-7845
▁과한	-7846
▁긴급	-7847
▁나열	-7848
▁날라	-7849
▁내지	-7850
▁높고	-7851
▁높이	-7852
▁놓은	-7853
▁닉네	-7854
▁당황	-7855
▁대중	-7856
▁돈이	-7857
▁두번	-7858
▁랜덤	-7859
▁만일	-7860
▁맞춘	-7861
▁며칠	-7862
▁묻는	-7863
▁뭐라	-7864
▁민트	-7865
▁버전	-7866
▁버티	-7867
▁변형	-7868
▁부러	-7869
▁불공	-7870
▁사연	-7871
▁삶의	-7872
▁생존	-7873
▁세대	-7874
▁소스	-7875
▁쏟아	-7876
▁애사	-7877
▁애정	-7878
▁양식	-7879
▁업의	-7880
▁예시	-7881
▁예의	-7882
▁와닿	-7883
▁유포	-7884
▁이사	-7885
▁이틀	-7886
▁인데	-7887
▁자랑	-7888
▁자존	-7889
▁장이	-7890
▁제재	-7891
▁조의	-7892
▁종속	-7893
▁주저	-7894
▁중단	-7895
▁진실	-7896
▁찾고	-7897
▁충족	-7898
▁통찰	-7899
▁편향	-7900
▁하에	-7901
▁하자	-7902
▁하향	-7903
▁행정	-7904
▁화가	-7905
관계가	-7906
그대로	-7907
기간이	-7908
내에서	-7909
년도에	-7910
되었고	-7911
리네요	-7912
방향성	-7913
부서는	-7914
선거구	-7915
소통을	-7916
시간외	-7917
십시요	-7918
업무로	-7919
용으로	-7920
으라고	-7921
이상의	-7922
적절한	-7923
주시는	-7924
차세대	-7925
평가는	-7926
하시어	-7927
확보를	-7928
▁120	-7929
▁70%	-7930
▁간단한	-7931
▁같기도	-7932
▁개선해	-7933
▁개인에	-7934
▁공간을	-7935
▁관련이	-7936
▁괜찮은	-7937
▁구조임	-7938
▁규칙을	-7939
▁금액을	-7940
▁급여에	-7941
▁기간에	-7942
▁기대해	-7943
▁기술과	-7944
▁끼토산	-7945
▁납득이	-7946
▁네트웍	-7947
▁논의가	-7948
▁다수가	-7949
▁단계별	-7950
▁단순한	-7951
▁대안을	-7952
▁들어야	-7953
▁때에는	-7954
▁만들지	-7955
▁말아야	-7956
▁말하고	-7957
▁말한다	-7958
▁문자를	-7959
▁미래에	-7960
▁발굴을	-7961
▁방해가	-7962
▁변경은	-7963
▁별개로	-7964
▁부여가	-7965
▁불편해	-7966
▁브랜드	-7967
▁사측이	-7968
▁살아남	-7969
▁상태가	-7970
▁생기고	-7971
▁생기면	-7972
▁실시간	-7973
▁아쉽다	-7974
▁안되면	-7975
▁안되서	-7976
▁어렵게	-7977
▁없애고	-7978
▁없애는	-7979
▁올라가	-7980
▁요즘은	-7981
▁육성에	-7982
▁이벤트	-7983
▁있는가	-7984
▁자유로	-7985
▁재배치	-7986
▁저성과	-7987
▁전략이	-7988
▁제도나	-7989
▁지난번	-7990
▁지시를	-7991
▁지식과	-7992
▁창의적	-7993
▁체계적	-7994
▁출장비	-7995
▁취지와	-7996
▁칭찬을	-7997
▁편의를	-7998
▁품의서	-7999
▁하다고	-8000
▁해야지	-8001
▁행동은	-8002
▁효율성	-8003
▁휴가도	-8004
▁휴대폰	-8005
웠습니다	-8006
조직으로	-8007
하시네요	-8008
▁role	-8009
▁show	-8010
▁team	-8011
▁결격사유	-8012
▁경쟁력이	-8013
▁그렇지만	-8014
▁근태승인	-8015
▁급변하는	-8016
▁급여항목	-8017
▁나옵니다	-8018
▁노조에서	-8019
▁노트북을	-8020
▁대부분은	-8021
▁대응하고	-8022
▁대하여는	-8023
▁메시지를	-8024
▁명시되어	-8025
▁부문별로	-8026
▁사고방식	-8027
▁삼성전자	-8028
▁신청곡과	-8029
▁않는다는	-8030
▁않았지만	-8031
▁운영하고	-8032
▁의견으로	-8033
▁이용하고	-8034
▁인력부족	-8035
▁조직운영	-8036
▁존중하고	-8037
▁준비하고	-8038
▁지급하여	-8039
▁처음에는	-8040
▁커리큘럼	-8041
▁팀장님과	-8042
▁팀장으로	-8043
▁해결하는	-8044
▁휴가계획	-8045
daymay	-8046
▁issue	-8047
▁기대합니다	-8048
▁되겠습니다	-8049
▁변화에대한	-8050
▁일일주차권	-8051
▁있겠습니다	-8052
▁재미없네요	-8053
▁직원들에게	-8054
▁직접적으로	-8055
▁직책자에게	-8056
▁프로세스에	-8057
▁discus	-8058
▁locker	-8059
▁winwin	-8060
▁windows	-8061
▁커뮤니케이션을	-8062
53	-8063
bs	-8064
lb	-8065
os	-8066
▁꿈	-8067
▁던	-8068
▁벨	-8069
▁석	-8070
▁티	-8071
가를	-8072
개최	-8073
급이	-8074
년을	-8075
듯한	-8076
르기	-8077
많으	-8078
무적	-8079
물이	-8080
받았	-8081
법을	-8082
셨던	-8083
수는	-8084
수평	-8085
심의	-8086
안을	-8087
안정	-8088
연구	-8089
이런	-8090
자금	-8091
적은	-8092
진대	-8093
짜피	-8094
체적	-8095
출근	-8096
치면	-8097
트가	-8098
특정	-8099
풀이	-8100
하이	-8101
행위	-8102
ach	-8103
ens	-8104
oun	-8105
▁cc	-8106
▁km	-8107
▁간결	-8108
▁간편	-8109
▁거절	-8110
▁것들	-8111
▁결집	-8112
▁고집	-8113
▁과소	-8114
▁과중	-8115
▁광고	-8116
▁글쎄	-8117
▁급격	-8118
▁끝난	-8119
▁나도	-8120
▁나빠	-8121
▁나을	-8122
▁눈높	-8123
▁니즈	-8124
▁도구	-8125
▁도배	-8126
▁동전	-8127
▁되게	-8128
▁될지	-8129
▁떠넘	-8130
▁마다	-8131
▁매각	-8132
▁물을	-8133
▁미션	-8134
▁반성	-8135
▁복합	-8136
▁블루	-8137
▁비싼	-8138
▁생략	-8139
▁생태	-8140
▁선입	-8141
▁성실	-8142
▁세워	-8143
▁세팅	-8144
▁수에	-8145
▁시원	-8146
▁시절	-8147
▁시험	-8148
▁신문	-8149
▁실내	-8150
▁아빠	-8151
▁악의	-8152
▁알파	-8153
▁억지	-8154
▁의자	-8155
▁이렇	-8156
▁일본	-8157
▁일으	-8158
▁읽고	-8159
▁있긴	-8160
▁자질	-8161
▁전원	-8162
▁점도	-8163
▁주민	-8164
▁중립	-8165
▁찍고	-8166
▁철저	-8167
▁출처	-8168
▁크지	-8169
▁타는	-8170
▁탁월	-8171
▁페브	-8172
▁하죠	-8173
▁학생	-8174
▁호미	-8175
▁호칭	-8176
갔으면	-8177
데스크	-8178
들끼리	-8179
리적인	-8180
문화를	-8181
상황에	-8182
소스를	-8183
으려고	-8184
의식이	-8185
조직과	-8186
직원의	-8187
하기만	-8188
하니까	-8189
하였다	-8190
하자고	-8191
화되어	-8192
atch	-8193
enge	-8194
▁90%	-8195
▁cpu	-8196
▁ssm	-8197
▁가시적	-8198
▁가운데	-8199
▁개념이	-8200
▁거리가	-8201
▁관리할	-8202
▁교육도	-8203
▁권한은	-8204
▁기술이	-8205
▁기회에	-8206
▁나와야	-8207
▁당사가	-8208
▁되었고	-8209
▁디자인	-8210
▁따뜻한	-8211
▁매출이	-8212
▁발전할	-8213
▁방법에	-8214
▁부분의	-8215
▁부장이	-8216
▁블로그	-8217
▁사고가	-8218
▁사용시	-8219
▁상세한	-8220
▁생산성	-8221
▁선거의	-8222
▁선에서	-8223
▁소지가	-8224
▁수립이	-8225
▁수많은	-8226
▁실행할	-8227
▁싶어요	-8228
▁않았다	-8229
▁어짜피	-8230
▁없는지	-8231
▁에너지	-8232
▁여기는	-8233
▁여부는	-8234
▁육성이	-8235
▁이전의	-8236
▁임산부	-8237
▁장시간	-8238
▁적정한	-8239
▁전까지	-8240
▁전화통	-8241
▁점수를	-8242
▁정해져	-8243
▁제보가	-8244
▁좌석에	-8245
▁중에서	-8246
▁즐거운	-8247
▁지난해	-8248
▁지원에	-8249
▁참여가	-8250
▁취지를	-8251
▁특히나	-8252
▁하루종	-8253
▁한번도	-8254
▁합당한	-8255
▁했는지	-8256
▁혁신은	-8257
▁홀딩스	-8258
▁확대를	-8259
▁효과를	-8260
구성원에	-8261
되었는지	-8262
만으로는	-8263
중심으로	-8264
하이닉스	-8265
해주시고	-8266
etail	-8267
▁2000	-8268
▁2013	-8269
▁개선필요	-8270
▁계시지만	-8271
▁관리하고	-8272
▁근거하여	-8273
▁근로조건	-8274
▁기본급과	-8275
▁나아가야	-8276
▁노무법인	-8277
▁대화내용	-8278
▁문제점을	-8279
▁반영되지	-8280
▁받았는데	-8281
▁보수적인	-8282
▁보이는데	-8283
▁복잡하고	-8284
▁부문에서	-8285
▁부여하는	-8286
▁부여하여	-8287
▁생각해서	-8288
▁선관위를	-8289
▁선관위원	-8290
▁설명회를	-8291
▁안되네요	-8292
▁안타까운	-8293
▁업무적인	-8294
▁업무효율	-8295
▁없겠지만	-8296
▁연구개발	-8297
▁예를들어	-8298
▁이의제기	-8299
▁이해도가	-8300
▁있었다고	-8301
▁전문적인	-8302
▁전화번호	-8303
▁주관으로	-8304
▁중요정보	-8305
▁지방근무	-8306
▁지향하는	-8307
▁진행해야	-8308
▁책임지는	-8309
▁함께하는	-8310
▁해결하기	-8311
▁확보하기	-8312
▁희망하는	-8313
스럽습니다	-8314
▁chall	-8315
▁경영층에서	-8316
▁구성원으로	-8317
▁많았습니다	-8318
▁말씀드리고	-8319
▁보고를위한	-8320
▁업무환경이	-8321
▁역량개발에	-8322
▁연봉동의서	-8323
▁자체적으로	-8324
▁전사공지에	-8325
▁체계적으로	-8326
▁추가적으로	-8327
▁컬쳐서베이	-8328
▁프로그램이	-8329
agement	-8330
ination	-8331
process	-8332
▁portal	-8333
▁기술중심회사	-8334
▁연차유급휴가수당	-8335
transformation	-8336
19	-8337
94	-8338
ib	-8339
ps	-8340
tt	-8341
▁ᅳ	-8342
▁돼	-8343
▁뜬	-8344
▁묶	-8345
▁샤	-8346
▁쉴	-8347
▁얽	-8348
▁쯤	-8349
▁흥	-8350
개진	-8351
것같	-8352
계를	-8353
권이	-8354
기울	-8355
단기	-8356
달성	-8357
담을	-8358
먹는	-8359
무원	-8360
민주	-8361
바뀌	-8362
상은	-8363
생산	-8364
셨고	-8365
속에	-8366
실무	-8367
실에	-8368
아래	-8369
안내	-8370
않은	-8371
없고	-8372
원활	-8373
위반	-8374
율을	-8375
인재	-8376
인치	-8377
있다	-8378
좀더	-8379
챗봇	-8380
천원	-8381
충식	-8382
콜라	-8383
테고	-8384
투명	-8385
학습	-8386
항에	-8387
해질	-8388
현황	-8389
화면	-8390
휴게	-8391
300	-8392
aas	-8393
one	-8394
per	-8395
rix	-8396
▁29	-8397
▁cs	-8398
▁ow	-8399
▁가게	-8400
▁걸려	-8401
▁공급	-8402
▁그분	-8403
▁글쓰	-8404
▁기만	-8405
▁나간	-8406
▁노고	-8407
▁니가	-8408
▁다각	-8409
▁때에	-8410
▁모자	-8411
▁반박	-8412
▁보며	-8413
▁보충	-8414
▁부가	-8415
▁부활	-8416
▁불평	-8417
▁비롯	-8418
▁사외	-8419
▁서랍	-8420
▁서류	-8421
▁수를	-8422
▁스킬	-8423
▁실명	-8424
▁심함	-8425
▁안마	-8426
▁어쨌	-8427
▁없앤	-8428
▁연중	-8429
▁열고	-8430
▁예로	-8431
▁예방	-8432
▁온갖	-8433
▁올릴	-8434
▁우린	-8435
▁유발	-8436
▁유치	-8437
▁유형	-8438
▁의거	-8439
▁이끄	-8440
▁인내	-8441
▁일사	-8442
▁재원	-8443
▁적다	-8444
▁전제	-8445
▁정비	-8446
▁제언	-8447
▁주셨	-8448
▁지났	-8449
▁진솔	-8450
▁취득	-8451
▁키울	-8452
▁틀린	-8453
▁판매	-8454
▁패치	-8455
▁포탈	-8456
▁합산	-8457
▁항소	-8458
▁해라	-8459
▁해볼	-8460
▁현대	-8461
▁호의	-8462
▁휘둘	-8463
▁힘듬	-8464
가는데	-8465
곳에서	-8466
급으로	-8467
내용을	-8468
년으로	-8469
드려요	-8470
들한테	-8471
반기에	-8472
보다도	-8473
상적인	-8474
선관위	-8475
었다는	-8476
요일에	-8477
졌다고	-8478
트렌드	-8479
하는건	-8480
하셨던	-8481
협업을	-8482
▁6:4	-8483
▁iot	-8484
▁ram	-8485
▁sms	-8486
▁가능성	-8487
▁가처분	-8488
▁각각의	-8489
▁겁니까	-8490
▁결단력	-8491
▁결론은	-8492
▁과거에	-8493
▁구성된	-8494
▁금액이	-8495
▁금전적	-8496
▁나서서	-8497
▁누군지	-8498
▁단말기	-8499
▁대표가	-8500
▁도저히	-8501
▁되었다	-8502
▁뒤에서	-8503
▁들어오	-8504
▁따르는	-8505
▁땅파는	-8506
▁뛰어나	-8507
▁말씀이	-8508
▁맞지만	-8509
▁명시적	-8510
▁모습에	-8511
▁못하면	-8512
▁무관심	-8513
▁문화로	-8514
▁미래가	-8515
▁바뀌어	-8516
▁바빠서	-8517
▁배우고	-8518
▁별다른	-8519
▁보시는	-8520
▁보이며	-8521
▁본인도	-8522
▁부작용	-8523
▁사고와	-8524
▁사람만	-8525
▁사업부	-8526
▁사이의	-8527
▁소통도	-8528
▁수행한	-8529
▁시간의	-8530
▁시에는	-8531
▁실적이	-8532
▁싶어도	-8533
▁아닌거	-8534
▁안정화	-8535
▁야근이	-8536
▁업로드	-8537
▁여러번	-8538
▁오해가	-8539
▁요구됨	-8540
▁요소가	-8541
▁원하지	-8542
▁음식물	-8543
▁이내의	-8544
▁이외에	-8545
▁이용한	-8546
▁인상률	-8547
▁임원이	-8548
▁있었을	-8549
▁있을때	-8550
▁자료가	-8551
▁자원을	-8552
▁정부의	-8553
▁제공할	-8554
▁조건을	-8555
▁조직적	-8556
▁좋네요	-8557
▁좌석이	-8558
▁좌회전	-8559
▁지키고	-8560
▁집중을	-8561
▁채널을	-8562
▁타인의	-8563
▁트레이	-8564
▁특정한	-8565
▁하셔서	-8566
▁했더니	-8567
▁협업존	-8568
▁혜택이	-8569
아이디어	-8570
으로서의	-8571
적입니다	-8572
하겠네요	-8573
ution	-8574
▁6400	-8575
▁back	-8576
▁것이므로	-8577
▁경영계획	-8578
▁공감하는	-8579
▁공정하고	-8580
▁관계없이	-8581
▁관련없이	-8582
▁교육지원	-8583
▁구성하여	-8584
▁권위주의	-8585
▁그러니까	-8586
▁기다리고	-8587
▁노력해야	-8588
▁누군가가	-8589
▁되었네요	-8590
▁문의하신	-8591
▁법정수당	-8592
▁부분들이	-8593
▁부장님들	-8594
▁분위기임	-8595
▁사이트의	-8596
▁선관위에	-8597
▁설문조사	-8598
▁성과관리	-8599
▁소극적인	-8600
▁수행하기	-8601
▁시너지가	-8602
▁실제적인	-8603
▁실행방안	-8604
▁악성코드	-8605
▁언제부터	-8606
▁예전에는	-8607
▁인정되는	-8608
▁자율성을	-8609
▁적재적소	-8610
▁절대적인	-8611
▁절대평가	-8612
▁존재하고	-8613
▁좌석예약	-8614
▁준비하는	-8615
▁중시하는	-8616
▁지하식당	-8617
▁집중하고	-8618
▁처리하는	-8619
▁팀분위기	-8620
▁팀원간의	-8621
▁파격적인	-8622
▁판단하는	-8623
▁페브리즈	-8624
▁하는것이	-8625
▁하루종일	-8626
▁하셨으면	-8627
▁현재까지	-8628
▁현재보다	-8629
▁환경으로	-8630
▁활용하고	-8631
관점에서의	-8632
구성원들이	-8633
▁sales	-8634
▁그렇습니다	-8635
▁급여명세서	-8636
▁기억합니다	-8637
▁동감합니다	-8638
▁두려워하지	-8639
▁만들었으면	-8640
▁말씀드리면	-8641
▁세미나개최	-8642
▁알았습니다	-8643
▁윤리경영팀	-8644
▁의사소통을	-8645
▁의욕적으로	-8646
▁이해하지만	-8647
▁일하는방식	-8648
▁정보보호팀	-8649
▁중간관리자	-8650
▁한편으로는	-8651
차산업혁명에	-8652
▁review	-8653
▁weekly	-8654
▁근로기준법을	-8655
▁discuss	-8656
▁industry	-8657
▁challenge	-8658
um	-8659
▁겹	-8660
▁덮	-8661
▁십	-8662
가짐	-8663
거야	-8664
결재	-8665
내에	-8666
뉴스	-8667
드려	-8668
등은	-8669
때문	-8670
래픽	-8671
려워	-8672
버린	-8673
보장	-8674
본사	-8675
분명	-8676
사무	-8677
사와	-8678
속적	-8679
스레	-8680
여도	-8681
예산	-8682
우면	-8683
자원	-8684
전사	-8685
조를	-8686
증을	-8687
지역	-8688
체크	-8689
축소	-8690
팀과	-8691
해왔	-8692
arn	-8693
elp	-8694
sds	-8695
ual	-8696
▁3%	-8697
▁4%	-8698
▁kr	-8699
▁tc	-8700
▁같긴	-8701
▁게임	-8702
▁공명	-8703
▁극단	-8704
▁남는	-8705
▁넓게	-8706
▁되길	-8707
▁되며	-8708
▁따름	-8709
▁뚜렷	-8710
▁마우	-8711
▁마진	-8712
▁만나	-8713
▁말로	-8714
▁벤치	-8715
▁본래	-8716
▁살짝	-8717
▁수반	-8718
▁스케	-8719
▁쌍방	-8720
▁쌓을	-8721
▁알림	-8722
▁어딘	-8723
▁언론	-8724
▁엄마	-8725
▁완성	-8726
▁왕복	-8727
▁외의	-8728
▁은행	-8729
▁일원	-8730
▁재발	-8731
▁전개	-8732
▁제정	-8733
▁존대	-8734
▁지불	-8735
▁착각	-8736
▁추측	-8737
▁친근	-8738
▁친한	-8739
▁카카	-8740
▁타이	-8741
▁틀어	-8742
▁평등	-8743
▁포상	-8744
▁함은	-8745
▁항문	-8746
▁해명	-8747
▁환영	-8748
강화를	-8749
것처럼	-8750
교육이	-8751
단계로	-8752
됩니까	-8753
때마다	-8754
라는게	-8755
를위한	-8756
보네요	-8757
보이는	-8758
스러워	-8759
스스로	-8760
시간씩	-8761
업무와	-8762
었으나	-8763
역량이	-8764
으시면	-8765
자들은	-8766
적이다	-8767
적이라	-8768
증진에	-8769
체적인	-8770
추진력	-8771
테이션	-8772
함으로	-8773
해줘야	-8774
ence	-8775
ocus	-8776
ting	-8777
usin	-8778
vent	-8779
▁sot	-8780
▁use	-8781
▁가만히	-8782
▁강화가	-8783
▁결론이	-8784
▁계시면	-8785
▁공동체	-8786
▁관리는	-8787
▁교류가	-8788
▁구정이	-8789
▁구조의	-8790
▁권리가	-8791
▁그것에	-8792
▁근무한	-8793
▁근무할	-8794
▁기관에	-8795
▁기능이	-8796
▁까지는	-8797
▁끝나고	-8798
▁내년에	-8799
▁논리적	-8800
▁다니고	-8801
▁달성에	-8802
▁동영상	-8803
▁되어서	-8804
▁등에서	-8805
▁떨어진	-8806
▁리더는	-8807
▁리딩할	-8808
▁리프레	-8809
▁만족도	-8810
▁말했다	-8811
▁문의를	-8812
▁물리적	-8813
▁뭐라고	-8814
▁미치지	-8815
▁반대를	-8816
▁발생함	-8817
▁보여짐	-8818
▁분들에	-8819
▁불가피	-8820
▁사기를	-8821
▁사유가	-8822
▁세우고	-8823
▁소리로	-8824
▁소송을	-8825
▁신충식	-8826
▁아니며	-8827
▁악순환	-8828
▁않아야	-8829
▁않아요	-8830
▁양치기	-8831
▁어쨌든	-8832
▁연락처	-8833
▁옆에서	-8834
▁올리신	-8835
▁올리지	-8836
▁올바른	-8837
▁원할한	-8838
▁원활히	-8839
▁의지와	-8840
▁의혹이	-8841
▁이대로	-8842
▁이동에	-8843
▁이동은	-8844
▁일정에	-8845
▁자체의	-8846
▁저희가	-8847
▁정하고	-8848
▁제공이	-8849
▁제공해	-8850
▁제도로	-8851
▁제안을	-8852
▁중점을	-8853
▁지급할	-8854
▁지나면	-8855
▁진정성	-8856
▁차이를	-8857
▁찾아야	-8858
▁책임이	-8859
▁컴퓨터	-8860
▁팀별로	-8861
▁하셔야	-8862
▁한두번	-8863
▁항목이	-8864
▁해줘야	-8865
▁혁신의	-8866
▁현실에	-8867
▁호불호	-8868
▁환경은	-8869
하셨는데	-8870
하였는데	-8871
해주시기	-8872
▁개발환경	-8873
▁것이지요	-8874
▁게시판을	-8875
▁결정하고	-8876
▁경영진이	-8877
▁계속해서	-8878
▁계신가요	-8879
▁계정정보	-8880
▁관점으로	-8881
▁권한위임	-8882
▁글입니다	-8883
▁기다리는	-8884
▁기존사업	-8885
▁내용들이	-8886
▁많다보니	-8887
▁모릅니다	-8888
▁발생하고	-8889
▁불편하고	-8890
▁비상근무	-8891
▁사업추진	-8892
▁사용자를	-8893
▁사용하기	-8894
▁상명하복	-8895
▁생각으로	-8896
▁생각하여	-8897
▁세부적인	-8898
▁셔틀버스	-8899
▁수당으로	-8900
▁시점에서	-8901
▁아닌지요	-8902
▁아랫사람	-8903
▁영업이익	-8904
▁예를들면	-8905
▁원칙으로	-8906
▁유지하는	-8907
▁이루어지	-8908
▁이전에는	-8909
▁이해하는	-8910
▁있다보니	-8911
▁있을텐데	-8912
▁작성하는	-8913
▁재판부는	-8914
▁전통적인	-8915
▁전형적인	-8916
▁제수당의	-8917
▁지원체계	-8918
▁피드백이	-8919
▁필요하나	-8920
▁해결해야	-8921
▁홈페이지	-8922
▁확보하고	-8923
▁level	-8924
▁아이디어가	-8925
▁알려주세요	-8926
▁원칙적으로	-8927
▁유연근무제	-8928
▁적용되어야	-8929
▁전사차원의	-8930
▁조금이라도	-8931
▁조직문화를	-8932
▁협력증진에	-8933
▁협업에대한	-8934
usiness	-8935
▁구성원에게는	-8936
▁구성원위원을	-8937
▁근로기준법에	-8938
▁생각했습니다	-8939
▁프로젝트수행	-8940
▁service	-8941
▁support	-8942
▁선거관리위원회의	-8943
▁정보보호팀입니다	-8944
ordination	-8945
▁management	-8946
59	-8947
se	-8948
▁겁	-8949
▁낡	-8950
▁놔	-8951
▁듬	-8952
▁뵙	-8953
▁뺏	-8954
▁섭	-8955
▁쇼	-8956
▁쫓	-8957
▁폰	-8958
▁흑	-8959
▁흩	-8960
가에	-8961
것에	-8962
계정	-8963
고는	-8964
고생	-8965
교섭	-8966
급과	-8967
기본	-8968
대에	-8969
대의	-8970
되길	-8971
런지	-8972
로를	-8973
마킹	-8974
만은	-8975
말씀	-8976
매출	-8977
반영	-8978
사지	-8979
성공	-8980
시킨	-8981
식대	-8982
없다	-8983
연계	-8984
였고	-8985
요인	-8986
유가	-8987
으러	-8988
인물	-8989
장애	-8990
전달	-8991
점에	-8992
종의	-8993
주가	-8994
참석	-8995
침을	-8996
통합	-8997
포탈	-8998
품질	-8999
확실	-9000
est	-9001
ior	-9002
its	-9003
rol	-9004
ush	-9005
▁02	-9006
▁99	-9007
▁en	-9008
▁fa	-9009
▁mm	-9010
▁vs	-9011
▁감각	-9012
▁구호	-9013
▁국한	-9014
▁기부	-9015
▁나만	-9016
▁나지	-9017
▁남이	-9018
▁낫지	-9019
▁낮게	-9020
▁낮추	-9021
▁논쟁	-9022
▁도둑	-9023
▁도착	-9024
▁되실	-9025
▁뒤로	-9026
▁듣게	-9027
▁리드	-9028
▁말투	-9029
▁맡고	-9030
▁모임	-9031
▁무섭	-9032
▁묵묵	-9033
▁버리	-9034
▁사우	-9035
▁사장	-9036
▁산입	-9037
▁샤워	-9038
▁숙박	-9039
▁쉬는	-9040
▁신기	-9041
▁심도	-9042
▁알겠	-9043
▁약점	-9044
▁얻는	-9045
▁얻어	-9046
▁연휴	-9047
▁영수	-9048
▁오락	-9049
▁외주	-9050
▁운전	-9051
▁운행	-9052
▁워낙	-9053
▁원치	-9054
▁이탈	-9055
▁인용	-9056
▁잡는	-9057
▁적인	-9058
▁조작	-9059
▁죽어	-9060
▁중순	-9061
▁진동	-9062
▁진취	-9063
▁집합	-9064
▁차례	-9065
▁채워	-9066
▁챗봇	-9067
▁총괄	-9068
▁출력	-9069
▁취급	-9070
▁취사	-9071
▁통행	-9072
▁팀웍	-9073
▁파괴	-9074
▁패스	-9075
▁표기	-9076
▁한숨	-9077
▁할까	-9078
▁합법	-9079
▁해줄	-9080
공지능	-9081
봤는데	-9082
부분이	-9083
분야에	-9084
셨나요	-9085
소통이	-9086
시는건	-9087
시지만	-9088
었어요	-9089
인력을	-9090
있네요	-9091
조직에	-9092
지원이	-9093
층으로	-9094
하셔도	-9095
화장실	-9096
▁cit	-9097
▁pms	-9098
▁ted	-9099
▁‘17	-9100
▁가치가	-9101
▁강화할	-9102
▁개발과	-9103
▁걸리는	-9104
▁걸맞는	-9105
▁경진대	-9106
▁고려할	-9107
▁고직급	-9108
▁공개토	-9109
▁공무원	-9110
▁공유해	-9111
▁관점을	-9112
▁귀기울	-9113
▁그렇다	-9114
▁그림을	-9115
▁기존과	-9116
▁긴밀한	-9117
▁느끼지	-9118
▁다행히	-9119
▁데스크	-9120
▁도메인	-9121
▁돈으로	-9122
▁동등한	-9123
▁따라야	-9124
▁때까지	-9125
▁만족함	-9126
▁맞아요	-9127
▁맞춤형	-9128
▁메일도	-9129
▁모호한	-9130
▁무료로	-9131
▁무리가	-9132
▁무효로	-9133
▁문서가	-9134
▁문제도	-9135
▁문제제	-9136
▁문화와	-9137
▁미치는	-9138
▁바뀌면	-9139
▁반대가	-9140
▁반응이	-9141
▁배려를	-9142
▁법률에	-9143
▁보내주	-9144
▁보내지	-9145
▁보세요	-9146
▁본부의	-9147
▁본인들	-9148
▁부드럽	-9149
▁부문은	-9150
▁부장급	-9151
▁비공식	-9152
▁사고를	-9153
▁사용중	-9154
▁상황과	-9155
▁선임이	-9156
▁선출에	-9157
▁성과급	-9158
▁소식을	-9159
▁소외감	-9160
▁시장의	-9161
▁시행에	-9162
▁아는데	-9163
▁아이디	-9164
▁않는지	-9165
▁않았음	-9166
▁알리고	-9167
▁얘기가	-9168
▁언제쯤	-9169
▁업무적	-9170
▁없으신	-9171
▁연락을	-9172
▁원격지	-9173
▁위반한	-9174
▁유연화	-9175
▁의하여	-9176
▁의해서	-9177
▁이상이	-9178
▁이슈로	-9179
▁이해해	-9180
▁익숙해	-9181
▁일부는	-9182
▁자신을	-9183
▁장기출	-9184
▁적당한	-9185
▁적시에	-9186
▁전사의	-9187
▁절차적	-9188
▁점수가	-9189
▁정신이	-9190
▁제시를	-9191
▁좋았을	-9192
▁주장과	-9193
▁주제로	-9194
▁지급된	-9195
▁지장을	-9196
▁찬바람	-9197
▁참으로	-9198
▁찾아보	-9199
▁책임은	-9200
▁철저히	-9201
▁측면의	-9202
▁친환경	-9203
▁카카오	-9204
▁콘텐츠	-9205
▁크다고	-9206
▁파일을	-9207
▁판교에	-9208
▁판례에	-9209
▁평가의	-9210
▁하고싶	-9211
▁하루에	-9212
▁하여야	-9213
▁하자는	-9214
▁한정된	-9215
▁함에도	-9216
▁합의를	-9217
▁합의에	-9218
▁해결이	-9219
▁협업도	-9220
▁확인한	-9221
▁활동은	-9222
▁힘들다	-9223
보안보안	-9224
이다보니	-9225
입장에서	-9226
자리에서	-9227
조직에서	-9228
차적으로	-9229
하면서도	-9230
30010	-9231
▁2012	-9232
▁고생하는	-9233
▁공유하여	-9234
▁공정선거	-9235
▁과반수의	-9236
▁근로감독	-9237
▁기본급에	-9238
▁기술지원	-9239
▁노조활동	-9240
▁대응해야	-9241
▁도전하는	-9242
▁리소스를	-9243
▁만족하지	-9244
▁많아지고	-9245
▁말씀주신	-9246
▁못하도록	-9247
▁바라보고	-9248
▁방해하는	-9249
▁변경으로	-9250
▁보궐선거	-9251
▁분께서는	-9252
▁불편하게	-9253
▁성공적인	-9254
▁아니라서	-9255
▁외부사업	-9256
▁원천기술	-9257
▁원하시는	-9258
▁이름으로	-9259
▁이야기는	-9260
▁인력충원	-9261
▁있는지요	-9262
▁적용하고	-9263
▁전문가를	-9264
▁점심시간	-9265
▁정년퇴직	-9266
▁제공하고	-9267
▁주도적인	-9268
▁주말근무	-9269
▁주어지는	-9270
▁지급해야	-9271
▁집착하는	-9272
▁책임지고	-9273
▁취사선택	-9274
▁팀장님께	-9275
▁판단하여	-9276
▁판단하지	-9277
▁평가기준	-9278
▁필요할것	-9279
▁하시는데	-9280
▁하시는지	-9281
▁합니다만	-9282
▁확인하여	-9283
▁asset	-9284
▁break	-9285
▁focus	-9286
▁share	-9287
▁small	-9288
▁가능하다고	-9289
▁고맙습니다	-9290
▁그러다보니	-9291
▁근로수당이	-9292
▁내용적으로	-9293
▁리더로서의	-9294
▁명확한업무	-9295
▁반복적으로	-9296
▁보냈습니다	-9297
▁사용하시는	-9298
▁선거운동을	-9299
▁업무에대한	-9300
▁업무적으로	-9301
▁여쭤봅니다	-9302
▁올려봅니다	-9303
▁외부환경에	-9304
▁유심포니를	-9305
▁이유만으로	-9306
▁있습니다만	-9307
▁전자투표를	-9308
▁조직분위기	-9309
▁차원에서의	-9310
▁체계적이고	-9311
▁포함되어야	-9312
▁프로젝트는	-9313
▁필요하다면	-9314
▁citrix	-9315
▁구성원의역량	-9316
▁근로자위원을	-9317
▁급여체계변경	-9318
▁하이닉스에서	-9319
▁special	-9320
▁talking	-9321
▁신속한의사결정	-9322
▁digitaltransformation	-9323
25	-9324
79	-9325
to	-9326
▁%	-9327
▁덧	-9328
▁돕	-9329
▁칼	-9330
▁팽	-9331
가락	-9332
건가	-9333
고민	-9334
고한	-9335
교체	-9336
금이	-9337
년째	-9338
높은	-9339
담이	-9340
되나	-9341
든가	-9342
력에	-9343
무가	-9344
법에	-9345
보이	-9346
액을	-9347
양이	-9348
연결	-9349
올라	-9350
우지	-9351
임원	-9352
장과	-9353
제안	-9354
졌음	-9355
조의	-9356
중간	-9357
추가	-9358
충분	-9359
터디	-9360
파견	-9361
함은	-9362
해본	-9363
후에	-9364
휠체	-9365
희망	-9366
히지	-9367
ick	-9368
out	-9369
▁90	-9370
▁fr	-9371
▁wi	-9372
▁겨우	-9373
▁결제	-9374
▁고급	-9375
▁고유	-9376
▁공론	-9377
▁군요	-9378
▁기한	-9379
▁남을	-9380
▁내내	-9381
▁내세	-9382
▁높음	-9383
▁답글	-9384
▁동반	-9385
▁되니	-9386
▁되야	-9387
▁라이	-9388
▁라커	-9389
▁맞고	-9390
▁맞죠	-9391
▁매주	-9392
▁먹을	-9393
▁메인	-9394
▁몰두	-9395
▁문구	-9396
▁미국	-9397
▁미달	-9398
▁바꾼	-9399
▁반발	-9400
▁방침	-9401
▁법규	-9402
▁비가	-9403
▁비춰	-9404
▁상단	-9405
▁상용	-9406
▁상의	-9407
▁생성	-9408
▁서명	-9409
▁선동	-9410
▁설령	-9411
▁소매	-9412
▁소정	-9413
▁수치	-9414
▁싶을	-9415
▁안가	-9416
▁에는	-9417
▁여행	-9418
▁완수	-9419
▁우산	-9420
▁유선	-9421
▁인격	-9422
▁인색	-9423
▁일당	-9424
▁임무	-9425
▁입고	-9426
▁입구	-9427
▁직설	-9428
▁출구	-9429
▁캡쳐	-9430
▁커서	-9431
▁코딩	-9432
▁톡톡	-9433
▁파는	-9434
▁파워	-9435
▁편이	-9436
▁해오	-9437
▁획일	-9438
개인의	-9439
관리에	-9440
내재화	-9441
년부터	-9442
는지도	-9443
는지요	-9444
대화를	-9445
두려워	-9446
들간의	-9447
등으로	-9448
렸으면	-9449
목표에	-9450
부서와	-9451
비용이	-9452
수준이	-9453
시는지	-9454
시에는	-9455
운영에	-9456
원활한	-9457
인에게	-9458
인지도	-9459
전문성	-9460
정도로	-9461
주일에	-9462
컴퓨터	-9463
ding	-9464
ecur	-9465
▁199	-9466
▁400	-9467
▁one	-9468
▁per	-9469
▁wlb	-9470
▁가까이	-9471
▁가족과	-9472
▁간단히	-9473
▁갔으면	-9474
▁개발할	-9475
▁거라면	-9476
▁격려와	-9477
▁고생이	-9478
▁고연차	-9479
▁관심도	-9480
▁구조는	-9481
▁그들이	-9482
▁급여가	-9483
▁넘어가	-9484
▁노력에	-9485
▁노조에	-9486
▁다르고	-9487
▁다음에	-9488
▁달성할	-9489
▁대우를	-9490
▁더많은	-9491
▁도서관	-9492
▁되는게	-9493
▁리더를	-9494
▁마우스	-9495
▁말라는	-9496
▁명시된	-9497
▁몰라서	-9498
▁바꾸는	-9499
▁반영된	-9500
▁발전이	-9501
▁방식과	-9502
▁법에서	-9503
▁법원의	-9504
▁본사의	-9505
▁본인만	-9506
▁부모님	-9507
▁부문이	-9508
▁분배가	-9509
▁사실은	-9510
▁서명을	-9511
▁설정이	-9512
▁성장과	-9513
▁스터디	-9514
▁시급한	-9515
▁신청은	-9516
▁싶기도	-9517
▁아닌것	-9518
▁않았을	-9519
▁않은데	-9520
▁억지로	-9521
▁업무별	-9522
▁연말에	-9523
▁예산이	-9524
▁오래된	-9525
▁요구에	-9526
▁운영자	-9527
▁육성과	-9528
▁의견의	-9529
▁인정을	-9530
▁잃어버	-9531
▁자부심	-9532
▁작성한	-9533
▁정리해	-9534
▁정무적	-9535
▁정책은	-9536
▁제시와	-9537
▁조정을	-9538
▁좋아질	-9539
▁주장할	-9540
▁준비를	-9541
▁지금과	-9542
▁지장이	-9543
▁지정된	-9544
▁지켜야	-9545
▁지하철	-9546
▁챙겨야	-9547
▁충원이	-9548
▁키워드	-9549
▁투자에	-9550
▁트래픽	-9551
▁판교역	-9552
▁하니까	-9553
▁하자고	-9554
▁학자금	-9555
▁해놓고	-9556
▁현실이	-9557
▁현재와	-9558
구성원과	-9559
만원으로	-9560
시스템의	-9561
인건가요	-9562
해보세요	-9563
ollab	-9564
▁fail	-9565
▁help	-9566
▁검토하고	-9567
▁근로자를	-9568
▁근로자에	-9569
▁끊임없이	-9570
▁내년에는	-9571
▁담당자의	-9572
▁드라이브	-9573
▁들어오면	-9574
▁들어주는	-9575
▁마음가짐	-9576
▁목소리가	-9577
▁문제점이	-9578
▁발생하면	-9579
▁변경관리	-9580
▁부서와의	-9581
▁비례하여	-9582
▁사업으로	-9583
▁상여금이	-9584
▁상황으로	-9585
▁상황이라	-9586
▁생각하게	-9587
▁선거무효	-9588
▁선거제도	-9589
▁성과평가	-9590
▁수립하고	-9591
▁수행으로	-9592
▁승진제도	-9593
▁승진하는	-9594
▁시도하고	-9595
▁어디에도	-9596
▁업무순환	-9597
▁역량육성	-9598
▁운영위원	-9599
▁위배되는	-9600
▁위촉하는	-9601
▁유연하고	-9602
▁이제까지	-9603
▁인공지능	-9604
▁인력구조	-9605
▁인력들의	-9606
▁인정하지	-9607
▁있었으나	-9608
▁적습니다	-9609
▁전문성이	-9610
▁전사에서	-9611
▁정당하게	-9612
▁좋겠지만	-9613
▁주민번호	-9614
▁지원부서	-9615
▁직장생활	-9616
▁진행하면	-9617
▁집중해서	-9618
▁참여하는	-9619
▁참여하여	-9620
▁초과하여	-9621
▁팀에서는	-9622
▁판교에서	-9623
▁판단하기	-9624
▁하다보면	-9625
▁해달라고	-9626
▁해주시는	-9627
▁혁신이야	-9628
▁활용도가	-9629
▁활용하지	-9630
ancing	-9631
▁agent	-9632
▁smart	-9633
▁결론적으로	-9634
▁공유합니다	-9635
▁관련부서의	-9636
▁기술적으로	-9637
▁기업문화를	-9638
▁남겨봅니다	-9639
▁답답하네요	-9640
▁모르겠는데	-9641
▁선행되어야	-9642
▁인정해주는	-9643
▁자기계발비	-9644
▁지속적이고	-9645
▁직책자들의	-9646
▁필요하다는	-9647
▁하더라구요	-9648
혁신팀입니다	-9649
ecurity	-9650
olution	-9651
▁cloudz	-9652
▁detail	-9653
▁담당자입니다	-9654
▁생각하시나요	-9655
▁선거운동기간	-9656
▁신기술에대한	-9657
▁알려드립니다	-9658
▁우리회사에서	-9659
▁팀원들에대한	-9660
▁포괄임금제는	-9661
▁회사차원에서	-9662
▁roadmap	-9663
▁단호한의사결정	-9664
▁선거관리위원회는	-9665
,6	-9666
28	-9667
37	-9668
py	-9669
▁류	-9670
▁쾌	-9671
▁톨	-9672
▁펼	-9673
거는	-9674
게도	-9675
고가	-9676
관이	-9677
교환	-9678
구장	-9679
그렇	-9680
기적	-9681
기지	-9682
나가	-9683
노총	-9684
다시	-9685
리어	-9686
리오	-9687
면의	-9688
모두	-9689
못한	-9690
밀히	-9691
상시	-9692
선도	-9693
스북	-9694
시장	-9695
신규	-9696
쓰는	-9697
어려	-9698
업을	-9699
연사	-9700
열티	-9701
였음	-9702
예요	-9703
이게	-9704
인증	-9705
인해	-9706
있지	-9707
잡고	-9708
저하	-9709
접속	-9710
종오	-9711
주에	-9712
지와	-9713
진단	-9714
체가	-9715
초청	-9716
터를	-9717
통에	-9718
투스	-9719
트롤	-9720
포함	-9721
하심	-9722
협상	-9723
회피	-9724
히고	-9725
eal	-9726
put	-9727
▁2,	-9728
▁sc	-9729
▁감동	-9730
▁강구	-9731
▁강의	-9732
▁갖게	-9733
▁갖는	-9734
▁개척	-9735
▁걸린	-9736
▁관료	-9737
▁구입	-9738
▁근간	-9739
▁기각	-9740
▁깜짝	-9741
▁깨달	-9742
▁끌고	-9743
▁끝났	-9744
▁낙선	-9745
▁난방	-9746
▁내린	-9747
▁내선	-9748
▁느낍	-9749
▁님의	-9750
▁더해	-9751
▁동향	-9752
▁되서	-9753
▁땅을	-9754
▁떠오	-9755
▁뚜껑	-9756
▁뜻이	-9757
▁루머	-9758
▁마냥	-9759
▁말해	-9760
▁모집	-9761
▁묻고	-9762
▁물건	-9763
▁믿음	-9764
▁바가	-9765
▁바보	-9766
▁배부	-9767
▁본선	-9768
▁분과	-9769
▁분을	-9770
▁뽑는	-9771
▁사랑	-9772
▁사익	-9773
▁사적	-9774
▁상주	-9775
▁설립	-9776
▁순수	-9777
▁실물	-9778
▁쓰면	-9779
▁안목	-9780
▁안주	-9781
▁앉을	-9782
▁어긋	-9783
▁얻기	-9784
▁오용	-9785
▁온도	-9786
▁와이	-9787
▁이리	-9788
▁이수	-9789
▁일임	-9790
▁자는	-9791
▁잠금	-9792
▁적기	-9793
▁져야	-9794
▁조속	-9795
▁주당	-9796
▁쪼개	-9797
▁쪽지	-9798
▁차가	-9799
▁최악	-9800
▁컬러	-9801
▁코카	-9802
▁토의	-9803
▁통과	-9804
▁투쟁	-9805
▁팽배	-9806
▁포커	-9807
▁표출	-9808
▁프리	-9809
▁학교	-9810
▁해고	-9811
▁해본	-9812
▁호흡	-9813
▁획정	-9814
▁흘러	-9815
거리를	-9816
거에요	-9817
고객사	-9818
기업의	-9819
기에는	-9820
나네요	-9821
년에는	-9822
년이상	-9823
되기를	-9824
되었다	-9825
되지는	-9826
디지털	-9827
부분에	-9828
부서간	-9829
분야의	-9830
상황을	-9831
시간과	-9832
시기를	-9833
시부터	-9834
시적인	-9835
신기술	-9836
신다면	-9837
에따른	-9838
영역에	-9839
의사를	-9840
의식을	-9841
이나마	-9842
장님의	-9843
주시길	-9844
줍니다	-9845
처리가	-9846
팀장의	-9847
평가와	-9848
해보니	-9849
3676	-9850
▁700	-9851
▁80%	-9852
▁skc	-9853
▁xxx	-9854
▁가져가	-9855
▁같다고	-9856
▁같지는	-9857
▁개입을	-9858
▁것이니	-9859
▁경력직	-9860
▁계정을	-9861
▁고도화	-9862
▁고민은	-9863
▁곳으로	-9864
▁공명정	-9865
▁관계자	-9866
▁그런가	-9867
▁그룹내	-9868
▁기준도	-9869
▁기준은	-9870
▁나누고	-9871
▁내부의	-9872
▁냄새가	-9873
▁노력해	-9874
▁논란이	-9875
▁누구도	-9876
▁느리고	-9877
▁다른데	-9878
▁답답한	-9879
▁대답을	-9880
▁댓글이	-9881
▁동의서	-9882
▁되었던	-9883
▁두가지	-9884
▁로열티	-9885
▁리더와	-9886
▁만들면	-9887
▁많으신	-9888
▁말고도	-9889
▁매출을	-9890
▁못했던	-9891
▁무거운	-9892
▁문제라	-9893
▁뭘까요	-9894
▁바닥에	-9895
▁반영할	-9896
▁발전과	-9897
▁범위를	-9898
▁변형된	-9899
▁보네요	-9900
▁보시기	-9901
▁본질을	-9902
▁봤는데	-9903
▁분석을	-9904
▁불확실	-9905
▁상당한	-9906
▁생태계	-9907
▁설문을	-9908
▁성격의	-9909
▁성과도	-9910
▁성과만	-9911
▁세번째	-9912
▁소요됨	-9913
▁속도를	-9914
▁시급함	-9915
▁시도와	-9916
▁실무를	-9917
▁실수로	-9918
▁아래의	-9919
▁아무나	-9920
▁아이템	-9921
▁안내를	-9922
▁안해도	-9923
▁않았던	-9924
▁양방향	-9925
▁어느날	-9926
▁영수증	-9927
▁오전에	-9928
▁옳다고	-9929
▁용기를	-9930
▁워라밸	-9931
▁원거리	-9932
▁원인이	-9933
▁월요일	-9934
▁위원회	-9935
▁유가족	-9936
▁의도를	-9937
▁의문을	-9938
▁이것을	-9939
▁이동할	-9940
▁이용해	-9941
▁이후의	-9942
▁자리로	-9943
▁장기간	-9944
▁장애인	-9945
▁적용을	-9946
▁전략의	-9947
▁절차와	-9948
▁정년퇴	-9949
▁제고를	-9950
▁제보를	-9951
▁제한이	-9952
▁조정이	-9953
▁좋아서	-9954
▁좋아요	-9955
▁좋아진	-9956
▁좋았음	-9957
▁증거가	-9958
▁직원에	-9959
▁진급을	-9960
▁챙기는	-9961
▁처음에	-9962
▁치열한	-9963
▁친분이	-9964
▁칭찬과	-9965
▁타시는	-9966
▁태도가	-9967
▁판례의	-9968
▁평가시	-9969
▁품질을	-9970
▁하기에	-9971
▁혁신과	-9972
▁협력이	-9973
▁휴가는	-9974
되었는데	-9975
사업본부	-9976
에대해서	-9977
왔습니다	-9978
해야한다	-9979
▁200%	-9980
▁push	-9981
▁가능하고	-9982
▁강조하고	-9983
▁같아서요	-9984
▁개인역량	-9985
▁검토하여	-9986
▁게시판의	-9987
▁경청하고	-9988
▁고려해야	-9989
▁관리자가	-9990
▁교육시간	-9991
▁교육참여	-9992
▁궁금한게	-9993
▁근로자와	-9994
▁기자회견	-9995
▁기존에는	-9996
▁너무많은	-9997
▁느낍니다	-9998
▁다양하게	-9999
▁담당자를	-10000
▁대표자와	-10001
▁데이터를	-10002
▁되시나요	-10003
▁되었는데	-10004
▁리프레쉬	-10005
▁목소리에	-10006
▁목표설정	-10007
▁무언가를	-10008
▁반영하지	-10009
▁발생하지	-10010
▁방지하기	-10011
▁법적으로	-10012
▁변경하는	-10013
▁변화하고	-10014
▁보험회사	-10015
▁본인들이	-10016
▁분석하고	-10017
▁산정하여	-10018
▁생각에는	-10019
▁설정하고	-10020
▁소요되는	-10021
▁솔직하게	-10022
▁시장에서	-10023
▁쓸데없는	-10024
▁아쉽네요	-10025
▁않으면서	-10026
▁어렵지만	-10027
▁없어져야	-10028
▁올라오고	-10029
▁요청하는	-10030
▁유도하는	-10031
▁유연근무	-10032
▁육아휴직	-10033
▁의견들이	-10034
▁의구심을	-10035
▁이해도를	-10036
▁인지하지	-10037
▁일이라고	-10038
▁있는지는	-10039
▁있었다는	-10040
▁정보보안	-10041
▁조합활동	-10042
▁처리하고	-10043
▁초과하는	-10044
▁추진해야	-10045
▁컨퍼런스	-10046
▁코카콜라	-10047
▁투명하고	-10048
▁페이스북	-10049
▁포인트를	-10050
▁필요한지	-10051
▁허위사실	-10052
▁확보해야	-10053
▁활동으로	-10054
▁회사에는	-10055
▁회의문화	-10056
▁후보자격	-10057
구성원위원	-10058
컴퓨터통신	-10059
▁#3676	-10060
▁18:00	-10061
▁learn	-10062
▁local	-10063
▁가이드라인	-10064
▁구성원들께	-10065
▁근무수당이	-10066
▁놀랐습니다	-10067
▁되는건가요	-10068
▁따름입니다	-10069
▁많으십니다	-10070
▁무효입니다	-10071
▁발생합니다	-10072
▁법정수당을	-10073
▁복리후생비	-10074
▁사료됩니다	-10075
▁스트레스를	-10076
▁신성장사업	-10077
▁알려주시면	-10078
▁요구사항을	-10079
▁자율근무제	-10080
▁절대적으로	-10081
▁정상적으로	-10082
▁조심스럽게	-10083
▁종합적으로	-10084
▁창립기념일	-10085
▁팀원에대한	-10086
▁판단입니다	-10087
▁해야한다고	-10088
▁협업을위한	-10089
▁회사차원의	-10090
▁구성원들간의	-10091
▁구성원위원은	-10092
▁기획팀입니다	-10093
▁습득하였으니	-10094
▁실패를두려워	-10095
14	-10096
ey	-10097
po	-10098
pr	-10099
te	-10100
▁값	-10101
▁램	-10102
▁잣	-10103
▁젖	-10104
▁줬	-10105
▁험	-10106
강조	-10107
강한	-10108
건강	-10109
계가	-10110
공격	-10111
교류	-10112
기면	-10113
나갈	-10114
년전	-10115
단을	-10116
대리	-10117
되야	-10118
러한	-10119
률을	-10120
많고	-10121
모듈	-10122
몰입	-10123
바지	-10124
받게	-10125
사이	-10126
사회	-10127
선의	-10128
성의	-10129
수강	-10130
스는	-10131
시작	-10132
안의	-10133
았고	-10134
어떤	-10135
와도	-10136
이자	-10137
인줄	-10138
일까	-10139
전반	-10140
중시	-10141
지금	-10142
차에	-10143
통해	-10144
특히	-10145
팀을	-10146
하냐	-10147
학교	-10148
형식	-10149
호텔	-10150
fer	-10151
ink	-10152
▁ar	-10153
▁간담	-10154
▁간절	-10155
▁감내	-10156
▁갔다	-10157
▁갖다	-10158
▁건설	-10159
▁견해	-10160
▁결속	-10161
▁경조	-10162
▁계층	-10163
▁고마	-10164
▁고착	-10165
▁공짜	-10166
▁글도	-10167
▁금주	-10168
▁기관	-10169
▁깊게	-10170
▁깔끔	-10171
▁꺼내	-10172
▁내어	-10173
▁내의	-10174
▁느꼈	-10175
▁님이	-10176
▁돌리	-10177
▁되겠	-10178
▁뒤쳐	-10179
▁든다	-10180
▁듣기	-10181
▁때의	-10182
▁막는	-10183
▁막을	-10184
▁만남	-10185
▁명의	-10186
▁명이	-10187
▁몇명	-10188
▁무겁	-10189
▁무척	-10190
▁뭐다	-10191
▁배가	-10192
▁배상	-10193
▁배울	-10194
▁병원	-10195
▁복도	-10196
▁분류	-10197
▁붙어	-10198
▁비닐	-10199
▁빠져	-10200
▁뽑아	-10201
▁삶을	-10202
▁선점	-10203
▁센터	-10204
▁소팀	-10205
▁속에	-10206
▁속한	-10207
▁손에	-10208
▁수요	-10209
▁실정	-10210
▁아실	-10211
▁없던	-10212
▁염려	-10213
▁예비	-10214
▁외치	-10215
▁월차	-10216
▁위기	-10217
▁이글	-10218
▁이득	-10219
▁이른	-10220
▁인건	-10221
▁인것	-10222
▁자칫	-10223
▁적법	-10224
▁적폐	-10225
▁전결	-10226
▁점유	-10227
▁정답	-10228
▁조만	-10229
▁주소	-10230
▁준다	-10231
▁지쳐	-10232
▁크기	-10233
▁평준	-10234
▁해요	-10235
▁했음	-10236
▁헌신	-10237
▁혹여	-10238
▁화합	-10239
경쟁력	-10240
내용에	-10241
답니다	-10242
대하여	-10243
되었을	-10244
드리는	-10245
라이언	-10246
만큼은	-10247
분께서	-10248
스러울	-10249
심하게	-10250
었는지	-10251
자리에	-10252
자체를	-10253
지거나	-10254
지지도	-10255
특성에	-10256
피스로	-10257
하느냐	-10258
하셔야	-10259
해보는	-10260
해야지	-10261
arch	-10262
▁all	-10263
▁gro	-10264
▁usb	-10265
▁각자가	-10266
▁감정을	-10267
▁감정이	-10268
▁같고요	-10269
▁같지만	-10270
▁개선된	-10271
▁결과물	-10272
▁경험도	-10273
▁경험에	-10274
▁고생한	-10275
▁과중한	-10276
▁권리는	-10277
▁그러다	-10278
▁그정도	-10279
▁급급한	-10280
▁기계식	-10281
▁기대가	-10282
▁기사가	-10283
▁기회도	-10284
▁나이가	-10285
▁늘어난	-10286
▁다시는	-10287
▁단기간	-10288
▁단점이	-10289
▁달라질	-10290
▁대단히	-10291
▁대학원	-10292
▁댓글은	-10293
▁더더욱	-10294
▁도입이	-10295
▁도전과	-10296
▁됐으면	-10297
▁되풀이	-10298
▁마련이	-10299
▁목표의	-10300
▁문의가	-10301
▁문제인	-10302
▁뭐하는	-10303
▁뭔가를	-10304
▁밖에는	-10305
▁방향은	-10306
▁배려와	-10307
▁버스가	-10308
▁보고에	-10309
▁보내면	-10310
▁보는게	-10311
▁보려고	-10312
▁보이나	-10313
▁부드러	-10314
▁부서를	-10315
▁불투명	-10316
▁비교적	-10317
▁비중이	-10318
▁생각의	-10319
▁서로가	-10320
▁선출할	-10321
▁설정과	-10322
▁성향에	-10323
▁손해를	-10324
▁수립과	-10325
▁수정을	-10326
▁수준에	-10327
▁수준은	-10328
▁수행시	-10329
▁실수를	-10330
▁심의를	-10331
▁싸이트	-10332
▁씁니다	-10333
▁안하면	-10334
▁않는데	-10335
▁알파코	-10336
▁어떤지	-10337
▁없애야	-10338
▁에어컨	-10339
▁역할의	-10340
▁위법한	-10341
▁위치가	-10342
▁위치에	-10343
▁의도는	-10344
▁의도에	-10345
▁이용을	-10346
▁인수인	-10347
▁인식을	-10348
▁있구요	-10349
▁있는듯	-10350
▁자료는	-10351
▁잘못을	-10352
▁저직급	-10353
▁전달할	-10354
▁전에는	-10355
▁전화가	-10356
▁점에서	-10357
▁정도만	-10358
▁정보의	-10359
▁정책의	-10360
▁제도화	-10361
▁제한된	-10362
▁주도적	-10363
▁주장에	-10364
▁중에는	-10365
▁지키지	-10366
▁질문에	-10367
▁차이는	-10368
▁참여와	-10369
▁책상에	-10370
▁추진해	-10371
▁출근을	-10372
▁취약점	-10373
▁치우쳐	-10374
▁카드를	-10375
▁퇴사를	-10376
▁투표에	-10377
▁특화된	-10378
▁팀간의	-10379
▁판결에	-10380
▁포용력	-10381
▁하나가	-10382
▁하나씩	-10383
▁하도급	-10384
▁하시기	-10385
▁하였다	-10386
▁한사람	-10387
▁합니까	-10388
▁해주고	-10389
▁현실과	-10390
▁회원가	-10391
▁휴가로	-10392
▁휴일에	-10393
같습니다	-10394
되었으며	-10395
비즈니스	-10396
조직구조	-10397
해주셔서	-10398
회사에서	-10399
enter	-10400
omain	-10401
▁cons	-10402
▁skcc	-10403
▁가능하지	-10404
▁가능한지	-10405
▁것보다는	-10406
▁경영층과	-10407
▁고려해서	-10408
▁관리자의	-10409
▁교육과정	-10410
▁그러네요	-10411
▁그런건지	-10412
▁기다려야	-10413
▁기다려주	-10414
▁기대하는	-10415
▁단기간의	-10416
▁단체교섭	-10417
▁담당하고	-10418
▁디테일한	-10419
▁만들어진	-10420
▁바쁘셔서	-10421
▁범위에서	-10422
▁벤치마킹	-10423
▁보고자료	-10424
▁부여하고	-10425
▁부정선거	-10426
▁블루투스	-10427
▁사람으로	-10428
▁사무환경	-10429
▁사물함이	-10430
▁상대방을	-10431
▁생각되는	-10432
▁소정근로	-10433
▁시작하는	-10434
▁시작했다	-10435
▁신사업에	-10436
▁신청하는	-10437
▁어려움에	-10438
▁업무량을	-10439
▁업무에서	-10440
▁왔다갔다	-10441
▁이뤄지지	-10442
▁이야기도	-10443
▁인간적인	-10444
▁일사부재	-10445
▁일어나는	-10446
▁임원들의	-10447
▁입후보자	-10448
▁있겠네요	-10449
▁적용하는	-10450
▁적용하여	-10451
▁전적으로	-10452
▁정기회의	-10453
▁정의하고	-10454
▁제조부문	-10455
▁조직구성	-10456
▁좋아하는	-10457
▁처음으로	-10458
▁친절하게	-10459
▁투자하고	-10460
▁트레이너	-10461
▁트렌드를	-10462
▁평균하여	-10463
▁하는건지	-10464
▁해당사항	-10465
▁해야한다	-10466
▁해줬으면	-10467
▁협업하는	-10468
▁활용하면	-10469
▁휴가사용	-10470
감사합니다	-10471
▁agile	-10472
▁great	-10473
▁건강관리에	-10474
▁공개적으로	-10475
▁근무시간에	-10476
▁근무시간이	-10477
▁근무하시는	-10478
▁논리적으로	-10479
▁느낌입니다	-10480
▁능동적으로	-10481
▁데이터센터	-10482
▁불필요하게	-10483
▁사업조직의	-10484
▁사용자위원	-10485
▁사이트근무	-10486
▁선택과집중	-10487
▁실패에대한	-10488
▁올렸습니다	-10489
▁유심포니가	-10490
▁의사소통이	-10491
▁제외하고는	-10492
▁조직개편이	-10493
▁존재한다고	-10494
▁직책자들이	-10495
▁진행되어야	-10496
▁진행하도록	-10497
refresh	-10498
▁collab	-10499
▁개선되었으면	-10500
▁말씀드립니다	-10501
▁문의드립니다	-10502
▁중간관리자의	-10503
▁프로젝트에서	-10504
▁billing	-10505
▁business	-10506
▁solution	-10507
▁coordination	-10508
de	-10509
sm	-10510
sp	-10511
ᄃᄃ	-10512
▁ᄆ	-10513
▁☞	-10514
▁꼴	-10515
▁떨	-10516
▁룰	-10517
▁빵	-10518
▁삽	-10519
▁엉	-10520
▁옹	-10521
▁쭉	-10522
▁찌	-10523
▁케	-10524
▁쿨	-10525
간다	-10526
감각	-10527
개는	-10528
계신	-10529
고려	-10530
내가	-10531
년은	-10532
노사	-10533
대해	-10534
데로	-10535
들고	-10536
량이	-10537
려니	-10538
로도	-10539
마자	-10540
말은	-10541
먼저	-10542
면담	-10543
문을	-10544
받기	-10545
벤처	-10546
보기	-10547
보수	-10548
보여	-10549
보유	-10550
분별	-10551
비해	-10552
산화	-10553
상대	-10554
석을	-10555
성격	-10556
실천	-10557
약한	-10558
언제	-10559
연말	-10560
와야	-10561
용품	-10562
워드	-10563
원칙	-10564
으론	-10565
의치	-10566
절감	-10567
접근	-10568
정리	-10569
정성	-10570
제고	-10571
제는	-10572
중히	-10573
증이	-10574
직군	-10575
직위	-10576
직접	-10577
차선	-10578
쿠폰	-10579
클리	-10580
키는	-10581
행복	-10582
309	-10583
:25	-10584
eck	-10585
lex	-10586
▁4,	-10587
▁rp	-10588
▁가급	-10589
▁가득	-10590
▁가속	-10591
▁가슴	-10592
▁간접	-10593
▁갈등	-10594
▁갑작	-10595
▁거듭	-10596
▁검사	-10597
▁경중	-10598
▁고수	-10599
▁고통	-10600
▁공장	-10601
▁군대	-10602
▁궁극	-10603
▁균등	-10604
▁그다	-10605
▁그려	-10606
▁그외	-10607
▁기념	-10608
▁긴장	-10609
▁김병	-10610
▁끝날	-10611
▁나뉘	-10612
▁난리	-10613
▁내로	-10614
▁느리	-10615
▁단결	-10616
▁단일	-10617
▁대립	-10618
▁대접	-10619
▁되죠	-10620
▁두개	-10621
▁두지	-10622
▁드림	-10623
▁들게	-10624
▁듯이	-10625
▁등장	-10626
▁따르	-10627
▁뛰어	-10628
▁띄워	-10629
▁마을	-10630
▁만이	-10631
▁말한	-10632
▁맞아	-10633
▁매도	-10634
▁매진	-10635
▁먹는	-10636
▁명분	-10637
▁몇개	-10638
▁몇달	-10639
▁모으	-10640
▁몰려	-10641
▁무선	-10642
▁묵살	-10643
▁밀고	-10644
▁반론	-10645
▁밸런	-10646
▁번째	-10647
▁법이	-10648
▁불행	-10649
▁비록	-10650
▁빨라	-10651
▁빼고	-10652
▁뻔히	-10653
▁서포	-10654
▁성남	-10655
▁소음	-10656
▁손익	-10657
▁수면	-10658
▁슬로	-10659
▁싫은	-10660
▁심기	-10661
▁쓰게	-10662
▁아까	-10663
▁어깨	-10664
▁언젠	-10665
▁없앴	-10666
▁옮기	-10667
▁외면	-10668
▁우대	-10669
▁위함	-10670
▁유독	-10671
▁의아	-10672
▁이력	-10673
▁일상	-10674
▁자로	-10675
▁장단	-10676
▁재고	-10677
▁적고	-10678
▁전입	-10679
▁접촉	-10680
▁조급	-10681
▁중국	-10682
▁즉각	-10683
▁즐겁	-10684
▁지겹	-10685
▁직사	-10686
▁진술	-10687
▁진지	-10688
▁책정	-10689
▁청주	-10690
▁초반	-10691
▁출산	-10692
▁치고	-10693
▁치면	-10694
▁커녕	-10695
▁컬쳐	-10696
▁컴플	-10697
▁호소	-10698
▁회람	-10699
과감한	-10700
규모가	-10701
규정에	-10702
기준이	-10703
다라고	-10704
단위의	-10705
떨어진	-10706
리라고	-10707
면으로	-10708
보세요	-10709
빠르게	-10710
사업이	-10711
상여금	-10712
셨는데	-10713
소리로	-10714
스럽다	-10715
여부를	-10716
원하는	-10717
을위한	-10718
의경우	-10719
절차를	-10720
조직을	-10721
조치를	-10722
지향적	-10723
평가에	-10724
하기를	-10725
하듯이	-10726
현상이	-10727
환경을	-10728
휴가가	-10729
date	-10730
▁def	-10731
▁eng	-10732
▁rel	-10733
▁가려는	-10734
▁가벼운	-10735
▁가져다	-10736
▁강도가	-10737
▁강하고	-10738
▁강화에	-10739
▁갖추어	-10740
▁같으나	-10741
▁개선은	-10742
▁개인과	-10743
▁거기서	-10744
▁격려를	-10745
▁계시고	-10746
▁고민할	-10747
▁공간에	-10748
▁과반수	-10749
▁과제가	-10750
▁관계에	-10751
▁교체가	-10752
▁균형을	-10753
▁근거한	-10754
▁기업을	-10755
▁넘기는	-10756
▁노력도	-10757
▁뉴스레	-10758
▁느끼기	-10759
▁느려서	-10760
▁느려요	-10761
▁다음날	-10762
▁당시에	-10763
▁대의원	-10764
▁대체로	-10765
▁대화의	-10766
▁댓글로	-10767
▁도전에	-10768
▁도전이	-10769
▁돌려주	-10770
▁동의할	-10771
▁되기를	-10772
▁등급을	-10773
▁라디오	-10774
▁리딩이	-10775
▁막연한	-10776
▁많았던	-10777
▁매출과	-10778
▁메뉴가	-10779
▁모두를	-10780
▁못하니	-10781
▁못하여	-10782
▁무관한	-10783
▁무의미	-10784
▁반영해	-10785
▁발굴에	-10786
▁발언을	-10787
▁보상도	-10788
▁보안요	-10789
▁본사나	-10790
▁부끄럽	-10791
▁부분과	-10792
▁부여를	-10793
▁비해서	-10794
▁사라졌	-10795
▁사라진	-10796
▁사실과	-10797
▁사일로	-10798
▁서로를	-10799
▁선출된	-10800
▁설치를	-10801
▁소모임	-10802
▁소중한	-10803
▁스타일	-10804
▁승진이	-10805
▁시키고	-10806
▁싶으면	-10807
▁싶지만	-10808
▁아니기	-10809
▁아니니	-10810
▁아래에	-10811
▁아무튼	-10812
▁아이가	-10813
▁않았고	-10814
▁어도비	-10815
▁어이가	-10816
▁언제든	-10817
▁없는것	-10818
▁없었고	-10819
▁올리면	-10820
▁욕심이	-10821
▁운영은	-10822
▁워라벨	-10823
▁워크샵	-10824
▁위임을	-10825
▁이것은	-10826
▁인상이	-10827
▁인원을	-10828
▁인정한	-10829
▁일정한	-10830
▁일하면	-10831
▁입사자	-10832
▁있으시	-10833
▁있을거	-10834
▁있지요	-10835
▁자리는	-10836
▁자리도	-10837
▁잘되고	-10838
▁저평가	-10839
▁전반에	-10840
▁접근을	-10841
▁정기적	-10842
▁정리가	-10843
▁정보는	-10844
▁제보자	-10845
▁주장한	-10846
▁준비할	-10847
▁중이며	-10848
▁지식을	-10849
▁지원할	-10850
▁차장님	-10851
▁참석자	-10852
▁창의성	-10853
▁책임질	-10854
▁취지가	-10855
▁친절히	-10856
▁키우는	-10857
▁텔레콤	-10858
▁토대로	-10859
▁투자할	-10860
▁팀과의	-10861
▁판단함	-10862
▁판례를	-10863
▁편하고	-10864
▁하느냐	-10865
▁하므로	-10866
▁하시죠	-10867
▁한계를	-10868
▁항목을	-10869
▁해결될	-10870
▁핵심은	-10871
▁했다면	-10872
▁행사가	-10873
▁효율을	-10874
게시판에	-10875
계정관리	-10876
기적으로	-10877
대체휴무	-10878
럽습니다	-10879
만으로도	-10880
장기적인	-10881
주시거나	-10882
하여서는	-10883
해봅니다	-10884
iling	-10885
imacy	-10886
▁2009	-10887
▁hisk	-10888
▁page	-10889
▁가능하며	-10890
▁간편하게	-10891
▁개발하고	-10892
▁개선하는	-10893
▁것인지에	-10894
▁것일까요	-10895
▁결정하는	-10896
▁고려하는	-10897
▁공격적인	-10898
▁공동목표	-10899
▁공유되고	-10900
▁관리하기	-10901
▁근무자에	-10902
▁기준급의	-10903
▁기회조차	-10904
▁내려오는	-10905
▁내부에서	-10906
▁내용인지	-10907
▁너무나도	-10908
▁누군가는	-10909
▁느껴지는	-10910
▁늘어나는	-10911
▁능동적인	-10912
▁단기간에	-10913
▁달라지는	-10914
▁대변하는	-10915
▁댓글부대	-10916
▁독단적인	-10917
▁동의하는	-10918
▁따라가는	-10919
▁따라서는	-10920
▁말그대로	-10921
▁명확하고	-10922
▁모니터를	-10923
▁목소리로	-10924
▁못하시는	-10925
▁문서작업	-10926
▁발굴하고	-10927
▁발전하는	-10928
▁방향성과	-10929
▁보고하고	-10930
▁보안모듈	-10931
▁보여주는	-10932
▁부분이라	-10933
▁사이트는	-10934
▁상황인데	-10935
▁서비스에	-10936
▁선임들의	-10937
▁설득하는	-10938
▁설명하고	-10939
▁성과보상	-10940
▁수동적인	-10941
▁시설관리	-10942
▁시행하는	-10943
▁않았다고	-10944
▁야근하고	-10945
▁얘기하지	-10946
▁여러분들	-10947
▁예비후보	-10948
▁올리시는	-10949
▁운영조직	-10950
▁원활하지	-10951
▁위원선거	-10952
▁의미있는	-10953
▁이용해서	-10954
▁인력확보	-10955
▁있겠으나	-10956
▁있었다면	-10957
▁작년부터	-10958
▁저해하는	-10959
▁전체에게	-10960
▁전화연결	-10961
▁준비해야	-10962
▁중요하나	-10963
▁지급되는	-10964
▁지급하지	-10965
▁진행되어	-10966
▁집중하여	-10967
▁투입되어	-10968
▁투자하는	-10969
▁팀구성원	-10970
▁팀내에서	-10971
▁팀원들도	-10972
▁판단되어	-10973
▁평가체계	-10974
▁필요한것	-10975
▁필요할듯	-10976
▁하더군요	-10977
▁하였는데	-10978
▁해당되는	-10979
▁해야하고	-10980
▁환경개선	-10981
▁힘들다고	-10982
▁#4309	-10983
▁appro	-10984
▁owner	-10985
▁가능하다는	-10986
▁개개인에게	-10987
▁구성원이나	-10988
▁근로시간제	-10989
▁기업문화가	-10990
▁기원합니다	-10991
▁남겨주시면	-10992
▁대체휴무를	-10993
▁목표달성에	-10994
▁목표에대한	-10995
▁살려주세요	-10996
▁생겼습니다	-10997
▁않겠습니다	-10998
▁업무수행을	-10999
▁우리회사도	-11000
▁유관부서와	-11001
▁점심시간에	-11002
▁초집중좌석	-11003
▁통상임금이	-11004
▁팀원개개인	-11005
▁하는건가요	-11006
▁합리적으로	-11007
▁후배들에게	-11008
부탁드립니다	-11009
▁market	-11010
▁구성원들끼리	-11011
▁장기적으로는	-11012
▁외부환경변화에	-11013
▁포괄임금제라는	-11014
▁ownership	-11015
▁leadership	-11016
57	-11017
:0	-11018
io	-11019
pn	-11020
▁걷	-11021
▁곡	-11022
▁롤	-11023
▁맺	-11024
▁뭡	-11025
▁앵	-11026
▁였	-11027
▁짝	-11028
▁쫌	-11029
▁탱	-11030
▁훈	-11031
가게	-11032
가글	-11033
건이	-11034
걸까	-11035
겠음	-11036
경고	-11037
구매	-11038
꺼면	-11039
께요	-11040
내부	-11041
단순	-11042
도입	-11043
돌아	-11044
돌이	-11045
렸던	-11046
마음	-11047
멤버	-11048
미흡	-11049
배분	-11050
법이	-11051
보내	-11052
보지	-11053
부에	-11054
서버	-11055
서야	-11056
수주	-11057
스토	-11058
실패	-11059
아웃	-11060
연관	-11061
였다	-11062
옵션	-11063
이로	-11064
이시	-11065
일만	-11066
일부	-11067
일지	-11068
입장	-11069
장치	-11070
저런	-11071
준다	-11072
준비	-11073
질수	-11074
치의	-11075
티션	-11076
표를	-11077
하든	-11078
할지	-11079
합병	-11080
화로	-11081
top	-11082
uch	-11083
urs	-11084
▁2%	-11085
▁ca	-11086
▁가방	-11087
▁거론	-11088
▁건승	-11089
▁경선	-11090
▁곳도	-11091
▁공로	-11092
▁공채	-11093
▁그와	-11094
▁그쪽	-11095
▁금방	-11096
▁깜깜	-11097
▁깜빡	-11098
▁깨끗	-11099
▁끝이	-11100
▁나를	-11101
▁날에	-11102
▁날짜	-11103
▁낡은	-11104
▁내놓	-11105
▁놓아	-11106
▁늦은	-11107
▁도로	-11108
▁동작	-11109
▁됐음	-11110
▁되나	-11111
▁러닝	-11112
▁마주	-11113
▁멈추	-11114
▁명목	-11115
▁몇일	-11116
▁모름	-11117
▁모션	-11118
▁모험	-11119
▁목격	-11120
▁못했	-11121
▁문항	-11122
▁미처	-11123
▁바란	-11124
▁바래	-11125
▁반납	-11126
▁반은	-11127
▁방금	-11128
▁버그	-11129
▁보았	-11130
▁복장	-11131
▁생김	-11132
▁세우	-11133
▁수긍	-11134
▁수신	-11135
▁순위	-11136
▁실험	-11137
▁심어	-11138
▁싸우	-11139
▁쌓아	-11140
▁쌓여	-11141
▁아끼	-11142
▁아름	-11143
▁아우	-11144
▁알람	-11145
▁에러	-11146
▁여겨	-11147
▁역지	-11148
▁올랐	-11149
▁옳고	-11150
▁옹호	-11151
▁인물	-11152
▁일로	-11153
▁일수	-11154
▁재량	-11155
▁재산	-11156
▁전면	-11157
▁전진	-11158
▁정황	-11159
▁존댓	-11160
▁종류	-11161
▁줄을	-11162
▁즐거	-11163
▁착수	-11164
▁추세	-11165
▁충격	-11166
▁칸막	-11167
▁커버	-11168
▁크다	-11169
▁타각	-11170
▁탄핵	-11171
▁통근	-11172
▁팩스	-11173
▁폴더	-11174
▁푸념	-11175
▁푸짐	-11176
▁풍부	-11177
▁하든	-11178
▁해준	-11179
▁혁명	-11180
▁획득	-11181
간다고	-11182
개발을	-11183
것이라	-11184
관계에	-11185
관련된	-11186
구조의	-11187
근로자	-11188
금액을	-11189
기술의	-11190
끄러운	-11191
노조의	-11192
는데도	-11193
다니는	-11194
다보면	-11195
되나요	-11196
모델이	-11197
방식을	-11198
보고서	-11199
보고자	-11200
생각을	-11201
성장에	-11202
소리는	-11203
소통과	-11204
속에서	-11205
양동완	-11206
어려운	-11207
역할을	-11208
이고요	-11209
이렇게	-11210
인지요	-11211
일하는	-11212
자나요	-11213
전략적	-11214
점에서	-11215
추진을	-11216
하든지	-11217
하시지	-11218
하신분	-11219
할만한	-11220
해보면	-11221
해야만	-11222
해주지	-11223
화하고	-11224
회사에	-11225
ease	-11226
▁#50	-11227
▁idp	-11228
▁lab	-11229
▁not	-11230
▁강점을	-11231
▁강하여	-11232
▁거지요	-11233
▁격려가	-11234
▁계셔서	-11235
▁고객에	-11236
▁고충을	-11237
▁공론화	-11238
▁과장급	-11239
▁궁금증	-11240
▁그들은	-11241
▁그러고	-11242
▁그러기	-11243
▁기능은	-11244
▁기술자	-11245
▁기여를	-11246
▁기회는	-11247
▁끝으로	-11248
▁나누는	-11249
▁나무심	-11250
▁나오기	-11251
▁나왔던	-11252
▁남들이	-11253
▁높다고	-11254
▁높이고	-11255
▁누르면	-11256
▁닉네임	-11257
▁다니기	-11258
▁단속적	-11259
▁달성이	-11260
▁담보할	-11261
▁답변도	-11262
▁대고객	-11263
▁대단한	-11264
▁대비한	-11265
▁대안이	-11266
▁대처가	-11267
▁더욱더	-11268
▁두려움	-11269
▁들어갈	-11270
▁들어왔	-11271
▁뚜렷한	-11272
▁리스트	-11273
▁마이크	-11274
▁몇년째	-11275
▁모아서	-11276
▁목적의	-11277
▁못하기	-11278
▁문구가	-11279
▁뭐하러	-11280
▁뭡니까	-11281
▁바꾸면	-11282
▁받으시	-11283
▁방법론	-11284
▁배정이	-11285
▁배치가	-11286
▁버려야	-11287
▁법적인	-11288
▁변경할	-11289
▁별개의	-11290
▁본인과	-11291
▁분명한	-11292
▁비율을	-11293
▁빈번한	-11294
▁사고의	-11295
▁사내에	-11296
▁사정에	-11297
▁사항도	-11298
▁살펴보	-11299
▁설명은	-11300
▁세상에	-11301
▁세세한	-11302
▁순환이	-11303
▁스킨쉽	-11304
▁승진에	-11305
▁시각을	-11306
▁싫어서	-11307
▁않다면	-11308
▁애매한	-11309
▁야근은	-11310
▁약간은	-11311
▁약하다	-11312
▁얘기할	-11313
▁어디가	-11314
▁어렵지	-11315
▁언급한	-11316
▁없거나	-11317
▁없어도	-11318
▁여부에	-11319
▁역량도	-11320
▁연초에	-11321
▁열정이	-11322
▁영역은	-11323
▁오셔서	-11324
▁완결적	-11325
▁요청한	-11326
▁우려가	-11327
▁원인을	-11328
▁원칙에	-11329
▁음식을	-11330
▁의도로	-11331
▁의욕적	-11332
▁이끄는	-11333
▁이루기	-11334
▁이후로	-11335
▁일정이	-11336
▁일하지	-11337
▁입사를	-11338
▁자세를	-11339
▁자율성	-11340
▁자체는	-11341
▁재미가	-11342
▁전문화	-11343
▁조만간	-11344
▁조정할	-11345
▁조직활	-11346
▁주변을	-11347
▁줄이는	-11348
▁중요할	-11349
▁증상이	-11350
▁지우고	-11351
▁지원금	-11352
▁지원은	-11353
▁지키는	-11354
▁진입로	-11355
▁질문이	-11356
▁질책을	-11357
▁차량이	-11358
▁창출할	-11359
▁체크를	-11360
▁최적의	-11361
▁취지로	-11362
▁커뮤니	-11363
▁컨트롤	-11364
▁토요일	-11365
▁투입된	-11366
▁투자는	-11367
▁파티션	-11368
▁팩트를	-11369
▁평가할	-11370
▁표현은	-11371
▁피해가	-11372
▁하겠다	-11373
▁하고요	-11374
▁하기도	-11375
▁하나만	-11376
▁하는것	-11377
▁하시니	-11378
▁하지요	-11379
▁했으니	-11380
▁행동에	-11381
▁현황을	-11382
▁형성을	-11383
▁확대가	-11384
▁효율적	-11385
기보다는	-11386
기술역량	-11387
기업문화	-11388
동기부여	-11389
들에게는	-11390
민주주의	-11391
었는데요	-11392
주었으면	-11393
차산업혁	-11394
하시는게	-11395
하시지만	-11396
하십니다	-11397
하였다고	-11398
etter	-11399
unior	-11400
▁2007	-11401
▁2014	-11402
▁zone	-11403
▁가져가는	-11404
▁간단하게	-11405
▁고생많으	-11406
▁공감능력	-11407
▁공정하지	-11408
▁그렇다는	-11409
▁기여하는	-11410
▁끊임없는	-11411
▁나름대로	-11412
▁넘어가는	-11413
▁뉴스레터	-11414
▁다릅니다	-11415
▁담당자는	-11416
▁담당자와	-11417
▁당사자가	-11418
▁독려하는	-11419
▁되었다는	-11420
▁들어와서	-11421
▁로테이션	-11422
▁리스크를	-11423
▁문제라는	-11424
▁박탈감을	-11425
▁반대의견	-11426
▁반복되고	-11427
▁반복되는	-11428
▁반영되는	-11429
▁벗어나지	-11430
▁변경하여	-11431
▁부드럽게	-11432
▁부분까지	-11433
▁부서별로	-11434
▁분위기도	-11435
▁비교하면	-11436
▁비슷하게	-11437
▁비용으로	-11438
▁사업관리	-11439
▁사업발굴	-11440
▁사업전략	-11441
▁사업지원	-11442
▁사업팀의	-11443
▁사용해도	-11444
▁사항이나	-11445
▁선정하는	-11446
▁실적으로	-11447
▁심각하게	-11448
▁알면서도	-11449
▁앞으로의	-11450
▁얘기하고	-11451
▁얘기하면	-11452
▁어찌보면	-11453
▁업무공간	-11454
▁연봉으로	-11455
▁연장근무	-11456
▁예정이며	-11457
▁올라오는	-11458
▁우려하는	-11459
▁우리은행	-11460
▁원합니다	-11461
▁의무사용	-11462
▁이뤄지고	-11463
▁이메일을	-11464
▁인식하고	-11465
▁일관성이	-11466
▁일처리를	-11467
▁있는데도	-11468
▁있는지도	-11469
▁자부심을	-11470
▁적극적이	-11471
▁적절하게	-11472
▁점입니다	-11473
▁제도변경	-11474
▁제시해야	-11475
▁종합적인	-11476
▁좋아지는	-11477
▁지난번에	-11478
▁지주회사	-11479
▁직원들과	-11480
▁진행하여	-11481
▁참고자료	-11482
▁찾아보니	-11483
▁최근에는	-11484
▁추진력을	-11485
▁통신부문	-11486
▁패기있는	-11487
▁팩트체크	-11488
▁평가에서	-11489
▁포기하고	-11490
▁행동으로	-11491
▁현지채용	-11492
▁협력직원	-11493
▁협의회는	-11494
▁확보하는	-11495
▁회사측에	-11496
▁효율성을	-11497
▁휴일근무	-11498
중요하지만	-11499
하기보다는	-11500
bottom	-11501
▁group	-11502
▁start	-11503
▁thurs	-11504
▁개입하거나	-11505
▁계시겠지만	-11506
▁기술에대한	-11507
▁기술전문가	-11508
▁나왔습니다	-11509
▁노무법인에	-11510
▁논리입니다	-11511
▁다양한업무	-11512
▁단기적성과	-11513
▁떨어집니다	-11514
▁말아주세요	-11515
▁못하겠네요	-11516
▁받아들이는	-11517
▁사용하는데	-11518
▁사회적가치	-11519
▁성과에따른	-11520
▁시스템에서	-11521
▁안타깝네요	-11522
▁의사소통의	-11523
▁이해관계가	-11524
▁입장에서도	-11525
▁적어봅니다	-11526
▁전사공지로	-11527
▁정보공유가	-11528
▁주장하시는	-11529
▁출근시간에	-11530
▁측면에서의	-11531
▁통상임금을	-11532
▁팀장님께서	-11533
▁프로젝트나	-11534
▁하이닉스에	-11535
▁해야합니다	-11536
▁회사측에서	-11537
▁희망합니다	-11538
oration	-11539
▁action	-11540
▁center	-11541
▁update	-11542
▁기업문화부문	-11543
▁못하였습니다	-11544
▁바쁘시겠지만	-11545
▁불필요한업무	-11546
▁생각합니다만	-11547
▁시스템적으로	-11548
▁업무프로세스	-11549
▁통합계정관리	-11550
▁팀장으로서의	-11551
daymarch	-11552
▁구성원위원으로	-11553
▁노력하겠습니다	-11554
▁이해관계자와의	-11555
▁networking	-11556
fo	-11557
pe	-11558
▁@	-11559
▁【	-11560
▁넌	-11561
▁듦	-11562
▁런	-11563
▁몫	-11564
▁밉	-11565
▁졌	-11566
▁콜	-11567
가가	-11568
개별	-11569
건은	-11570
고루	-11571
곳이	-11572
공모	-11573
권자	-11574
금지	-11575
나와	-11576
노무	-11577
누구	-11578
단체	-11579
당시	-11580
듀얼	-11581
드로	-11582
들간	-11583
러다	-11584
레인	-11585
름에	-11586
리즘	-11587
메프	-11588
명에	-11589
명훈	-11590
봐라	-11591
봤자	-11592
부가	-11593
분쯤	-11594
브릴	-11595
빌딩	-11596
사로	-11597
삼모	-11598
수선	-11599
스에	-11600
신고	-11601
실이	-11602
아도	-11603
앞에	-11604
열을	-11605
영업	-11606
워야	-11607
위의	-11608
의도	-11609
이저	-11610
인양	-11611
작년	-11612
정말	-11613
줘서	-11614
짜리	-11615
차게	-11616
판결	-11617
필드	-11618
할게	-11619
할까	-11620
해당	-11621
행을	-11622
현실	-11623
회성	-11624
udy	-11625
use	-11626
ype	-11627
ᆞ야간	-11628
▁cb	-11629
▁sf	-11630
▁감독	-11631
▁강사	-11632
▁걸렸	-11633
▁게재	-11634
▁겪는	-11635
▁고령	-11636
▁공고	-11637
▁공백	-11638
▁관습	-11639
▁구역	-11640
▁구태	-11641
▁금년	-11642
▁끝나	-11643
▁끝내	-11644
▁내릴	-11645
▁낼수	-11646
▁너네	-11647
▁너희	-11648
▁다이	-11649
▁단절	-11650
▁달린	-11651
▁당부	-11652
▁도를	-11653
▁뜨고	-11654
▁말과	-11655
▁명세	-11656
▁모듈	-11657
▁목록	-11658
▁무인	-11659
▁무작	-11660
▁물류	-11661
▁미미	-11662
▁민망	-11663
▁민원	-11664
▁바꿨	-11665
▁밝혔	-11666
▁버릴	-11667
▁번씩	-11668
▁변질	-11669
▁불쌍	-11670
▁비서	-11671
▁비싸	-11672
▁뽑고	-11673
▁상상	-11674
▁새벽	-11675
▁서운	-11676
▁선별	-11677
▁소름	-11678
▁소위	-11679
▁수련	-11680
▁수의	-11681
▁순서	-11682
▁술잔	-11683
▁슬픈	-11684
▁시나	-11685
▁시사	-11686
▁시켰	-11687
▁신발	-11688
▁실전	-11689
▁심층	-11690
▁싶고	-11691
▁쌓고	-11692
▁써서	-11693
▁암튼	-11694
▁앵커	-11695
▁얻고	-11696
▁없죠	-11697
▁옮길	-11698
▁원망	-11699
▁은혜	-11700
▁음력	-11701
▁음해	-11702
▁이견	-11703
▁이란	-11704
▁이룰	-11705
▁이르	-11706
▁이민	-11707
▁인당	-11708
▁인비	-11709
▁인신	-11710
▁자진	-11711
▁작고	-11712
▁작동	-11713
▁잘한	-11714
▁장표	-11715
▁재택	-11716
▁전세	-11717
▁전폭	-11718
▁정문	-11719
▁존경	-11720
▁좌절	-11721
▁죄다	-11722
▁즉흥	-11723
▁지우	-11724
▁쪽에	-11725
▁창피	-11726
▁찾지	-11727
▁채택	-11728
▁체질	-11729
▁체험	-11730
▁촉탁	-11731
▁출차	-11732
▁컬처	-11733
▁크고	-11734
▁탈락	-11735
▁탐지	-11736
▁프라	-11737
▁하락	-11738
▁한꺼	-11739
▁항의	-11740
▁헌데	-11741
▁현금	-11742
▁호도	-11743
▁흑백	-11744
▁힘듦	-11745
거리는	-11746
건지요	-11747
결과에	-11748
경험을	-11749
공유가	-11750
구조가	-11751
까지만	-11752
냅니다	-11753
년간의	-11754
달성을	-11755
더스트	-11756
되어도	-11757
되지만	-11758
들보다	-11759
려지는	-11760
목표가	-11761
방향을	-11762
베이션	-11763
비용을	-11764
시설을	-11765
시키지	-11766
았네요	-11767
어리뷰	-11768
웠으면	-11769
위주로	-11770
으시고	-11771
임금을	-11772
있다고	-11773
있도록	-11774
전부터	-11775
제도의	-11776
쪽에서	-11777
투표로	-11778
팀장이	-11779
하기엔	-11780
하셨고	-11781
하자면	-11782
한데요	-11783
향상에	-11784
0000	-11785
core	-11786
ower	-11787
ttps	-11788
▁dem	-11789
▁faq	-11790
▁gbs	-11791
▁ide	-11792
▁int	-11793
▁msg	-11794
▁vpn	-11795
▁‘18	-11796
▁가능함	-11797
▁가시는	-11798
▁가치에	-11799
▁감사한	-11800
▁갖추고	-11801
▁거쳐야	-11802
▁걸리고	-11803
▁것들은	-11804
▁것에서	-11805
▁결과로	-11806
▁결정한	-11807
▁경쟁이	-11808
▁공유의	-11809
▁과장이	-11810
▁과정과	-11811
▁관리만	-11812
▁교육및	-11813
▁권리와	-11814
▁규모의	-11815
▁그러는	-11816
▁그런거	-11817
▁그런게	-11818
▁근로를	-11819
▁근로에	-11820
▁글쓰신	-11821
▁기여도	-11822
▁김병두	-11823
▁꼼꼼히	-11824
▁내외부	-11825
▁넣어서	-11826
▁노력할	-11827
▁논리로	-11828
▁뉴스를	-11829
▁늘려야	-11830
▁늘어났	-11831
▁님께서	-11832
▁단어를	-11833
▁달라는	-11834
▁달리는	-11835
▁대내외	-11836
▁대용량	-11837
▁대응은	-11838
▁대표를	-11839
▁도와주	-11840
▁도전할	-11841
▁드라이	-11842
▁드리면	-11843
▁들어간	-11844
▁들었음	-11845
▁마음의	-11846
▁많아요	-11847
▁많으나	-11848
▁말로는	-11849
▁맞추기	-11850
▁면담을	-11851
▁못받고	-11852
▁못하였	-11853
▁무분별	-11854
▁문제의	-11855
▁문제임	-11856
▁미루는	-11857
▁미팅을	-11858
▁바람이	-11859
▁바로잡	-11860
▁박근희	-11861
▁박수를	-11862
▁박종오	-11863
▁밖에서	-11864
▁방송을	-11865
▁방안도	-11866
▁배분이	-11867
▁버튼을	-11868
▁번거로	-11869
▁범위가	-11870
▁법률적	-11871
▁변경될	-11872
▁변하고	-11873
▁변화도	-11874
▁보고의	-11875
▁보기에	-11876
▁보내야	-11877
▁보상의	-11878
▁복합기	-11879
▁본인을	-11880
▁본적이	-11881
▁부문내	-11882
▁부문에	-11883
▁분께서	-11884
▁분에게	-11885
▁불편할	-11886
▁비교를	-11887
▁사규와	-11888
▁사라져	-11889
▁사료됨	-11890
▁사서함	-11891
▁사업적	-11892
▁상대를	-11893
▁생기지	-11894
▁선거인	-11895
▁선임들	-11896
▁성과의	-11897
▁소소한	-11898
▁시도에	-11899
▁시장을	-11900
▁시행을	-11901
▁시행한	-11902
▁신청할	-11903
▁실효성	-11904
▁싫으면	-11905
▁싶다고	-11906
▁아니지	-11907
▁않았나	-11908
▁알려야	-11909
▁어디로	-11910
▁어떨지	-11911
▁업무나	-11912
▁업무분	-11913
▁없애기	-11914
▁에서는	-11915
▁예약을	-11916
▁오해의	-11917
▁올리게	-11918
▁옮기는	-11919
▁요건을	-11920
▁우연히	-11921
▁운영할	-11922
▁유능한	-11923
▁의문임	-11924
▁의미로	-11925
▁의식이	-11926
▁이동의	-11927
▁이런게	-11928
▁이번주	-11929
▁이상은	-11930
▁이제야	-11931
▁인정이	-11932
▁인정해	-11933
▁일까요	-11934
▁일하게	-11935
▁임금에	-11936
▁있지는	-11937
▁자격증	-11938
▁자극과	-11939
▁자기주	-11940
▁작성에	-11941
▁잘못한	-11942
▁장갑을	-11943
▁장악력	-11944
▁전달해	-11945
▁전환에	-11946
▁점검을	-11947
▁정보에	-11948
▁정신의	-11949
▁제한에	-11950
▁제한은	-11951
▁조성을	-11952
▁조의금	-11953
▁조치에	-11954
▁좋겠고	-11955
▁좌석을	-11956
▁주었다	-11957
▁준하는	-11958
▁지급을	-11959
▁지나가	-11960
▁직급을	-11961
▁직사광	-11962
▁진행한	-11963
▁집행부	-11964
▁창출에	-11965
▁창출이	-11966
▁철저한	-11967
▁초기에	-11968
▁초점이	-11969
▁출장인	-11970
▁타부문	-11971
▁타이밍	-11972
▁투입이	-11973
▁틀에서	-11974
▁파악을	-11975
▁평가도	-11976
▁표현을	-11977
▁하고도	-11978
▁하지는	-11979
▁할텐데	-11980
▁해결에	-11981
▁해야만	-11982
▁행위에	-11983
▁향상과	-11984
▁협의체	-11985
▁활용해	-11986
▁회계팀	-11987
▁회사나	-11988
▁회의록	-11989
▁횟수가	-11990
되었으나	-11991
렀습니다	-11992
산업은행	-11993
시스템은	-11994
유심포니	-11995
인입니다	-11996
하더군요	-11997
하시거나	-11998
하였다는	-11999
ensus	-12000
esson	-12001
▁2011	-12002
▁base	-12003
▁item	-12004
▁move	-12005
▁nate	-12006
▁강요하는	-12007
▁개선하여	-12008
▁개진하는	-12009
▁게시판은	-12010
▁경진대회	-12011
▁고객사는	-12012
▁고객사를	-12013
▁공공기관	-12014
▁공지하고	-12015
▁과감하고	-12016
▁관계자는	-12017
▁구분하여	-12018
▁권위적인	-12019
▁기술력이	-12020
▁기술인력	-12021
▁기회제공	-12022
▁깊이있는	-12023
▁내부적인	-12024
▁내에서도	-12025
▁누구인지	-12026
▁늦게까지	-12027
▁대체휴가	-12028
▁대해서만	-12029
▁드리고자	-12030
▁마이크로	-12031
▁만족도는	-12032
▁무엇인가	-12033
▁미흡하다	-12034
▁반복적인	-12035
▁반영하는	-12036
▁받았다고	-12037
▁발생되고	-12038
▁발생하여	-12039
▁방향제시	-12040
▁배제하고	-12041
▁변경되는	-12042
▁보내시는	-12043
▁본인에게	-12044
▁부작용이	-12045
▁분리되어	-12046
▁불안감이	-12047
▁불편함은	-12048
▁빠른실행	-12049
▁사라지고	-12050
▁사업장에	-12051
▁사용해야	-12052
▁사이에서	-12053
▁상위직책	-12054
▁선출한다	-12055
▁세미나를	-12056
▁소급하여	-12057
▁소속감을	-12058
▁수용하는	-12059
▁수정하여	-12060
▁수평화된	-12061
▁스스로를	-12062
▁스텝부서	-12063
▁시행되는	-12064
▁아름다운	-12065
▁않았다는	-12066
▁어렵다면	-12067
▁없으므로	-12068
▁에이브릴	-12069
▁여러분은	-12070
▁연봉등급	-12071
▁였습니다	-12072
▁우리만의	-12073
▁움직이는	-12074
▁의견개진	-12075
▁의뢰하여	-12076
▁이상하게	-12077
▁이해하기	-12078
▁이후에도	-12079
▁익명성을	-12080
▁익명으로	-12081
▁일정액을	-12082
▁임금체계	-12083
▁있었네요	-12084
▁있으면서	-12085
▁자격제한	-12086
▁자체적인	-12087
▁작년보다	-12088
▁작업관리	-12089
▁전달하는	-12090
▁전략기획	-12091
▁전화통화	-12092
▁점검하고	-12093
▁정년퇴임	-12094
▁정리해서	-12095
▁정식으로	-12096
▁제기하는	-12097
▁제도개선	-12098
▁조장하는	-12099
▁조직체계	-12100
▁주관적인	-12101
▁준수하여	-12102
▁지급시점	-12103
▁지방에서	-12104
▁직책자와	-12105
▁진정으로	-12106
▁집중되어	-12107
▁처리되는	-12108
▁첨부파일	-12109
▁초집중존	-12110
▁치열하게	-12111
▁치중하는	-12112
▁타부서의	-12113
▁테스트를	-12114
▁패스워드	-12115
▁포함한다	-12116
▁필요하면	-12117
▁필요하신	-12118
▁필요해서	-12119
▁하는지에	-12120
▁한꺼번에	-12121
▁화장실에	-12122
▁확실하게	-12123
▁회사측의	-12124
▁효율성이	-12125
▁후보자가	-12126
▁힘내세요	-12127
▁힘들지만	-12128
하고자하는	-12129
하더라구요	-12130
▁09:00	-12131
▁check	-12132
▁https	-12133
▁offer	-12134
▁가능하기에	-12135
▁관리를위한	-12136
▁구성원분들	-12137
▁근무자들은	-12138
▁근태승인서	-12139
▁단기적으로	-12140
▁못했습니다	-12141
▁무엇인지요	-12142
▁문의사항은	-12143
▁바람직하지	-12144
▁법인카드를	-12145
▁변화시키는	-12146
▁부분입니다	-12147
▁사실관계를	-12148
▁사업부서의	-12149
▁생각하는데	-12150
▁실무자들이	-12151
▁양부장님이	-12152
▁업무수행에	-12153
▁역량향상을	-12154
▁연장ᆞ야간	-12155
▁유심포니의	-12156
▁유연한사고	-12157
▁유지하기로	-12158
▁인센티브를	-12159
▁자기완결적	-12160
▁적재적소에	-12161
▁조직개편과	-12162
▁지급한다는	-12163
▁집중적으로	-12164
▁팀장님들이	-12165
▁판단합니다	-12166
▁혁신이야기	-12167
▁화장실에서	-12168
▁휴가일수에	-12169
▁junior	-12170
▁onsite	-12171
▁worker	-12172
▁근로기준법이	-12173
▁근로자참여법	-12174
▁보고문화개선	-12175
▁부서간협업을	-12176
▁안내드립니다	-12177
▁연장근로수당	-12178
▁유심포니에서	-12179
▁이루어졌으면	-12180
▁ceiling	-12181
▁showing	-12182
▁구성원개개인의	-12183
▁구성원위원들의	-12184
▁모르겠습니다만	-12185
▁빠른의사결정과	-12186
▁사전선거운동을	-12187
▁습득하였습니다	-12188
▁포괄임금약정이	-12189
▁approach	-12190
▁relation	-12191
▁security	-12192
▁불필요한프로세스	-12193
▁balancing	-12194
▁경영협의회구성원위원	-12195
2,	-12196
5%	-12197
dc	-12198
rr	-12199
ub	-12200
ug	-12201
▁中	-12202
▁外	-12203
▁現	-12204
▁갓	-12205
▁낯	-12206
▁덩	-12207
▁땀	-12208
▁떳	-12209
▁뭉	-12210
▁벙	-12211
▁으	-12212
▁째	-12213
▁칠	-12214
▁콤	-12215
▁턱	-12216
▁햇	-12217
▁헛	-12218
▁힐	-12219
감은	-12220
개방	-12221
건에	-12222
경희	-12223
과거	-12224
근식	-12225
글에	-12226
기나	-12227
기의	-12228
노력	-12229
단에	-12230
동결	-12231
되니	-12232
되신	-12233
련의	-12234
리로	-12235
마켓	-12236
많아	-12237
말에	-12238
미래	-12239
미를	-12240
번은	-12241
복지	-12242
봐서	-12243
부하	-12244
분께	-12245
불가	-12246
비율	-12247
사안	-12248
서열	-12249
서요	-12250
속도	-12251
수직	-12252
시를	-12253
실제	-12254
심탄	-12255
액이	-12256
어로	-12257
열린	-12258
위치	-12259
유지	-12260
이건	-12261
이전	-12262
인적	-12263
일보	-12264
일치	-12265
입력	-12266
장도	-12267
장비	-12268
쟁이	-12269
적한	-12270
적합	-12271
종료	-12272
주변	-12273
지며	-12274
지의	-12275
지표	-12276
집행	-12277
쪼록	-12278
차량	-12279
초기	-12280
촬영	-12281
추천	-12282
출입	-12283
층을	-12284
터리	-12285
통이	-12286
판을	-12287
포유	-12288
하듯	-12289
하루	-12290
해제	-12291
향을	-12292
현장	-12293
형성	-12294
화는	-12295
후배	-12296
211	-12297
ull	-12298
▁06	-12299
▁48	-12300
▁49	-12301
▁가도	-12302
▁가령	-12303
▁가로	-12304
▁가신	-12305
▁각오	-12306
▁감당	-12307
▁개시	-12308
▁거는	-12309
▁겪고	-12310
▁경비	-12311
▁공인	-12312
▁과외	-12313
▁관찰	-12314
▁교훈	-12315
▁구멍	-12316
▁굴러	-12317
▁권유	-12318
▁글만	-12319
▁날씨	-12320
▁남성	-12321
▁낮춰	-12322
▁내서	-12323
▁넓어	-12324
▁넣을	-12325
▁년간	-12326
▁놀라	-12327
▁농담	-12328
▁누릴	-12329
▁다면	-12330
▁다분	-12331
▁단정	-12332
▁대무	-12333
▁도망	-12334
▁두루	-12335
▁듀얼	-12336
▁득표	-12337
▁들의	-12338
▁라면	-12339
▁라인	-12340
▁만년	-12341
▁말죽	-12342
▁매트	-12343
▁멀쩡	-12344
▁멈춰	-12345
▁멤버	-12346
▁면접	-12347
▁명칭	-12348
▁무능	-12349
▁물러	-12350
▁미련	-12351
▁믿을	-12352
▁밀접	-12353
▁바를	-12354
▁발령	-12355
▁변동	-12356
▁변환	-12357
▁보름	-12358
▁복사	-12359
▁분수	-12360
▁비염	-12361
▁설사	-12362
▁세입	-12363
▁수시	-12364
▁슬림	-12365
▁시즌	-12366
▁써도	-12367
▁쓸수	-12368
▁아시	-12369
▁앉는	-12370
▁알릴	-12371
▁앞뒤	-12372
▁앱을	-12373
▁양력	-12374
▁어이	-12375
▁얻지	-12376
▁얼른	-12377
▁얼음	-12378
▁엘베	-12379
▁역활	-12380
▁연공	-12381
▁예절	-12382
▁오지	-12383
▁용이	-12384
▁유급	-12385
▁융통	-12386
▁이고	-12387
▁이양	-12388
▁일체	-12389
▁입각	-12390
▁입맛	-12391
▁잠재	-12392
▁장치	-12393
▁저가	-12394
▁저지	-12395
▁전날	-12396
▁전후	-12397
▁조그	-12398
▁종용	-12399
▁주거	-12400
▁중이	-12401
▁중첩	-12402
▁진보	-12403
▁짧게	-12404
▁찍어	-12405
▁챙길	-12406
▁초에	-12407
▁추석	-12408
▁통일	-12409
▁편애	-12410
▁폭언	-12411
▁하계	-12412
▁하심	-12413
▁한글	-12414
▁한들	-12415
▁합류	-12416
▁허나	-12417
▁회복	-12418
▁횟수	-12419
공감대	-12420
기간에	-12421
더라면	-12422
렸는데	-12423
로드맵	-12424
리더쉽	-12425
받아야	-12426
방안이	-12427
부분은	-12428
부서나	-12429
분들과	-12430
사람은	-12431
사람의	-12432
삼모사	-12433
셨어요	-12434
소통의	-12435
수당은	-12436
수준을	-12437
스럽고	-12438
시에도	-12439
심탄회	-12440
었다면	-12441
에게만	-12442
연하게	-12443
이동이	-12444
이면서	-12445
인데도	-12446
인원이	-12447
일텐데	-12448
자마자	-12449
정으로	-12450
제도는	-12451
주시가	-12452
차이가	-12453
하고는	-12454
하구요	-12455
해놓고	-12456
혁신에	-12457
회하는	-12458
,,,,	-12459
able	-12460
dayj	-12461
self	-12462
time	-12463
ᄏᄏᄏᄏ	-12464
▁non	-12465
▁ret	-12466
▁tcl	-12467
▁가져오	-12468
▁간략한	-12469
▁갈등이	-12470
▁감사의	-12471
▁강제할	-12472
▁같으며	-12473
▁개발은	-12474
▁개선과	-12475
▁개선점	-12476
▁개입에	-12477
▁개입할	-12478
▁건강에	-12479
▁것부터	-12480
▁결과도	-12481
▁경쟁을	-12482
▁경험해	-12483
▁계기가	-12484
▁곤란한	-12485
▁골고루	-12486
▁공간은	-12487
▁공지도	-12488
▁과정도	-12489
▁관리와	-12490
▁규제를	-12491
▁극단적	-12492
▁근무로	-12493
▁글쎄요	-12494
▁급여를	-12495
▁기반이	-12496
▁기본이	-12497
▁기사를	-12498
▁기초로	-12499
▁기회와	-12500
▁끝나는	-12501
▁끝나면	-12502
▁나가면	-12503
▁나눠서	-12504
▁낭비가	-12505
▁내년도	-12506
▁내지는	-12507
▁노고에	-12508
▁느낌임	-12509
▁늘려주	-12510
▁단계적	-12511
▁달라서	-12512
▁달라진	-12513
▁대응에	-12514
▁대책을	-12515
▁댓글도	-12516
▁돌파력	-12517
▁동의한	-12518
▁되어버	-12519
▁되지는	-12520
▁들어온	-12521
▁들어와	-12522
▁등록을	-12523
▁마땅히	-12524
▁마련해	-12525
▁많으면	-12526
▁매너를	-12527
▁매뉴얼	-12528
▁못해서	-12529
▁무책임	-12530
▁문서는	-12531
▁문의에	-12532
▁문화도	-12533
▁바라지	-12534
▁박근혜	-12535
▁반영될	-12536
▁발굴과	-12537
▁발생된	-12538
▁법무팀	-12539
▁변화된	-12540
▁변화로	-12541
▁보기엔	-12542
▁보내신	-12543
▁보는데	-12544
▁보상해	-12545
▁보안은	-12546
▁보여줄	-12547
▁부족할	-12548
▁분야를	-12549
▁비율로	-12550
▁비전이	-12551
▁뿐이지	-12552
▁사고로	-12553
▁사용해	-12554
▁사진을	-12555
▁사회의	-12556
▁선입견	-12557
▁선택적	-12558
▁성립될	-12559
▁성실히	-12560
▁소수의	-12561
▁수동적	-12562
▁수용할	-12563
▁수있는	-12564
▁시간만	-12565
▁시급히	-12566
▁시기를	-12567
▁시점이	-12568
▁시키면	-12569
▁시행이	-12570
▁신입사	-12571
▁아래로	-12572
▁안내해	-12573
▁안마의	-12574
▁안쓰고	-12575
▁안전한	-12576
▁안좋아	-12577
▁애정을	-12578
▁양해를	-12579
▁어수선	-12580
▁억울한	-12581
▁없겠죠	-12582
▁없는거	-12583
▁연계된	-12584
▁열정을	-12585
▁오픈이	-12586
▁오후에	-12587
▁와중에	-12588
▁요소를	-12589
▁운영팀	-12590
▁원칙이	-12591
▁위해선	-12592
▁유연함	-12593
▁유입을	-12594
▁의미는	-12595
▁의사와	-12596
▁의식을	-12597
▁의심이	-12598
▁이견이	-12599
▁이동도	-12600
▁이름이	-12601
▁이민환	-12602
▁이처럼	-12603
▁일련의	-12604
▁일부를	-12605
▁일어날	-12606
▁일이라	-12607
▁있게끔	-12608
▁있겠죠	-12609
▁있구나	-12610
▁자료에	-12611
▁장소를	-12612
▁저연차	-12613
▁적어서	-12614
▁전년도	-12615
▁전화로	-12616
▁절실함	-12617
▁절차상	-12618
▁접근할	-12619
▁접속을	-12620
▁정당성	-12621
▁정리를	-12622
▁정수기	-12623
▁정자역	-12624
▁제공한	-12625
▁제도도	-12626
▁조율이	-12627
▁조항에	-12628
▁좋을거	-12629
▁좋을지	-12630
▁주기적	-12631
▁주차를	-12632
▁증거를	-12633
▁지시에	-12634
▁지식이	-12635
▁지연이	-12636
▁지원도	-12637
▁직급에	-12638
▁집중도	-12639
▁찾아볼	-12640
▁처우가	-12641
▁체계의	-12642
▁추천을	-12643
▁출마를	-12644
▁출장중	-12645
▁캠페인	-12646
▁토론을	-12647
▁퇴직을	-12648
▁팀장급	-12649
▁팀장도	-12650
▁판교로	-12651
▁편의성	-12652
▁푸짐한	-12653
▁프린터	-12654
▁핑계로	-12655
▁하기가	-12656
▁하나는	-12657
▁하지마	-12658
▁해주지	-12659
▁혼란이	-12660
▁화면이	-12661
▁확보와	-12662
▁확신이	-12663
▁활발히	-12664
▁후에는	-12665
▁휴가에	-12666
관련하여	-12667
관점으로	-12668
구성원간	-12669
근무환경	-12670
서비스를	-12671
시스템을	-12672
업무수행	-12673
윤리경영	-12674
적이라는	-12675
중입니다	-12676
지속적인	-12677
진적으로	-12678
팀장님이	-12679
하시면서	-12680
해야할지	-12681
했는데요	-12682
ealth	-12683
lexib	-12684
▁1735	-12685
▁comp	-12686
▁core	-12687
▁part	-12688
▁play	-12689
▁sour	-12690
▁가능성을	-12691
▁가능한데	-12692
▁강압적인	-12693
▁개별적인	-12694
▁게시글이	-12695
▁경선참여	-12696
▁경험으로	-12697
▁경협에서	-12698
▁고생하고	-12699
▁공개토론	-12700
▁공유하며	-12701
▁과다하게	-12702
▁관계사는	-12703
▁규정하고	-12704
▁근거없는	-12705
▁근무자는	-12706
▁근무자의	-12707
▁금융사업	-12708
▁기업으로	-12709
▁기피하는	-12710
▁나오네요	-12711
▁노동자를	-12712
▁눈치보지	-12713
▁능력있는	-12714
▁단체보험	-12715
▁단호하게	-12716
▁대중교통	-12717
▁데이터가	-12718
▁도와주는	-12719
▁도전정신	-12720
▁돌아다니	-12721
▁동떨어진	-12722
▁되겠네요	-12723
▁리더십은	-12724
▁마련되기	-12725
▁말씀처럼	-12726
▁말았으면	-12727
▁메신저를	-12728
▁묻습니다	-12729
▁물어보면	-12730
▁반대되는	-12731
▁변화되는	-12732
▁부담으로	-12733
▁분들께서	-12734
▁불편하시	-12735
▁사내벤처	-12736
▁사무실에	-12737
▁사용하면	-12738
▁사이트가	-12739
▁사항이라	-12740
▁생각되어	-12741
▁생각된다	-12742
▁생산성을	-12743
▁선거구는	-12744
▁선출하되	-12745
▁소외감을	-12746
▁소통방식	-12747
▁수렴하여	-12748
▁수석으로	-12749
▁시나리오	-12750
▁시스템화	-12751
▁신속하게	-12752
▁신속하고	-12753
▁실무자의	-12754
▁실패사례	-12755
▁써봅니다	-12756
▁아니하는	-12757
▁아마존의	-12758
▁악용하는	-12759
▁안건으로	-12760
▁않겠지만	-12761
▁얘기하는	-12762
▁어려우며	-12763
▁어려웠음	-12764
▁어렵다는	-12765
▁업무관련	-12766
▁업무목표	-12767
▁업무에만	-12768
▁없어지면	-12769
▁여기까지	-12770
▁연봉상승	-12771
▁완벽하게	-12772
▁위원수를	-12773
▁의사표현	-12774
▁이런저런	-12775
▁이럴거면	-12776
▁이루어져	-12777
▁이루어진	-12778
▁이번에는	-12779
▁인력들을	-12780
▁인력으로	-12781
▁인력투입	-12782
▁일정기간	-12783
▁읽으시는	-12784
▁입력하게	-12785
▁있잖아요	-12786
▁자격요건	-12787
▁자신들의	-12788
▁작성하여	-12789
▁저희에게	-12790
▁전까지는	-12791
▁전사전략	-12792
▁접근하는	-12793
▁제시하여	-12794
▁직책자를	-12795
▁집중좌석	-12796
▁차별화된	-12797
▁책임지지	-12798
▁책임회피	-12799
▁청취하고	-12800
▁출근하는	-12801
▁커뮤니티	-12802
▁퇴근시간	-12803
▁팀원들은	-12804
▁편안하게	-12805
▁포함해서	-12806
▁피로도가	-12807
▁피어리뷰	-12808
▁해결책을	-12809
▁확인해야	-12810
▁회사라는	-12811
▁효과적일	-12812
▁후보등록	-12813
sation	-12814
verage	-12815
▁event	-12816
▁study	-12817
▁감사드리며	-12818
▁공동의목표	-12819
▁구성원끼리	-12820
▁근로시간이	-12821
▁만들어가는	-12822
▁많아졌으면	-12823
▁무조건적인	-12824
▁물리적으로	-12825
▁변화되어야	-12826
▁부서에서는	-12827
▁부탁드려요	-12828
▁부탁드리며	-12829
▁불가합니다	-12830
▁상식적으로	-12831
▁새로운기술	-12832
▁생각했는데	-12833
▁성공적으로	-12834
▁스트레스가	-12835
▁실무자에게	-12836
▁아직까지는	-12837
▁업무특성상	-12838
▁여러분들의	-12839
▁요구사항에	-12840
▁유연한조직	-12841
▁의견입니다	-12842
▁이야기하는	-12843
▁이해하려는	-12844
▁조금이나마	-12845
▁조직구조를	-12846
▁조직적으로	-12847
▁중요정보가	-12848
▁취업규칙을	-12849
▁취업규칙의	-12850
▁측면에서는	-12851
▁타조직과의	-12852
▁통상임금은	-12853
▁팀원들간의	-12854
▁필요해보임	-12855
▁휴일근로에	-12856
▁domain	-12857
▁lesson	-12858
▁가져주셨으면	-12859
▁구성원으로써	-12860
▁보내드립니다	-12861
▁보안프로그램	-12862
▁보여주셨으면	-12863
▁불가능합니다	-12864
▁사과드립니다	-12865
▁외부프로젝트	-12866
▁포괄임금제란	-12867
▁control	-12868
▁마찬가지입니다	-12869
▁자기주도적으로	-12870
▁통상임금이라는	-12871
▁제조인프라혁신팀	-12872
▁선거관리위원회에서	-12873
communication	-12874
,2	-12875
29	-12876
41	-12877
49	-12878
55	-12879
69	-12880
88	-12881
89	-12882
na	-12883
xt	-12884
▁▣	-12885
▁걍	-12886
▁깎	-12887
▁꺽	-12888
▁뉘	-12889
▁돋	-12890
▁둥	-12891
▁땐	-12892
▁맹	-12893
▁삐	-12894
▁셈	-12895
▁액	-12896
▁왈	-12897
▁짤	-12898
▁촛	-12899
▁컸	-12900
▁틈	-12901
▁핫	-12902
▁훔	-12903
▁흙	-12904
검색	-12905
공개	-12906
관념	-12907
국에	-12908
권에	-12909
그때	-12910
근거	-12911
글이	-12912
내어	-12913
노라	-12914
느니	-12915
다만	-12916
도의	-12917
됨을	-12918
드가	-12919
듣고	-12920
등과	-12921
려나	-12922
롭지	-12923
마감	-12924
말로	-12925
맞추	-12926
멘트	-12927
명도	-12928
모든	-12929
무실	-12930
무지	-12931
민관	-12932
바닥	-12933
바쁘	-12934
박한	-12935
방해	-12936
버전	-12937
법과	-12938
보완	-12939
봐요	-12940
비앤	-12941
사는	-12942
생님	-12943
석이	-12944
스포	-12945
시켰	-12946
시피	-12947
아직	-12948
야근	-12949
양소	-12950
어린	-12951
업이	-12952
없어	-12953
연에	-12954
외로	-12955
용한	-12956
월은	-12957
웠음	-12958
으실	-12959
은색	-12960
의성	-12961
이긴	-12962
이유	-12963
이의	-12964
이즈	-12965
이틀	-12966
일뿐	-12967
있던	-12968
장려	-12969
재무	-12970
저것	-12971
적을	-12972
전용	-12973
정기	-12974
정치	-12975
제조	-12976
조성	-12977
증빙	-12978
짐에	-12979
차는	-12980
차별	-12981
타임	-12982
티커	-12983
퍼런	-12984
평균	-12985
한을	-12986
해놓	-12987
해지	-12988
행동	-12989
회가	-12990
히면	-12991
:24	-12992
ary	-12993
▁01	-12994
▁1%	-12995
▁44	-12996
▁59	-12997
▁ct	-12998
▁qu	-12999
▁가라	-13000
▁가성	-13001
▁간격	-13002
▁간다	-13003
▁간주	-13004
▁강남	-13005
▁강도	-13006
▁거고	-13007
▁결혼	-13008
▁경로	-13009
▁고과	-13010
▁고른	-13011
▁곳을	-13012
▁공사	-13013
▁공조	-13014
▁공직	-13015
▁국정	-13016
▁기밀	-13017
▁끌려	-13018
▁내리	-13019
▁널널	-13020
▁높게	-13021
▁높여	-13022
▁누를	-13023
▁다툼	-13024
▁달력	-13025
▁담아	-13026
▁당근	-13027
▁독촉	-13028
▁돈도	-13029
▁동네	-13030
▁동시	-13031
▁될까	-13032
▁될듯	-13033
▁두는	-13034
▁등하	-13035
▁딱딱	-13036
▁마디	-13037
▁만원	-13038
▁멀어	-13039
▁멋진	-13040
▁메리	-13041
▁무게	-13042
▁미덕	-13043
▁미세	-13044
▁미숙	-13045
▁미칠	-13046
▁민첩	-13047
▁반바	-13048
▁받던	-13049
▁발탁	-13050
▁범죄	-13051
▁법은	-13052
▁베조	-13053
▁보실	-13054
▁보편	-13055
▁부대	-13056
▁부딪	-13057
▁부럽	-13058
▁비어	-13059
▁비워	-13060
▁뽑은	-13061
▁사양	-13062
▁산학	-13063
▁삼가	-13064
▁상응	-13065
▁선두	-13066
▁성추	-13067
▁세무	-13068
▁셋째	-13069
▁셋팅	-13070
▁소등	-13071
▁시는	-13072
▁신념	-13073
▁신생	-13074
▁아키	-13075
▁안그	-13076
▁안을	-13077
▁알리	-13078
▁어땠	-13079
▁역행	-13080
▁예년	-13081
▁오르	-13082
▁옳지	-13083
▁욕먹	-13084
▁우유	-13085
▁우측	-13086
▁위협	-13087
▁유의	-13088
▁의료	-13089
▁잃지	-13090
▁임대	-13091
▁작아	-13092
▁잡담	-13093
▁잡을	-13094
▁재편	-13095
▁저기	-13096
▁저러	-13097
▁적을	-13098
▁좋다	-13099
▁좌우	-13100
▁좌지	-13101
▁죽고	-13102
▁줄고	-13103
▁중재	-13104
▁중점	-13105
▁지경	-13106
▁직결	-13107
▁직전	-13108
▁집계	-13109
▁차선	-13110
▁찾으	-13111
▁채우	-13112
▁체제	-13113
▁최저	-13114
▁출시	-13115
▁충성	-13116
▁치는	-13117
▁친목	-13118
▁친화	-13119
▁코스	-13120
▁콤보	-13121
▁특화	-13122
▁패턴	-13123
▁평생	-13124
▁포지	-13125
▁한거	-13126
▁한심	-13127
▁할거	-13128
▁현격	-13129
▁호랑	-13130
▁활기	-13131
▁회신	-13132
가치가	-13133
거니와	-13134
건지는	-13135
겠느냐	-13136
공간에	-13137
과정에	-13138
과주의	-13139
교육과	-13140
나가야	-13141
다는게	-13142
단계가	-13143
때까지	-13144
떡같이	-13145
력으로	-13146
령으로	-13147
만원이	-13148
보고를	-13149
보상을	-13150
분이나	-13151
성과가	-13152
성장을	-13153
수준의	-13154
스토리	-13155
업무는	-13156
에맞는	-13157
역량과	-13158
역량의	-13159
원들의	-13160
위기간	-13161
위해서	-13162
으세요	-13163
인거죠	-13164
인만큼	-13165
인상이	-13166
일까지	-13167
일부로	-13168
일수록	-13169
일수에	-13170
있으면	-13171
자리를	-13172
자발적	-13173
장님이	-13174
지기도	-13175
지라도	-13176
쪽으로	-13177
출퇴근	-13178
플랫폼	-13179
하겠죠	-13180
하고요	-13181
하던데	-13182
하시나	-13183
하지요	-13184
하하는	-13185
해져서	-13186
해지면	-13187
했어야	-13188
협업이	-13189
형태의	-13190
홀딩스	-13191
휴가비	-13192
휴게실	-13193
aper	-13194
desk	-13195
erit	-13196
ient	-13197
ioom	-13198
load	-13199
udge	-13200
▁add	-13201
▁bar	-13202
▁gdc	-13203
▁gen	-13204
▁mot	-13205
▁sns	-13206
▁tco	-13207
▁tel	-13208
▁txt	-13209
▁‘16	-13210
▁가치와	-13211
▁간섭이	-13212
▁개별적	-13213
▁객관성	-13214
▁걱정도	-13215
▁검토와	-13216
▁격오지	-13217
▁결과만	-13218
▁결정된	-13219
▁계신지	-13220
▁계획과	-13221
▁고착화	-13222
▁공개를	-13223
▁공통의	-13224
▁과다한	-13225
▁과제는	-13226
▁구조에	-13227
▁구조적	-13228
▁국내외	-13229
▁그것은	-13230
▁그다지	-13231
▁그들의	-13232
▁그런것	-13233
▁근거도	-13234
▁근무제	-13235
▁글들을	-13236
▁글번호	-13237
▁기대함	-13238
▁기여한	-13239
▁김경희	-13240
▁내리는	-13241
▁누구는	-13242
▁눈으로	-13243
▁다루는	-13244
▁다름이	-13245
▁다변화	-13246
▁다음주	-13247
▁당신의	-13248
▁대놓고	-13249
▁대책이	-13250
▁대화할	-13251
▁도무지	-13252
▁돌리는	-13253
▁동료가	-13254
▁되겠죠	-13255
▁드려요	-13256
▁드리며	-13257
▁드시는	-13258
▁들었던	-13259
▁들으면	-13260
▁등등등	-13261
▁따라가	-13262
▁따지는	-13263
▁때문이	-13264
▁리더에	-13265
▁리딩을	-13266
▁마시길	-13267
▁막말로	-13268
▁많은듯	-13269
▁많이들	-13270
▁맘대로	-13271
▁맞춤법	-13272
▁멘토링	-13273
▁몇가지	-13274
▁모두들	-13275
▁모르나	-13276
▁목표는	-13277
▁무서운	-13278
▁무시한	-13279
▁문서로	-13280
▁문자로	-13281
▁문제죠	-13282
▁바쁘신	-13283
▁바쁜데	-13284
▁박탈감	-13285
▁반대의	-13286
▁반말을	-13287
▁반하는	-13288
▁받았던	-13289
▁받았음	-13290
▁발표한	-13291
▁방법과	-13292
▁방법의	-13293
▁배려는	-13294
▁번호를	-13295
▁법으로	-13296
▁보고는	-13297
▁보고와	-13298
▁보관함	-13299
▁보완할	-13300
▁부서내	-13301
▁분기별	-13302
▁분석과	-13303
▁분야가	-13304
▁불만족	-13305
▁불분명	-13306
▁비롯한	-13307
▁비젼을	-13308
▁사례에	-13309
▁사업주	-13310
▁사연을	-13311
▁사원증	-13312
▁상사의	-13313
▁상태임	-13314
▁선배님	-13315
▁선임님	-13316
▁선택이	-13317
▁설명도	-13318
▁설명해	-13319
▁설문에	-13320
▁성향과	-13321
▁셔틀이	-13322
▁소개는	-13323
▁소리가	-13324
▁소문이	-13325
▁손가락	-13326
▁수당도	-13327
▁수당의	-13328
▁수요일	-13329
▁수정이	-13330
▁수주를	-13331
▁스킨십	-13332
▁스티커	-13333
▁시각과	-13334
▁시각이	-13335
▁시끄러	-13336
▁시대의	-13337
▁시야를	-13338
▁시행된	-13339
▁신뢰도	-13340
▁신뢰할	-13341
▁신청이	-13342
▁실행은	-13343
▁심기신	-13344
▁쌍방이	-13345
▁아니냐	-13346
▁아니한	-13347
▁아닌듯	-13348
▁안정성	-13349
▁안정적	-13350
▁안좋게	-13351
▁압박이	-13352
▁애정이	-13353
▁업체를	-13354
▁없지요	-13355
▁여력이	-13356
▁여부가	-13357
▁연계한	-13358
▁연구가	-13359
▁연차는	-13360
▁열정과	-13361
▁오픈된	-13362
▁옮겨야	-13363
▁요인이	-13364
▁요청할	-13365
▁용기가	-13366
▁우리를	-13367
▁운영과	-13368
▁위원장	-13369
▁위클리	-13370
▁윗분들	-13371
▁유지가	-13372
▁유형의	-13373
▁유효성	-13374
▁의견만	-13375
▁의혹을	-13376
▁이끌고	-13377
▁이래서	-13378
▁이력이	-13379
▁이슈는	-13380
▁이어질	-13381
▁이해의	-13382
▁익명이	-13383
▁인식의	-13384
▁인원에	-13385
▁인재가	-13386
▁일부의	-13387
▁일수를	-13388
▁일원화	-13389
▁일하다	-13390
▁일해도	-13391
▁읽어보	-13392
▁입장도	-13393
▁있다가	-13394
▁있으실	-13395
▁자회사	-13396
▁잡마켓	-13397
▁장애를	-13398
▁재구성	-13399
▁재선거	-13400
▁적기에	-13401
▁전사에	-13402
▁전체로	-13403
▁절실히	-13404
▁정규직	-13405
▁정의는	-13406
▁조부모	-13407
▁조속히	-13408
▁조차도	-13409
▁조합비	-13410
▁좋으면	-13411
▁좋은거	-13412
▁주위에	-13413
▁주장만	-13414
▁주제에	-13415
▁중에도	-13416
▁증설을	-13417
▁지금껏	-13418
▁지나서	-13419
▁지키면	-13420
▁직급의	-13421
▁진솔한	-13422
▁진짜로	-13423
▁쪽에서	-13424
▁차별화	-13425
▁책임지	-13426
▁챙기고	-13427
▁챙기기	-13428
▁처리를	-13429
▁체계로	-13430
▁체계와	-13431
▁측면에	-13432
▁친밀감	-13433
▁캠퍼스	-13434
▁타당한	-13435
▁탑다운	-13436
▁통행료	-13437
▁퇴근시	-13438
▁퇴직에	-13439
▁투명성	-13440
▁투자도	-13441
▁특정인	-13442
▁패러다	-13443
▁편중된	-13444
▁평가자	-13445
▁폐지를	-13446
▁포탈이	-13447
▁피로도	-13448
▁하던데	-13449
▁하시지	-13450
▁한하여	-13451
▁함부로	-13452
▁해주신	-13453
▁행사를	-13454
▁현상을	-13455
▁현실성	-13456
▁현실적	-13457
▁현저히	-13458
▁형식의	-13459
▁효력이	-13460
▁효율이	-13461
▁후배들	-13462
▁후보로	-13463
▁희망을	-13464
▁힘써야	-13465
구체적인	-13466
근로감독	-13467
노동뉴스	-13468
더스트리	-13469
동적으로	-13470
되었지만	-13471
로부터의	-13472
방식으로	-13473
방향으로	-13474
오피스로	-13475
이해관계	-13476
하시는지	-13477
했었는데	-13478
환경에서	-13479
atson	-13480
share	-13481
▁2008	-13482
▁arch	-13483
▁call	-13484
▁pool	-13485
▁가족초청	-13486
▁감수해야	-13487
▁감안하여	-13488
▁갖추어야	-13489
▁개인주의	-13490
▁경력사원	-13491
▁경조휴가	-13492
▁고민해야	-13493
▁공감대가	-13494
▁관계사의	-13495
▁관심있는	-13496
▁교육이나	-13497
▁구조에서	-13498
▁극대화를	-13499
▁근무자가	-13500
▁근무제도	-13501
▁근무중인	-13502
▁기술개발	-13503
▁기술교육	-13504
▁기업들이	-13505
▁깔끔하게	-13506
▁꼼꼼하게	-13507
▁내재화가	-13508
▁내재화를	-13509
▁넘어가면	-13510
▁노동자가	-13511
▁논합니다	-13512
▁누구에게	-13513
▁다르다고	-13514
▁대상자의	-13515
▁도전의식	-13516
▁동의없이	-13517
▁되었는지	-13518
▁들어가면	-13519
▁따라가지	-13520
▁때문인지	-13521
▁떨어져서	-13522
▁떨어진다	-13523
▁리더십의	-13524
▁리소스가	-13525
▁리소스의	-13526
▁마련하여	-13527
▁모바일로	-13528
▁목표달성	-13529
▁무분별한	-13530
▁물어보는	-13531
▁민주적인	-13532
▁받는다고	-13533
▁받아들일	-13534
▁발생되지	-13535
▁발생했을	-13536
▁발송하는	-13537
▁변화하지	-13538
▁보상휴가	-13539
▁보완하면	-13540
▁보장하는	-13541
▁본부장이	-13542
▁부분인데	-13543
▁분위기로	-13544
▁불리하게	-13545
▁불명확한	-13546
▁불안감을	-13547
▁불쾌감을	-13548
▁사라지는	-13549
▁사물함을	-13550
▁사업에서	-13551
▁사용되는	-13552
▁사용자측	-13553
▁사용해서	-13554
▁사익추구	-13555
▁사항들을	-13556
▁생각나서	-13557
▁생겼으면	-13558
▁생깁니다	-13559
▁선거에서	-13560
▁선임들이	-13561
▁선임에게	-13562
▁선호하는	-13563
▁성과에만	-13564
▁소유자는	-13565
▁솔루션이	-13566
▁수립하여	-13567
▁수석승진	-13568
▁수용하고	-13569
▁스스로가	-13570
▁스타필드	-13571
▁시도하는	-13572
▁심사위원	-13573
▁심포니가	-13574
▁싶어하는	-13575
▁아니기에	-13576
▁아니에요	-13577
▁아마존이	-13578
▁악의적인	-13579
▁안합니다	-13580
▁안했으면	-13581
▁알겠는데	-13582
▁양동완의	-13583
▁어려우니	-13584
▁어울리는	-13585
▁얼마전에	-13586
▁업무부여	-13587
▁업무지원	-13588
▁없어지는	-13589
▁없었지만	-13590
▁없음에도	-13591
▁에너지를	-13592
▁에어비앤	-13593
▁연봉동결	-13594
▁연봉제로	-13595
▁예전부터	-13596
▁예전처럼	-13597
▁올해부터	-13598
▁요청으로	-13599
▁요청하신	-13600
▁우리보다	-13601
▁운영으로	-13602
▁원인파악	-13603
▁위반하여	-13604
▁위치에서	-13605
▁의견제시	-13606
▁의미없는	-13607
▁이것저것	-13608
▁이기적인	-13609
▁이뤄져야	-13610
▁이미지를	-13611
▁이외에도	-13612
▁이후에는	-13613
▁인사이트	-13614
▁인원수가	-13615
▁인적자원	-13616
▁일에대한	-13617
▁일정으로	-13618
▁일하는데	-13619
▁임금산정	-13620
▁임금지급	-13621
▁있겠지요	-13622
▁있는지에	-13623
▁있었나요	-13624
▁자연스레	-13625
▁저성과자	-13626
▁저에게는	-13627
▁적절하지	-13628
▁전략제시	-13629
▁전문기술	-13630
▁정부에서	-13631
▁제공하지	-13632
▁제도적인	-13633
▁제한하는	-13634
▁조직마다	-13635
▁조직이나	-13636
▁조합원의	-13637
▁좋아지고	-13638
▁좌지우지	-13639
▁주말에도	-13640
▁주어져야	-13641
▁주차권이	-13642
▁준비하신	-13643
▁중심에서	-13644
▁중요한데	-13645
▁지양하고	-13646
▁지원해주	-13647
▁직원들에	-13648
▁직원들을	-13649
▁직위체계	-13650
▁진행사항	-13651
▁집중해야	-13652
▁차지하고	-13653
▁참고하여	-13654
▁초등학교	-13655
▁칭찬하고	-13656
▁카페포유	-13657
▁캔미팅을	-13658
▁팀장님도	-13659
▁팀장이나	-13660
▁파트너십	-13661
▁평가방식	-13662
▁포인트가	-13663
▁하겠으며	-13664
▁하나라도	-13665
▁하시나요	-13666
▁하시면서	-13667
▁하십니다	-13668
▁하였지만	-13669
▁합의여부	-13670
▁항문가글	-13671
▁해야할지	-13672
▁해주시고	-13673
▁핵심기술	-13674
▁허심탄회	-13675
▁현장경영	-13676
▁형평성에	-13677
▁혹시라도	-13678
▁확대하여	-13679
▁활동들이	-13680
▁활용해서	-13681
▁회사라고	-13682
▁효율적일	-13683
▁휴식시간	-13684
▁휴지통을	-13685
휴일근로가	-13686
market	-13687
▁ideas	-13688
▁likes	-13689
▁가능할까요	-13690
▁가졌습니다	-13691
▁구성원의견	-13692
▁근무시간을	-13693
▁다양한외부	-13694
▁되겠습니까	-13695
▁때문이라고	-13696
▁모르겠어요	-13697
▁문제해결을	-13698
▁바램입니다	-13699
▁바탕으로한	-13700
▁받아들이고	-13701
▁받아들이지	-13702
▁부득이하게	-13703
▁부서간업무	-13704
▁비밀번호를	-13705
▁비즈니스를	-13706
▁산업혁명에	-13707
▁생각하는지	-13708
▁생각하세요	-13709
▁서비스사업	-13710
▁선출하도록	-13711
▁소프트웨어	-13712
▁수고하세요	-13713
▁신기술관련	-13714
▁실시간으로	-13715
▁실정입니다	-13716
▁않으셨으면	-13717
▁어렵겠지만	-13718
▁연락주시가	-13719
▁외부전문가	-13720
▁우리회사에	-13721
▁위원선거인	-13722
▁위해서라도	-13723
▁이기주의가	-13724
▁인력팀에서	-13725
▁일반적으로	-13726
▁있겠습니까	-13727
▁조직에서는	-13728
▁좋았습니다	-13729
▁죄송하다는	-13730
▁지급했는지	-13731
▁진행하면서	-13732
▁찬성입니다	-13733
▁최소화하고	-13734
▁컴플라이언	-13735
▁판단하였음	-13736
▁프로그램을	-13737
▁헬스센터를	-13738
▁회사에서도	-13739
▁회원가입을	-13740
▁휴식시간을	-13741
ference	-13742
service	-13743
▁nateon	-13744
▁speedy	-13745
▁개선이필요한	-13746
▁공유오피스를	-13747
▁구성원위원의	-13748
▁기술중심의회	-13749
▁남겨주시거나	-13750
▁매일노동뉴스	-13751
▁방해하여서는	-13752
▁알고있습니다	-13753
▁엘리베이터에	-13754
▁연차수당으로	-13755
▁인력관리규정	-13756
▁통상임금에서	-13757
▁개선하겠습니다	-13758
▁구성원개개인에	-13759
▁구성원의의견을	-13760
▁근로기준법상의	-13761
▁솔루션사업부문	-13762
▁적용하였습니다	-13763
▁intimacy	-13764
▁fridaymarch	-13765
▁collaboration	-13766
27	-13767
ak	-13768
df	-13769
fi	-13770
km	-13771
li	-13772
no	-13773
od	-13774
oo	-13775
▁곱	-13776
▁껄	-13777
▁꿀	-13778
▁놨	-13779
▁딥	-13780
▁란	-13781
▁묘	-13782
▁봉	-13783
▁엎	-13784
▁옥	-13785
▁왼	-13786
▁웬	-13787
▁윤	-13788
▁짚	-13789
▁춥	-13790
▁템	-13791
▁폈	-13792
▁헷	-13793
▁혈	-13794
而不	-13795
강제	-13796
거래	-13797
검사	-13798
겨서	-13799
경을	-13800
계열	-13801
고기	-13802
과연	-13803
구만	-13804
구축	-13805
권위	-13806
그런	-13807
근태	-13808
글은	-13809
급지	-13810
기다	-13811
기며	-13812
까진	-13813
날이	-13814
널티	-13815
년치	-13816
다기	-13817
다나	-13818
담배	-13819
대만	-13820
도와	-13821
두가	-13822
들지	-13823
떻게	-13824
루어	-13825
매너	-13826
메시	-13827
명씩	-13828
모습	-13829
모호	-13830
보가	-13831
상호	-13832
새끼	-13833
설을	-13834
세를	-13835
소속	-13836
속한	-13837
수익	-13838
수저	-13839
스텝	-13840
실로	-13841
앞의	-13842
약이	-13843
연수	-13844
왔던	-13845
이번	-13846
일때	-13847
일터	-13848
임자	-13849
자산	-13850
저래	-13851
전담	-13852
정확	-13853
제출	-13854
주간	-13855
진한	-13856
집합	-13857
참법	-13858
창구	-13859
책이	-13860
챌린	-13861
체제	-13862
크게	-13863
특별	-13864
패스	-13865
포괄	-13866
표현	-13867
품이	-13868
하네	-13869
학생	-13870
한것	-13871
해져	-13872
해졌	-13873
회식	-13874
히기	-13875
힘든	-13876
apr	-13877
car	-13878
edn	-13879
loc	-13880
pjt	-13881
ues	-13882
ule	-13883
▁00	-13884
▁cd	-13885
▁gt	-13886
▁mb	-13887
▁of	-13888
▁pt	-13889
▁sl	-13890
▁ui	-13891
▁ww	-13892
▁ᄃᄃ	-13893
▁가볍	-13894
▁각기	-13895
▁감기	-13896
▁강좌	-13897
▁강행	-13898
▁건너	-13899
▁걸릴	-13900
▁결산	-13901
▁골라	-13902
▁공상	-13903
▁공시	-13904
▁공중	-13905
▁공표	-13906
▁공헌	-13907
▁관객	-13908
▁권고	-13909
▁권역	-13910
▁귀걸	-13911
▁그를	-13912
▁근시	-13913
▁글과	-13914
▁기득	-13915
▁꼬박	-13916
▁끈질	-13917
▁끝에	-13918
▁끼쳐	-13919
▁남길	-13920
▁낮고	-13921
▁넓혀	-13922
▁넘치	-13923
▁노래	-13924
▁놀고	-13925
▁높지	-13926
▁누굴	-13927
▁뉘앙	-13928
▁다닌	-13929
▁다닐	-13930
▁다투	-13931
▁단독	-13932
▁단편	-13933
▁달고	-13934
▁답습	-13935
▁대대	-13936
▁대폭	-13937
▁더러	-13938
▁때만	-13939
▁런칭	-13940
▁마침	-13941
▁막내	-13942
▁만날	-13943
▁만만	-13944
▁만회	-13945
▁맥북	-13946
▁모인	-13947
▁못찾	-13948
▁무한	-13949
▁물가	-13950
▁미만	-13951
▁밉보	-13952
▁박사	-13953
▁밖의	-13954
▁발췌	-13955
▁밝은	-13956
▁버벅	-13957
▁번의	-13958
▁법카	-13959
▁변함	-13960
▁별거	-13961
▁보람	-13962
▁보시	-13963
▁보조	-13964
▁보존	-13965
▁복귀	-13966
▁북측	-13967
▁분께	-13968
▁비대	-13969
▁빡빡	-13970
▁살고	-13971
▁새해	-13972
▁선언	-13973
▁설을	-13974
▁성의	-13975
▁성질	-13976
▁소싱	-13977
▁수와	-13978
▁쉽고	-13979
▁스펙	-13980
▁슬프	-13981
▁안돼	-13982
▁않겠	-13983
▁앞의	-13984
▁언어	-13985
▁얻은	-13986
▁얽매	-13987
▁엉망	-13988
▁연간	-13989
▁오너	-13990
▁옵션	-13991
▁왠지	-13992
▁욕을	-13993
▁우호	-13994
▁유머	-13995
▁유휴	-13996
▁이성	-13997
▁일견	-13998
▁자괴	-13999
▁작게	-14000
▁장마	-14001
▁장을	-14002
▁재직	-14003
▁쟁의	-14004
▁저번	-14005
▁전쟁	-14006
▁전출	-14007
▁제로	-14008
▁존속	-14009
▁주문	-14010
▁주에	-14011
▁중소	-14012
▁쥐고	-14013
▁지킬	-14014
▁지킵	-14015
▁직면	-14016
▁진작	-14017
▁진전	-14018
▁진화	-14019
▁짐작	-14020
▁징역	-14021
▁차분	-14022
▁차후	-14023
▁창조	-14024
▁철수	-14025
▁촬영	-14026
▁추상	-14027
▁출신	-14028
▁층에	-14029
▁탁구	-14030
▁탈의	-14031
▁통로	-14032
▁폭이	-14033
▁표를	-14034
▁하라	-14035
▁하러	-14036
▁함에	-14037
▁합쳐	-14038
▁해는	-14039
▁형편	-14040
▁혼재	-14041
▁회유	-14042
▁후속	-14043
▁훈련	-14044
▁휠체	-14045
가치를	-14046
같네요	-14047
거라면	-14048
경험이	-14049
공간이	-14050
과제에	-14051
권한을	-14052
기업이	-14053
기준급	-14054
나가는	-14055
는지는	-14056
다는데	-14057
되므로	-14058
되었음	-14059
들처럼	-14060
따라서	-14061
런지요	-14062
렸다고	-14063
리소스	-14064
발전에	-14065
방향과	-14066
번호로	-14067
변화의	-14068
보상이	-14069
봅시다	-14070
부문의	-14071
부장의	-14072
비용은	-14073
사용자	-14074
셨지만	-14075
안에서	-14076
았다고	-14077
연봉이	-14078
운영을	-14079
육성을	-14080
이거나	-14081
이기도	-14082
이라기	-14083
이상을	-14084
이아닌	-14085
일처리	-14086
있는건	-14087
작업이	-14088
장이신	-14089
져있는	-14090
지부지	-14091
지않고	-14092
지않은	-14093
집중할	-14094
초부터	-14095
트랜드	-14096
팀이나	-14097
플레이	-14098
하군요	-14099
하시니	-14100
할때는	-14101
해야죠	-14102
환경이	-14103
히거나	-14104
힙니다	-14105
1735	-14106
2019	-14107
data	-14108
▁070	-14109
▁how	-14110
▁key	-14111
▁mem	-14112
▁oms	-14113
▁poc	-14114
▁pos	-14115
▁tow	-14116
▁ver	-14117
▁www	-14118
▁가보면	-14119
▁가상화	-14120
▁가속화	-14121
▁간섭할	-14122
▁갈등을	-14123
▁감성적	-14124
▁강제화	-14125
▁갖춰야	-14126
▁같으니	-14127
▁개선될	-14128
▁개정을	-14129
▁것들도	-14130
▁것들에	-14131
▁것에는	-14132
▁겠다는	-14133
▁결국엔	-14134
▁결정은	-14135
▁결정할	-14136
▁경우만	-14137
▁경협의	-14138
▁계산한	-14139
▁계시지	-14140
▁계획은	-14141
▁고성과	-14142
▁공기질	-14143
▁공유는	-14144
▁관리로	-14145
▁관점과	-14146
▁괜찮을	-14147
▁교차로	-14148
▁구매할	-14149
▁구성을	-14150
▁구하고	-14151
▁귀찮게	-14152
▁그때는	-14153
▁그룹에	-14154
▁급격한	-14155
▁기사에	-14156
▁기술은	-14157
▁기회로	-14158
▁꼼꼼한	-14159
▁끝내고	-14160
▁나가고	-14161
▁나아지	-14162
▁낮다고	-14163
▁넘는데	-14164
▁노동법	-14165
▁노조도	-14166
▁놓치는	-14167
▁누구의	-14168
▁누락된	-14169
▁능력에	-14170
▁다녀오	-14171
▁다르다	-14172
▁담배피	-14173
▁당연시	-14174
▁당하고	-14175
▁대우가	-14176
▁동안의	-14177
▁되기도	-14178
▁되리라	-14179
▁되었음	-14180
▁될텐데	-14181
▁됩니까	-14182
▁뒷자리	-14183
▁들기도	-14184
▁따라갈	-14185
▁떠나는	-14186
▁떠들고	-14187
▁만약에	-14188
▁많았음	-14189
▁맞다는	-14190
▁맞추고	-14191
▁맞추는	-14192
▁맡기고	-14193
▁매너가	-14194
▁매출에	-14195
▁먹거리	-14196
▁면에서	-14197
▁몇년전	-14198
▁모범을	-14199
▁모으는	-14200
▁몰입할	-14201
▁무작정	-14202
▁묵묵히	-14203
▁문서의	-14204
▁미세먼	-14205
▁바꾸어	-14206
▁바람에	-14207
▁바로는	-14208
▁반감을	-14209
▁받는게	-14210
▁받아도	-14211
▁받았을	-14212
▁받을수	-14213
▁발빠른	-14214
▁발휘가	-14215
▁방지를	-14216
▁배터리	-14217
▁버스를	-14218
▁보라고	-14219
▁보이기	-14220
▁복잡함	-14221
▁본다면	-14222
▁부문간	-14223
▁부정적	-14224
▁불신을	-14225
▁불안정	-14226
▁불특정	-14227
▁붙어서	-14228
▁비교할	-14229
▁비전과	-14230
▁비전에	-14231
▁비정상	-14232
▁비추어	-14233
▁사규만	-14234
▁사생활	-14235
▁사실로	-14236
▁사실에	-14237
▁사안이	-14238
▁사유는	-14239
▁사항의	-14240
▁산업에	-14241
▁상급자	-14242
▁상기와	-14243
▁상당수	-14244
▁상처를	-14245
▁서울고	-14246
▁선거도	-14247
▁선거와	-14248
▁선거일	-14249
▁선배가	-14250
▁선택한	-14251
▁선후배	-14252
▁설득을	-14253
▁설정에	-14254
▁섬세한	-14255
▁성추행	-14256
▁세상이	-14257
▁셀프디	-14258
▁소극적	-14259
▁소매업	-14260
▁소송비	-14261
▁소식이	-14262
▁수렴을	-14263
▁수립을	-14264
▁수밖에	-14265
▁쉽지는	-14266
▁스토리	-14267
▁승인이	-14268
▁시도는	-14269
▁시야가	-14270
▁식사를	-14271
▁실력이	-14272
▁실무에	-14273
▁실무진	-14274
▁실적과	-14275
▁실제는	-14276
▁실패가	-14277
▁아키텍	-14278
▁안내나	-14279
▁안되니	-14280
▁않거나	-14281
▁않기로	-14282
▁언젠가	-14283
▁얻어야	-14284
▁얼굴을	-14285
▁엄격한	-14286
▁업무과	-14287
▁업체와	-14288
▁없기를	-14289
▁없어질	-14290
▁없어짐	-14291
▁없으시	-14292
▁예산을	-14293
▁예상됨	-14294
▁오른쪽	-14295
▁오픈을	-14296
▁오해와	-14297
▁올라와	-14298
▁외부로	-14299
▁용도로	-14300
▁월급은	-14301
▁유치원	-14302
▁의구심	-14303
▁의도와	-14304
▁의무는	-14305
▁의무를	-14306
▁이득이	-14307
▁이러면	-14308
▁이런것	-14309
▁이의가	-14310
▁이의를	-14311
▁이하로	-14312
▁인상율	-14313
▁일원이	-14314
▁일일히	-14315
▁일종의	-14316
▁일주일	-14317
▁임금과	-14318
▁임금의	-14319
▁임원급	-14320
▁임원을	-14321
▁있느냐	-14322
▁있지도	-14323
▁작년과	-14324
▁작성을	-14325
▁작성해	-14326
▁장비를	-14327
▁재배정	-14328
▁재활용	-14329
▁저같은	-14330
▁적다는	-14331
▁전달이	-14332
▁전제로	-14333
▁절차로	-14334
▁점진적	-14335
▁정도면	-14336
▁정책과	-14337
▁제약을	-14338
▁조언을	-14339
▁조회가	-14340
▁주기를	-14341
▁주제는	-14342
▁줄어든	-14343
▁중복된	-14344
▁즐겁게	-14345
▁증가로	-14346
▁지금이	-14347
▁지급에	-14348
▁지급이	-14349
▁지향적	-14350
▁직무를	-14351
▁진급에	-14352
▁진급턱	-14353
▁진행중	-14354
▁질문을	-14355
▁징계를	-14356
▁쪼개서	-14357
▁챙기지	-14358
▁첫인사	-14359
▁체계화	-14360
▁초점을	-14361
▁최근화	-14362
▁최선의	-14363
▁최적화	-14364
▁측정이	-14365
▁커피를	-14366
▁케이블	-14367
▁쿨비즈	-14368
▁키우고	-14369
▁키우기	-14370
▁타팀과	-14371
▁탁월한	-14372
▁태도로	-14373
▁태도를	-14374
▁통화를	-14375
▁투표는	-14376
▁투표자	-14377
▁팀으로	-14378
▁팀장간	-14379
▁팀전체	-14380
▁파악과	-14381
▁판단은	-14382
▁판단의	-14383
▁편향된	-14384
▁평준화	-14385
▁피부로	-14386
▁필요없	-14387
▁하듯이	-14388
▁하루만	-14389
▁하여금	-14390
▁한해의	-14391
▁할때가	-14392
▁할지도	-14393
▁해서는	-14394
▁했네요	-14395
▁행사에	-14396
▁허리가	-14397
▁현황에	-14398
▁협조해	-14399
▁형태가	-14400
▁호미로	-14401
▁확고한	-14402
▁확률이	-14403
▁확인된	-14404
▁활용에	-14405
▁회의나	-14406
▁후보를	-14407
▁흩어져	-14408
▁희생을	-14409
근무시간	-14410
근무하는	-14411
급여체계	-14412
도전적인	-14413
되었음을	-14414
들에게도	-14415
방향성과	-14416
방향성에	-14417
분들께서	-14418
스럽네요	-14419
시적으로	-14420
실질적인	-14421
에서부터	-14422
위기간을	-14423
이니까요	-14424
차선에서	-14425
평가제도	-14426
포괄임금	-14427
하는것도	-14428
하였지만	-14429
할수있는	-14430
april	-14431
ednes	-14432
ility	-14433
ivity	-14434
ollow	-14435
owork	-14436
trend	-14437
▁line	-14438
▁list	-14439
▁real	-14440
▁wifi	-14441
▁가능하면	-14442
▁가져가고	-14443
▁간략하게	-14444
▁개념으로	-14445
▁개방적인	-14446
▁개선되면	-14447
▁개선하고	-14448
▁거짓말을	-14449
▁경쟁사에	-14450
▁계산해서	-14451
▁고려하고	-14452
▁고려하면	-14453
▁공유하기	-14454
▁관계없는	-14455
▁교육비를	-14456
▁구조적인	-14457
▁그러시는	-14458
▁근무지가	-14459
▁근무하면	-14460
▁글쓴이가	-14461
▁금액으로	-14462
▁기획담당	-14463
▁나머지는	-14464
▁나아가는	-14465
▁내에서는	-14466
▁내용인데	-14467
▁노동시간	-14468
▁논리라면	-14469
▁논리적인	-14470
▁논의되고	-14471
▁높습니다	-14472
▁높아지는	-14473
▁높였으면	-14474
▁느껴지지	-14475
▁느낌이다	-14476
▁느립니다	-14477
▁늘렸으면	-14478
▁다니면서	-14479
▁다양성을	-14480
▁대외사업	-14481
▁도전하고	-14482
▁동료들이	-14483
▁동의하고	-14484
▁리더로써	-14485
▁리더십도	-14486
▁마인드를	-14487
▁만족도가	-14488
▁만족스럽	-14489
▁많으셨고	-14490
▁많은데요	-14491
▁말씀대로	-14492
▁명목으로	-14493
▁모니터가	-14494
▁모든것을	-14495
▁못한다고	-14496
▁물어보고	-14497
▁미달하는	-14498
▁민감하게	-14499
▁민주노총	-14500
▁믿습니다	-14501
▁바꾸어야	-14502
▁바뀌어서	-14503
▁변경되어	-14504
▁보관하고	-14505
▁보궐위원	-14506
▁보내세요	-14507
▁보냅니다	-14508
▁보셨으면	-14509
▁보여주고	-14510
▁보이지만	-14511
▁부당노동	-14512
▁부문이나	-14513
▁부장님이	-14514
▁부적절한	-14515
▁부족해보	-14516
▁분야에서	-14517
▁불가피한	-14518
▁불편하셨	-14519
▁비교해서	-14520
▁빠른의사	-14521
▁사람들과	-14522
▁사물함에	-14523
▁사용하신	-14524
▁사용하여	-14525
▁사이트를	-14526
▁사항들이	-14527
▁산출물을	-14528
▁상대방에	-14529
▁상충되는	-14530
▁새로운시	-14531
▁서면으로	-14532
▁선거구가	-14533
▁선도하는	-14534
▁선제적인	-14535
▁성과만을	-14536
▁성과주의	-14537
▁세심하게	-14538
▁속에서도	-14539
▁솔루션에	-14540
▁수행중인	-14541
▁수행하여	-14542
▁수행해야	-14543
▁순간부터	-14544
▁순환근무	-14545
▁스스로도	-14546
▁시각으로	-14547
▁시스템과	-14548
▁시원하게	-14549
▁신경쓰지	-14550
▁신임팀장	-14551
▁신중하게	-14552
▁아니므로	-14553
▁안되는데	-14554
▁안된다는	-14555
▁않았을까	-14556
▁않으므로	-14557
▁알기로는	-14558
▁알려주신	-14559
▁야간근무	-14560
▁얼마되지	-14561
▁업무몰입	-14562
▁업무보고	-14563
▁업무와의	-14564
▁업무협조	-14565
▁없겠지요	-14566
▁없었는데	-14567
▁예약해서	-14568
▁예정되어	-14569
▁외부근무	-14570
▁요구되는	-14571
▁용인하는	-14572
▁운영인력	-14573
▁위반하는	-14574
▁유기적인	-14575
▁유연하지	-14576
▁유지되는	-14577
▁유지하고	-14578
▁의구심이	-14579
▁의사표시	-14580
▁이미지에	-14581
▁이어지고	-14582
▁이용하게	-14583
▁이정도면	-14584
▁인적역량	-14585
▁임금으로	-14586
▁있습니까	-14587
▁자신있게	-14588
▁자연이랑	-14589
▁자유롭고	-14590
▁작년에는	-14591
▁장려하는	-14592
▁잦은회의	-14593
▁저로서는	-14594
▁적극적일	-14595
▁점심식사	-14596
▁정책으로	-14597
▁제공한다	-14598
▁제공해야	-14599
▁제한적인	-14600
▁조삼모사	-14601
▁조정하는	-14602
▁조합원이	-14603
▁주신다면	-14604
▁주차장에	-14605
▁중에서도	-14606
▁중요하고	-14607
▁중요하다	-14608
▁지급함이	-14609
▁지연되는	-14610
▁직급전환	-14611
▁진행하기	-14612
▁책임감을	-14613
▁챙겨주는	-14614
▁초과하지	-14615
▁추진함에	-14616
▁출마하지	-14617
▁치중하고	-14618
▁캔미팅은	-14619
▁캔미팅이	-14620
▁커리어를	-14621
▁팀장님들	-14622
▁팀장님은	-14623
▁팀장에게	-14624
▁파트장님	-14625
▁평가하고	-14626
▁하반기에	-14627
▁하시네요	-14628
▁행복일터	-14629
▁협의하고	-14630
▁호불호가	-14631
▁확대하면	-14632
▁확보하여	-14633
▁힘드네요	-14634
기획팀에서	-14635
팀장입니다	-14636
anding	-14637
career	-14638
eeting	-14639
▁click	-14640
▁judge	-14641
▁manag	-14642
▁paper	-14643
▁개방적으로	-14644
▁객관적이고	-14645
▁경영진위원	-14646
▁경쟁력있는	-14647
▁공유되어야	-14648
▁공통적으로	-14649
▁과감한실행	-14650
▁구내식당이	-14651
▁구성원여러	-14652
▁근무하면서	-14653
▁기술변화에	-14654
▁기술역량을	-14655
▁기자회견을	-14656
▁마련되어야	-14657
▁명확한방향	-14658
▁무엇일까요	-14659
▁법인카드가	-14660
▁법인카드로	-14661
▁보완되어야	-14662
▁불편하지만	-14663
▁사업에대한	-14664
▁사업조직과	-14665
▁삭제합니다	-14666
▁상대평가를	-14667
▁생각나네요	-14668
▁생각되네요	-14669
▁생각하시면	-14670
▁선거만큼은	-14671
▁성과보다는	-14672
▁시작합니다	-14673
▁실제적으로	-14674
▁심신수련실	-14675
▁않겠습니까	-14676
▁양부장님의	-14677
▁양수석님이	-14678
▁어떠신가요	-14679
▁업무외적인	-14680
▁연락주시면	-14681
▁우리나라의	-14682
▁우선되어야	-14683
▁유관부서의	-14684
▁의견보다는	-14685
▁의무적으로	-14686
▁일시적으로	-14687
▁있더라구요	-14688
▁자연스러운	-14689
▁조직문화의	-14690
▁진행한다고	-14691
▁청소하시는	-14692
▁충분하다고	-14693
▁통상임금과	-14694
▁팀장님들은	-14695
▁프로젝트도	-14696
▁플라스틱이	-14697
▁해결하려는	-14698
▁혁신적전략	-14699
▁현실입니다	-14700
도중요하지만	-14701
eration	-14702
▁flexib	-14703
▁health	-14704
▁online	-14705
▁watson	-14706
▁wednes	-14707
▁계시더라구요	-14708
▁공유오피스로	-14709
▁구성원분들이	-14710
▁구성원스스로	-14711
▁근로기준법의	-14712
▁노사협의회는	-14713
▁문의합니다에	-14714
▁외부사이트에	-14715
▁자기주도적인	-14716
▁자동화시스템	-14717
▁잘못되었다고	-14718
▁전사차원에서	-14719
▁조직이기주의	-14720
▁진행되었으면	-14721
▁컴플라이언스	-14722
dayapril	-14723
▁myshare	-14724
▁planner	-14725
▁고생하셨습니다	-14726
▁기다리겠습니다	-14727
▁목표달성을위한	-14728
▁수고하셨습니다	-14729
▁activity	-14730
▁고생많으셨습니다	-14731
▁consensus	-14732
07	-14733
22	-14734
26	-14735
34	-14736
78	-14737
av	-14738
du	-14739
fl	-14740
hy	-14741
ix	-14742
tf	-14743
yn	-14744
▁껍	-14745
▁꽂	-14746
▁딜	-14747
▁멍	-14748
▁빙	-14749
▁졸	-14750
▁찔	-14751
▁찰	-14752
▁횡	-14753
▁흉	-14754
가로	-14755
가장	-14756
갖고	-14757
개입	-14758
경력	-14759
고정	-14760
곡히	-14761
관심	-14762
권은	-14763
그래	-14764
금융	-14765
급한	-14766
기게	-14767
긴다	-14768
내야	-14769
다란	-14770
단이	-14771
단지	-14772
단축	-14773
달이	-14774
대기	-14775
더러	-14776
더링	-14777
데체	-14778
두면	-14779
드렸	-14780
듣는	-14781
라미	-14782
래닛	-14783
레스	-14784
리사	-14785
림이	-14786
마련	-14787
맞게	-14788
매각	-14789
매일	-14790
먹은	-14791
면이	-14792
명인	-14793
무엇	-14794
문자	-14795
물질	-14796
방문	-14797
버튼	-14798
번의	-14799
복을	-14800
본인	-14801
부의	-14802
분한	-14803
비슷	-14804
비젼	-14805
사측	-14806
사퇴	-14807
서서	-14808
세가	-14809
수와	-14810
쉽게	-14811
스타	-14812
시니	-14813
식이	-14814
신거	-14815
실한	-14816
안녕	-14817
앤씨	-14818
약을	-14819
어가	-14820
얼마	-14821
업적	-14822
었죠	-14823
여건	-14824
영입	-14825
예정	-14826
오션	-14827
오픈	-14828
완료	-14829
원인	-14830
응답	-14831
의에	-14832
의지	-14833
이네	-14834
이던	-14835
이력	-14836
이사	-14837
인태	-14838
일과	-14839
임승	-14840
잘못	-14841
장고	-14842
저도	-14843
전의	-14844
제기	-14845
제화	-14846
준수	-14847
지니	-14848
지켜	-14849
직무	-14850
집에	-14851
쪽도	-14852
쪽은	-14853
차이	-14854
창립	-14855
책을	-14856
천이	-14857
축하	-14858
출장	-14859
탄소	-14860
통제	-14861
폐합	-14862
표는	-14863
하진	-14864
할꺼	-14865
할당	-14866
해짐	-14867
혹은	-14868
확충	-14869
희롱	-14870
희생	-14871
ame	-14872
fit	-14873
oms	-14874
ong	-14875
pth	-14876
ump	-14877
▁#5	-14878
▁58	-14879
▁87	-14880
▁9:	-14881
▁am	-14882
▁em	-14883
▁gx	-14884
▁nw	-14885
▁ux	-14886
▁간극	-14887
▁갈아	-14888
▁감액	-14889
▁거북	-14890
▁거야	-14891
▁거칠	-14892
▁걸러	-14893
▁격의	-14894
▁결심	-14895
▁겸비	-14896
▁겸손	-14897
▁경기	-14898
▁과로	-14899
▁교섭	-14900
▁구더	-14901
▁구심	-14902
▁구정	-14903
▁권력	-14904
▁그린	-14905
▁근원	-14906
▁근절	-14907
▁글자	-14908
▁기름	-14909
▁기안	-14910
▁기조	-14911
▁긴글	-14912
▁길고	-14913
▁까페	-14914
▁꼼수	-14915
▁끼어	-14916
▁나고	-14917
▁나니	-14918
▁남용	-14919
▁노완	-14920
▁누르	-14921
▁다독	-14922
▁다해	-14923
▁달지	-14924
▁답은	-14925
▁당한	-14926
▁대여	-14927
▁대장	-14928
▁대출	-14929
▁대피	-14930
▁데이	-14931
▁도적	-14932
▁독주	-14933
▁동조	-14934
▁들었	-14935
▁뜬금	-14936
▁뜻을	-14937
▁리플	-14938
▁마실	-14939
▁마찰	-14940
▁만연	-14941
▁맞물	-14942
▁맞이	-14943
▁매체	-14944
▁면도	-14945
▁몇자	-14946
▁몰래	-14947
▁못을	-14948
▁무급	-14949
▁무단	-14950
▁뭐죠	-14951
▁미명	-14952
▁믿어	-14953
▁밀착	-14954
▁바깥	-14955
▁바쁨	-14956
▁박수	-14957
▁박주	-14958
▁반차	-14959
▁버린	-14960
▁번개	-14961
▁벌금	-14962
▁보인	-14963
▁봐서	-14964
▁부각	-14965
▁부과	-14966
▁부스	-14967
▁부조	-14968
▁북쪽	-14969
▁비를	-14970
▁사범	-14971
▁사상	-14972
▁선전	-14973
▁세면	-14974
▁소변	-14975
▁소재	-14976
▁속해	-14977
▁손톱	-14978
▁수상	-14979
▁순식	-14980
▁술을	-14981
▁스캔	-14982
▁시건	-14983
▁시선	-14984
▁시청	-14985
▁시킨	-14986
▁식대	-14987
▁실상	-14988
▁실수	-14989
▁심는	-14990
▁씨앗	-14991
▁아내	-14992
▁아냐	-14993
▁악화	-14994
▁안받	-14995
▁않냐	-14996
▁알바	-14997
▁앞장	-14998
▁애자	-14999
▁어색	-15000
▁업종	-15001
▁에도	-15002
▁영원	-15003
▁예견	-15004
▁예기	-15005
▁예민	-15006
▁오버	-15007
▁오퍼	-15008
▁옮겼	-15009
▁와의	-15010
▁용납	-15011
▁웃고	-15012
▁월례	-15013
▁위축	-15014
▁유난	-15015
▁유통	-15016
▁음성	-15017
▁이점	-15018
▁임명	-15019
▁있슴	-15020
▁자수	-15021
▁잔여	-15022
▁잘라	-15023
▁재밌	-15024
▁재배	-15025
▁재정	-15026
▁저래	-15027
▁저조	-15028
▁접할	-15029
▁주가	-15030
▁주력	-15031
▁지능	-15032
▁지목	-15033
▁지에	-15034
▁지혜	-15035
▁참관	-15036
▁창고	-15037
▁채로	-15038
▁챌린	-15039
▁처한	-15040
▁철회	-15041
▁체력	-15042
▁체육	-15043
▁쳐다	-15044
▁촛불	-15045
▁최하	-15046
▁컨셉	-15047
▁컵을	-15048
▁코어	-15049
▁탁상	-15050
▁택배	-15051
▁테크	-15052
▁토너	-15053
▁틀려	-15054
▁틀에	-15055
▁판시	-15056
▁편견	-15057
▁편성	-15058
▁평과	-15059
▁하긴	-15060
▁한발	-15061
▁한줄	-15062
▁할듯	-15063
▁합당	-15064
▁해가	-15065
▁헷갈	-15066
▁황당	-15067
▁회수	-15068
▁후발	-15069
▁흡수	-15070
갔네요	-15071
개선할	-15072
거구요	-15073
결과는	-15074
계획을	-15075
계획이	-15076
과도한	-15077
권자가	-15078
기술력	-15079
기회를	-15080
년차에	-15081
는지에	-15082
다라는	-15083
답변이	-15084
대상자	-15085
돈으로	-15086
되기도	-15087
등급을	-15088
라든지	-15089
라인이	-15090
렸네요	-15091
리버리	-15092
문화에	-15093
방법에	-15094
방향은	-15095
버리고	-15096
봤으면	-15097
부족한	-15098
사서함	-15099
상에서	-15100
생각과	-15101
셨다면	-15102
속도가	-15103
스크림	-15104
시는게	-15105
압적인	-15106
았어요	-15107
앞에서	-15108
어가는	-15109
어도비	-15110
어떻게	-15111
업이나	-15112
오는데	-15113
외에도	-15114
의견에	-15115
이신지	-15116
이어서	-15117
인으로	-15118
일하게	-15119
자로서	-15120
적이면	-15121
전략에	-15122
정도의	-15123
정확한	-15124
중심이	-15125
중에도	-15126
지원을	-15127
지원팀	-15128
직책자	-15129
하더니	-15130
하라면	-15131
하리라	-15132
하시죠	-15133
하오니	-15134
한테는	-15135
해하는	-15136
했네요	-15137
했으며	-15138
협업에	-15139
확보에	-15140
효과를	-15141
ault	-15142
open	-15143
ordi	-15144
road	-15145
▁260	-15146
▁dev	-15147
▁emp	-15148
▁mri	-15149
▁mrr	-15150
▁nex	-15151
▁pdf	-15152
▁skb	-15153
▁가는게	-15154
▁가로막	-15155
▁가르쳐	-15156
▁가면서	-15157
▁가정의	-15158
▁가지만	-15159
▁간곡히	-15160
▁간절히	-15161
▁갔다가	-15162
▁갖춰져	-15163
▁개발한	-15164
▁건강도	-15165
▁건강이	-15166
▁건지요	-15167
▁걸어야	-15168
▁검색이	-15169
▁것임을	-15170
▁게이트	-15171
▁경력을	-15172
▁경쟁은	-15173
▁경향도	-15174
▁계산해	-15175
▁계신것	-15176
▁계신데	-15177
▁고객은	-15178
▁고민도	-15179
▁고정급	-15180
▁고쳐야	-15181
▁공모를	-15182
▁공유도	-15183
▁공적인	-15184
▁공평한	-15185
▁과거와	-15186
▁괴리감	-15187
▁교체를	-15188
▁구성과	-15189
▁구성은	-15190
▁구조와	-15191
▁규칙이	-15192
▁근거에	-15193
▁급여는	-15194
▁급진적	-15195
▁기분나	-15196
▁기업은	-15197
▁기회의	-15198
▁김인태	-15199
▁끼치는	-15200
▁나서는	-15201
▁나서지	-15202
▁나에게	-15203
▁내리면	-15204
▁노동청	-15205
▁논의할	-15206
▁높여야	-15207
▁누르고	-15208
▁느껴질	-15209
▁다르면	-15210
▁다른팀	-15211
▁다음은	-15212
▁다하고	-15213
▁답변할	-15214
▁대변할	-15215
▁대신에	-15216
▁대응력	-15217
▁대화는	-15218
▁대화창	-15219
▁댓글의	-15220
▁도데체	-15221
▁도중에	-15222
▁되거나	-15223
▁되는건	-15224
▁등등의	-15225
▁따로또	-15226
▁따지지	-15227
▁때에도	-15228
▁떨어뜨	-15229
▁마땅한	-15230
▁마시는	-15231
▁막대한	-15232
▁만나서	-15233
▁만족할	-15234
▁많아야	-15235
▁많은것	-15236
▁많은지	-15237
▁말들이	-15238
▁말씀해	-15239
▁맞다면	-15240
▁머리가	-15241
▁메뉴얼	-15242
▁메일과	-15243
▁메일의	-15244
▁명세표	-15245
▁모델로	-15246
▁모델을	-15247
▁모르게	-15248
▁목적인	-15249
▁무리수	-15250
▁무임승	-15251
▁문서화	-15252
▁문화적	-15253
▁미래는	-15254
▁밀어붙	-15255
▁바꾸지	-15256
▁바뀌게	-15257
▁바란다	-15258
▁받기도	-15259
▁발목을	-15260
▁방문자	-15261
▁방식도	-15262
▁방향도	-15263
▁배려심	-15264
▁버전을	-15265
▁벗어난	-15266
▁변경의	-15267
▁보안패	-15268
▁보험금	-15269
▁복지가	-15270
▁본부는	-15271
▁본부별	-15272
▁부여할	-15273
▁분들과	-15274
▁불공평	-15275
▁비용은	-15276
▁뿐더러	-15277
▁사과를	-15278
▁사업별	-15279
▁사이가	-15280
▁사정을	-15281
▁상대가	-15282
▁상사가	-15283
▁상세히	-15284
▁상황도	-15285
▁생활을	-15286
▁선거로	-15287
▁선순환	-15288
▁선출은	-15289
▁선택의	-15290
▁성공적	-15291
▁성공할	-15292
▁성희롱	-15293
▁세가지	-15294
▁소속된	-15295
▁소요될	-15296
▁소통존	-15297
▁소홀히	-15298
▁수립에	-15299
▁수면실	-15300
▁수석과	-15301
▁수익을	-15302
▁수차례	-15303
▁수행의	-15304
▁스케줄	-15305
▁스케쥴	-15306
▁슬로건	-15307
▁시끄럽	-15308
▁시대는	-15309
▁시작한	-15310
▁시점을	-15311
▁시켜야	-15312
▁신문기	-15313
▁신속히	-15314
▁신중한	-15315
▁실내온	-15316
▁실력과	-15317
▁심사를	-15318
▁심하게	-15319
▁쓰면서	-15320
▁아이삭	-15321
▁않았기	-15322
▁않은가	-15323
▁알기에	-15324
▁얘기도	-15325
▁어플리	-15326
▁업무강	-15327
▁업체에	-15328
▁여건이	-15329
▁여의치	-15330
▁역시나	-15331
▁연관된	-15332
▁연구를	-15333
▁연락이	-15334
▁예전의	-15335
▁오시는	-15336
▁올려야	-15337
▁완성도	-15338
▁왔는데	-15339
▁우리팀	-15340
▁운영의	-15341
▁위메프	-15342
▁위치를	-15343
▁유용한	-15344
▁유일한	-15345
▁융통성	-15346
▁의사가	-15347
▁이동한	-15348
▁이러다	-15349
▁이익에	-15350
▁이하의	-15351
▁인력도	-15352
▁인원수	-15353
▁인터뷰	-15354
▁일년에	-15355
▁일들은	-15356
▁일혁신	-15357
▁임금이	-15358
▁임기가	-15359
▁입체적	-15360
▁있기를	-15361
▁있는건	-15362
▁자격에	-15363
▁자격을	-15364
▁자격이	-15365
▁자녀가	-15366
▁자산을	-15367
▁자장은	-15368
▁자제해	-15369
▁자존감	-15370
▁자체도	-15371
▁잘못이	-15372
▁잡으러	-15373
▁저녁에	-15374
▁저하시	-15375
▁적었던	-15376
▁적용된	-15377
▁전제가	-15378
▁정착이	-15379
▁제안서	-15380
▁제안에	-15381
▁제안할	-15382
▁제한적	-15383
▁조성돼	-15384
▁조성에	-15385
▁조합의	-15386
▁종료후	-15387
▁종이컵	-15388
▁주거지	-15389
▁주관이	-15390
▁주의를	-15391
▁주장의	-15392
▁죽어라	-15393
▁준다고	-15394
▁준다면	-15395
▁준수를	-15396
▁중립성	-15397
▁지역구	-15398
▁지원한	-15399
▁진급이	-15400
▁집니다	-15401
▁집중력	-15402
▁창구가	-15403
▁책임에	-15404
▁처벌을	-15405
▁초부터	-15406
▁추진과	-15407
▁충전기	-15408
▁치우친	-15409
▁커다란	-15410
▁쾌적한	-15411
▁크기가	-15412
▁키워야	-15413
▁타조직	-15414
▁탄력적	-15415
▁토론방	-15416
▁토론이	-15417
▁퇴직금	-15418
▁투자로	-15419
▁투표도	-15420
▁팀이나	-15421
▁파일럿	-15422
▁파트간	-15423
▁파트의	-15424
▁판결을	-15425
▁판단해	-15426
▁편안한	-15427
▁편이다	-15428
▁포스터	-15429
▁한단계	-15430
▁한데요	-15431
▁한적이	-15432
▁할당된	-15433
▁할말이	-15434
▁해보는	-15435
▁해보자	-15436
▁해봐야	-15437
▁했었던	-15438
▁했으며	-15439
▁허용된	-15440
▁현실화	-15441
▁현장을	-15442
▁현행화	-15443
▁형성에	-15444
▁효과적	-15445
▁후에도	-15446
것입니다	-15447
구성원은	-15448
구성원을	-15449
기준으로	-15450
나보네요	-15451
담당자의	-15452
데스크에	-15453
되었다면	-15454
보고문화	-15455
사람들이	-15456
사업개발	-15457
사이트에	-15458
산화탄소	-15459
상으로는	-15460
시간으로	-15461
아닌가요	-15462
으니까요	-15463
자유로운	-15464
적이거나	-15465
적이지만	-15466
조직개편	-15467
창립기념	-15468
체적으로	-15469
테니까요	-15470
팀원들과	-15471
하기위한	-15472
혁신그룹	-15473
1735@	-15474
ative	-15475
▁appl	-15476
▁full	-15477
▁load	-15478
▁shar	-15479
▁가능성에	-15480
▁강력하게	-15481
▁개선하기	-15482
▁거시적인	-15483
▁건의사항	-15484
▁걸림돌이	-15485
▁걸립니다	-15486
▁것이구요	-15487
▁것이지만	-15488
▁게시글은	-15489
▁결재하고	-15490
▁경영목표	-15491
▁경영방식	-15492
▁경영진은	-15493
▁경영층은	-15494
▁경영층이	-15495
▁경우여야	-15496
▁고객사로	-15497
▁고객센터	-15498
▁고정관념	-15499
▁공유하지	-15500
▁공인인증	-15501
▁공평하게	-15502
▁관계에서	-15503
▁관리역량	-15504
▁관리해야	-15505
▁교육받을	-15506
▁교육훈련	-15507
▁교통비는	-15508
▁그러는데	-15509
▁근거자료	-15510
▁글에서는	-15511
▁금전적인	-15512
▁기반하여	-15513
▁낭비하고	-15514
▁노동관계	-15515
▁논의하고	-15516
▁논의하여	-15517
▁누구보다	-15518
▁눈치보기	-15519
▁늦어지는	-15520
▁다니시는	-15521
▁단순하게	-15522
▁담당부서	-15523
▁담당업무	-15524
▁답변으로	-15525
▁당시에는	-15526
▁당연하게	-15527
▁당연한거	-15528
▁대표이사	-15529
▁대표하여	-15530
▁도입하는	-15531
▁도입하여	-15532
▁독자적인	-15533
▁드렸지만	-15534
▁드리도록	-15535
▁드리지만	-15536
▁들립니다	-15537
▁떠넘기는	-15538
▁뜻입니다	-15539
▁리더십과	-15540
▁리더십에	-15541
▁리더에게	-15542
▁마인드로	-15543
▁마인드셋	-15544
▁만으로는	-15545
▁많아지는	-15546
▁많았는데	-15547
▁말죽거리	-15548
▁매도하는	-15549
▁먹거리를	-15550
▁명확해야	-15551
▁목표의식	-15552
▁못하면서	-15553
▁못한다는	-15554
▁문서작성	-15555
▁문제라기	-15556
▁문제라면	-15557
▁물어봐야	-15558
▁미들맨은	-15559
▁바람직한	-15560
▁박탈감이	-15561
▁받았지만	-15562
▁받으려면	-15563
▁받으면서	-15564
▁발견하지	-15565
▁방식에서	-15566
▁방향성은	-15567
▁병과주의	-15568
▁보고서를	-15569
▁보고하는	-15570
▁보상제도	-15571
▁보완되면	-15572
▁보장해야	-15573
▁복지혜택	-15574
▁본부에서	-15575
▁본인들은	-15576
▁부드러움	-15577
▁부문장이	-15578
▁부분들은	-15579
▁부분으로	-15580
▁부분이나	-15581
▁부서마다	-15582
▁부족하며	-15583
▁부족해서	-15584
▁부합하는	-15585
▁분실물을	-15586
▁비교하는	-15587
▁비효율적	-15588
▁빈번하게	-15589
▁사람들로	-15590
▁사무공간	-15591
▁사항으로	-15592
▁살아남기	-15593
▁살펴보면	-15594
▁상관없는	-15595
▁상급자의	-15596
▁상응하는	-15597
▁상하관계	-15598
▁생각나지	-15599
▁생각해야	-15600
▁서베이를	-15601
▁선거규정	-15602
▁선정하여	-15603
▁선출하는	-15604
▁소모적인	-15605
▁수렴하고	-15606
▁수석님은	-15607
▁수익구조	-15608
▁순식간에	-15609
▁스트레칭	-15610
▁식당에서	-15611
▁실무자가	-15612
▁심야근로	-15613
▁심지어는	-15614
▁심포니에	-15615
▁심합니다	-15616
▁써주세요	-15617
▁아니고요	-15618
▁아니어도	-15619
▁아니지요	-15620
▁아마존은	-15621
▁아침부터	-15622
▁안그래도	-15623
▁않는군요	-15624
▁않다보니	-15625
▁않았나요	-15626
▁않았는데	-15627
▁않으려는	-15628
▁알려주고	-15629
▁알려주는	-15630
▁어도비는	-15631
▁언급하는	-15632
▁업무량은	-15633
▁업무역량	-15634
▁없더군요	-15635
▁역지사지	-15636
▁연공서열	-15637
▁연관성이	-15638
▁연락하여	-15639
▁연봉내역	-15640
▁오픈소스	-15641
▁올렸는데	-15642
▁요청하면	-15643
▁우리끼리	-15644
▁운운하는	-15645
▁움직여야	-15646
▁움직이고	-15647
▁유명무실	-15648
▁응답하라	-15649
▁응원하고	-15650
▁이동으로	-15651
▁이런식의	-15652
▁이로인해	-15653
▁이야기할	-15654
▁이어지는	-15655
▁이해하지	-15656
▁이해해야	-15657
▁이현수차	-15658
▁인력에게	-15659
▁인력이동	-15660
▁인식하는	-15661
▁인신공격	-15662
▁인재들이	-15663
▁일하시는	-15664
▁입력하고	-15665
▁있는걸로	-15666
▁있다고는	-15667
▁있어보임	-15668
▁자가승인	-15669
▁자기보다	-15670
▁자산관리	-15671
▁자신감을	-15672
▁자율근무	-15673
▁자진사퇴	-15674
▁작년에도	-15675
▁작업하던	-15676
▁적용하기	-15677
▁전달되지	-15678
▁전문역량	-15679
▁전폭적인	-15680
▁정당하지	-15681
▁정리하고	-15682
▁정리하면	-15683
▁정밀하게	-15684
▁제한적임	-15685
▁조직되어	-15686
▁조직적인	-15687
▁존재해야	-15688
▁좋았어요	-15689
▁줄어들고	-15690
▁지급받은	-15691
▁지연되지	-15692
▁지원하지	-15693
▁직사광선	-15694
▁직원들도	-15695
▁진동으로	-15696
▁충전기를	-15697
▁캠페인이	-15698
▁커리어에	-15699
▁통해서도	-15700
▁투입되는	-15701
▁투자해야	-15702
▁투표가치	-15703
▁투표율이	-15704
▁트랜드에	-15705
▁팀원들간	-15706
▁팀원전체	-15707
▁팀인가요	-15708
▁팀장들은	-15709
▁필요성은	-15710
▁필요없는	-15711
▁하겠지만	-15712
▁하기에는	-15713
▁하더라고	-15714
▁하루이틀	-15715
▁하루하루	-15716
▁하셨다고	-15717
▁하였으며	-15718
▁하지말고	-15719
▁한마디로	-15720
▁해고노동	-15721
▁해달라는	-15722
▁해보세요	-15723
▁해주셔서	-15724
▁핸드폰을	-15725
▁허용장소	-15726
▁허용하여	-15727
▁현대카드	-15728
▁협업체계	-15729
▁협의회가	-15730
▁회의시간	-15731
▁회의실은	-15732
▁획기적인	-15733
▁흐지부지	-15734
▁히스토리	-15735
▁힘들었음	-15736
구성원과의	-15737
구성원에게	-15738
노동조합은	-15739
노사협의회	-15740
변화에대한	-15741
해주십시오	-15742
ention	-15743
▁hioms	-15744
▁input	-15745
▁motiv	-15746
▁right	-15747
▁tioom	-15748
▁touch	-15749
▁watch	-15750
▁가지셨으면	-15751
▁고객사에게	-15752
▁고려되어야	-15753
▁고생하시는	-15754
▁공명정대한	-15755
▁공정한평가	-15756
▁구시대적인	-15757
▁구조입니다	-15758
▁근로자대표	-15759
▁근본적으로	-15760
▁급여체계를	-15761
▁기다려주는	-15762
▁넣어주세요	-15763
▁단기성과에	-15764
▁도전적목표	-15765
▁되어있는데	-15766
▁마음입니다	-15767
▁만들어져야	-15768
▁말씀드리는	-15769
▁메일사서함	-15770
▁명확한목표	-15771
▁몰랐습니다	-15772
▁무엇보다도	-15773
▁민주주의가	-15774
▁변화하려고	-15775
▁보고문화의	-15776
▁보고위주의	-15777
▁보여주시면	-15778
▁부문단위로	-15779
▁부정적으로	-15780
▁부족하다는	-15781
▁불이익하지	-15782
▁비공식적인	-15783
▁뿐만아니라	-15784
▁사실이라면	-15785
▁사장님께서	-15786
▁상황에서는	-15787
▁새로운사업	-15788
▁생각되는데	-15789
▁생각해보면	-15790
▁시급하다고	-15791
▁시행착오가	-15792
▁시행착오를	-15793
▁신기술습득	-15794
▁아니잖아요	-15795
▁아이디어에	-15796
▁안정적으로	-15797
▁얘기입니다	-15798
▁어느정도는	-15799
▁업무환경을	-15800
▁역량확보에	-15801
▁열정적으로	-15802
▁예외적으로	-15803
▁올려주세요	-15804
▁윤리경영과	-15805
▁의사결정시	-15806
▁이의제기를	-15807
▁이해합니다	-15808
▁인정합니다	-15809
▁있으니까요	-15810
▁잘모르겠음	-15811
▁장기적이고	-15812
▁적었습니다	-15813
▁적절한업무	-15814
▁전략적으로	-15815
▁전략적이고	-15816
▁전자투표는	-15817
▁전자투표로	-15818
▁제도적으로	-15819
▁제안합니다	-15820
▁제조사업팀	-15821
▁존재합니다	-15822
▁주차하시는	-15823
▁중요하다는	-15824
▁지원부서의	-15825
▁진행했으면	-15826
▁차원에서는	-15827
▁초과근로를	-15828
▁팀장님과의	-15829
▁평가제도의	-15830
▁포괄임금에	-15831
▁프로세스와	-15832
▁해결방안을	-15833
▁해야하는지	-15834
▁현재까지는	-15835
▁협력하도록	-15836
▁회사입니다	-15837
▁획기적으로	-15838
▁효율적이고	-15839
▁힘들겠지만	-15840
기획팀입니다	-15841
▁backup	-15842
▁coordi	-15843
▁follow	-15844
▁please	-15845
▁구성원위원과	-15846
▁구성원위원들	-15847
▁노사협의회의	-15848
▁되어있습니다	-15849
▁마련되었으면	-15850
▁만들어주세요	-15851
▁받아들여지지	-15852
▁블라인드에서	-15853
▁세미나개최비	-15854
▁시켜주셨으면	-15855
▁어플리케이션	-15856
▁없어보입니다	-15857
▁없어졌습니다	-15858
▁엘레베이터를	-15859
▁이르렀습니다	-15860
▁일하는방식의	-15861
▁전략기획부문	-15862
▁조합민주주의	-15863
▁추천드립니다	-15864
▁특이사항없음	-15865
▁휴일근로수당	-15866
▁default	-15867
▁learned	-15868
▁offline	-15869
▁과감한의사결정	-15870
▁구성원과의소통	-15871
▁부서간이기주의	-15872
▁엘리베이터에서	-15873
▁역량확보를위한	-15874
보안보안보안보안	-15875
▁ideation	-15876
▁경영협의회에서는	-15877
▁말씀드리겠습니다	-15878
▁부탁드리겠습니다	-15879
▁선거관리위원회가	-15880
▁정보보호팀에서는	-15881
▁retention	-15882
,9	-15883
1,	-15884
64	-15885
hc	-15886
rl	-15887
sl	-15888
ᅮᅮ	-15889
▁ᄂ	-15890
▁갭	-15891
▁깰	-15892
▁꺾	-15893
▁꼽	-15894
▁꽁	-15895
▁낳	-15896
▁놈	-15897
▁닥	-15898
▁땜	-15899
▁벅	-15900
▁빔	-15901
▁빕	-15902
▁뽀	-15903
▁쌀	-15904
▁쏠	-15905
▁씌	-15906
▁엮	-15907
▁젠	-15908
▁촌	-15909
▁춤	-15910
▁퉁	-15911
▁팟	-15912
▁핀	-15913
▁흠	-15914
각각	-15915
개념	-15916
건의	-15917
계산	-15918
관을	-15919
구니	-15920
금의	-15921
기와	-15922
기자	-15923
꽁초	-15924
난다	-15925
내려	-15926
넌스	-15927
네트	-15928
년만	-15929
다닐	-15930
대도	-15931
도모	-15932
독려	-15933
동료	-15934
두리	-15935
두에	-15936
두지	-15937
드린	-15938
때로	-15939
레벨	-15940
력은	-15941
리니	-15942
린다	-15943
마라	-15944
마한	-15945
매니	-15946
면을	-15947
명과	-15948
명한	-15949
모로	-15950
몰라	-15951
무시	-15952
번이	-15953
불만	-15954
비밀	-15955
비중	-15956
빨리	-15957
쁘게	-15958
사규	-15959
사한	-15960
상관	-15961
서도	-15962
선정	-15963
셔닝	-15964
셨음	-15965
소송	-15966
순간	-15967
스킬	-15968
스티	-15969
슬렁	-15970
시나	-15971
시의	-15972
아무	-15973
알고	-15974
았음	-15975
약함	-15976
어는	-15977
업의	-15978
여져	-15979
예절	-15980
오래	-15981
올해	-15982
왓슨	-15983
외의	-15984
원석	-15985
위는	-15986
율은	-15987
음에	-15988
의존	-15989
이천	-15990
이하	-15991
인수	-15992
잖아	-15993
잡아	-15994
잦은	-15995
적도	-15996
정지	-15997
져도	-15998
조절	-15999
좋게	-16000
주실	-16001
주예	-16002
진우	-16003
진작	-16004
집어	-16005
찍히	-16006
차단	-16007
창의	-16008
최근	-16009
출신	-16010
취합	-16011
층도	-16012
커리	-16013
코스	-16014
태그	-16015
테면	-16016
트라	-16017
파괴	-16018
판이	-16019
편의	-16020
폐지	-16021
포럼	-16022
포섹	-16023
플랜	-16024
할듯	-16025
해준	-16026
현정	-16027
gin	-16028
lor	-16029
res	-16030
unt	-16031
van	-16032
▁35	-16033
▁37	-16034
▁6%	-16035
▁68	-16036
▁as	-16037
▁dj	-16038
▁jo	-16039
▁na	-16040
▁ok	-16041
▁가려	-16042
▁가실	-16043
▁가혹	-16044
▁간부	-16045
▁갈음	-16046
▁감추	-16047
▁감히	-16048
▁갖출	-16049
▁거대	-16050
▁거치	-16051
▁걸친	-16052
▁격식	-16053
▁견제	-16054
▁경계	-16055
▁계발	-16056
▁고사	-16057
▁교수	-16058
▁그닥	-16059
▁그름	-16060
▁기를	-16061
▁기쁨	-16062
▁길을	-16063
▁김용	-16064
▁꾸역	-16065
▁끈끈	-16066
▁끼고	-16067
▁내게	-16068
▁내면	-16069
▁내외	-16070
▁넣는	-16071
▁년차	-16072
▁녹취	-16073
▁높을	-16074
▁높임	-16075
▁눈이	-16076
▁다듬	-16077
▁닫고	-16078
▁당초	-16079
▁데려	-16080
▁되도	-16081
▁두어	-16082
▁둘다	-16083
▁떳떳	-16084
▁띄는	-16085
▁막힌	-16086
▁말단	-16087
▁말미	-16088
▁맘에	-16089
▁맡게	-16090
▁맥락	-16091
▁먼가	-16092
▁면을	-16093
▁명씩	-16094
▁몸에	-16095
▁무난	-16096
▁무더	-16097
▁문을	-16098
▁미치	-16099
▁미친	-16100
▁민폐	-16101
▁바쁠	-16102
▁바에	-16103
▁박정	-16104
▁밤새	-16105
▁밤샘	-16106
▁배운	-16107
▁병맛	-16108
▁보건	-16109
▁보아	-16110
▁보전	-16111
▁보직	-16112
▁분사	-16113
▁분할	-16114
▁불어	-16115
▁비꼬	-16116
▁비단	-16117
▁빈도	-16118
▁빙자	-16119
▁빠르	-16120
▁사로	-16121
▁상생	-16122
▁생색	-16123
▁선을	-16124
▁선의	-16125
▁세금	-16126
▁세세	-16127
▁세월	-16128
▁센스	-16129
▁소망	-16130
▁소지	-16131
▁소집	-16132
▁소화	-16133
▁쇼핑	-16134
▁수급	-16135
▁수월	-16136
▁숙지	-16137
▁스벅	-16138
▁스크	-16139
▁시연	-16140
▁시일	-16141
▁신분	-16142
▁쓰래	-16143
▁악영	-16144
▁안고	-16145
▁안열	-16146
▁안함	-16147
▁앱은	-16148
▁야기	-16149
▁약자	-16150
▁양심	-16151
▁여럿	-16152
▁여태	-16153
▁여튼	-16154
▁역설	-16155
▁연대	-16156
▁연령	-16157
▁연연	-16158
▁연임	-16159
▁열려	-16160
▁오신	-16161
▁욕심	-16162
▁원글	-16163
▁월간	-16164
▁유인	-16165
▁유입	-16166
▁음주	-16167
▁이니	-16168
▁이분	-16169
▁이왕	-16170
▁인기	-16171
▁인성	-16172
▁임할	-16173
▁입에	-16174
▁자문	-16175
▁잡은	-16176
▁저항	-16177
▁전동	-16178
▁전락	-16179
▁전시	-16180
▁전투	-16181
▁전향	-16182
▁절약	-16183
▁정서	-16184
▁정장	-16185
▁정정	-16186
▁정차	-16187
▁제어	-16188
▁좌측	-16189
▁주간	-16190
▁줄지	-16191
▁중의	-16192
▁쥐어	-16193
▁지면	-16194
▁지장	-16195
▁채찍	-16196
▁청산	-16197
▁체류	-16198
▁층을	-16199
▁치료	-16200
▁치워	-16201
▁캐치	-16202
▁코디	-16203
▁큰일	-16204
▁타협	-16205
▁탄탄	-16206
▁탓에	-16207
▁태반	-16208
▁택시	-16209
▁토로	-16210
▁틀이	-16211
▁파기	-16212
▁편집	-16213
▁폭을	-16214
▁표면	-16215
▁풍선	-16216
▁피어	-16217
▁하필	-16218
▁한가	-16219
▁한잔	-16220
▁향한	-16221
▁향해	-16222
▁허무	-16223
▁허허	-16224
▁호봉	-16225
▁화를	-16226
▁화법	-16227
▁휘두	-16228
개년도	-16229
거라는	-16230
거리가	-16231
경영층	-16232
고려한	-16233
공간의	-16234
교육에	-16235
군다나	-16236
규정을	-16237
그룹사	-16238
기간을	-16239
기관에	-16240
기준에	-16241
내용은	-16242
는데로	-16243
능력이	-16244
단순화	-16245
당하는	-16246
라미드	-16247
레이션	-16248
리더의	-16249
만원씩	-16250
명확화	-16251
발생시	-16252
방법을	-16253
방안을	-16254
버넌스	-16255
변화와	-16256
보인다	-16257
본인의	-16258
봤더니	-16259
부분도	-16260
사고와	-16261
사람을	-16262
사항도	-16263
생산성	-16264
선생님	-16265
셨는지	-16266
소리가	-16267
수평적	-16268
스러웠	-16269
시거나	-16270
시구요	-16271
시키면	-16272
시킬수	-16273
아니고	-16274
없지만	-16275
여부에	-16276
영역의	-16277
우리가	-16278
원이나	-16279
으라는	-16280
으셔서	-16281
을때는	-16282
을통한	-16283
이동을	-16284
이라니	-16285
이루어	-16286
있지만	-16287
자리가	-16288
자체가	-16289
적극적	-16290
정책을	-16291
제수당	-16292
졌으며	-16293
중요한	-16294
지식을	-16295
진다고	-16296
진적인	-16297
최소화	-16298
텍스트	-16299
투자와	-16300
평가로	-16301
하신거	-16302
하였던	-16303
할때가	-16304
함에도	-16305
해져야	-16306
해주실	-16307
해하고	-16308
했다가	-16309
했을때	-16310
했음을	-16311
협의를	-16312
형태로	-16313
활동에	-16314
회사와	-16315
효율화	-16316
appy	-16317
ents	-16318
ical	-16319
idea	-16320
info	-16321
lead	-16322
uary	-16323
▁12:	-16324
▁acc	-16325
▁cba	-16326
▁fir	-16327
▁ito	-16328
▁map	-16329
▁ojt	-16330
▁tem	-16331
▁web	-16332
▁zip	-16333
▁가격이	-16334
▁가급적	-16335
▁가네요	-16336
▁가라고	-16337
▁가지게	-16338
▁가지면	-16339
▁가지신	-16340
▁각각에	-16341
▁간략히	-16342
▁간에도	-16343
▁개방형	-16344
▁개입이	-16345
▁개진할	-16346
▁거치지	-16347
▁걸리면	-16348
▁검은색	-16349
▁검진을	-16350
▁검토할	-16351
▁결과와	-16352
▁결정과	-16353
▁경력이	-16354
▁경영협	-16355
▁경청의	-16356
▁고려를	-16357
▁고르게	-16358
▁고마운	-16359
▁곳곳에	-16360
▁공간의	-16361
▁공감은	-16362
▁공약은	-16363
▁과정의	-16364
▁관련자	-16365
▁관리도	-16366
▁관여가	-16367
▁관점에	-16368
▁구분이	-16369
▁구성에	-16370
▁구조상	-16371
▁권한의	-16372
▁규모에	-16373
▁규약을	-16374
▁그걸로	-16375
▁그룹을	-16376
▁그분이	-16377
▁근무는	-16378
▁근무시	-16379
▁근무일	-16380
▁근시안	-16381
▁근참법	-16382
▁글에는	-16383
▁금융권	-16384
▁기능도	-16385
▁기대됨	-16386
▁기억은	-16387
▁기준인	-16388
▁기획팀	-16389
▁김주예	-16390
▁끌어올	-16391
▁나쁘게	-16392
▁나쁘지	-16393
▁나오게	-16394
▁나원석	-16395
▁난리가	-16396
▁남아있	-16397
▁내려주	-16398
▁너무도	-16399
▁넘어갈	-16400
▁노조나	-16401
▁노조원	-16402
▁논란의	-16403
▁높아질	-16404
▁느낌도	-16405
▁느낌은	-16406
▁늘어날	-16407
▁다가갈	-16408
▁다녀야	-16409
▁다음의	-16410
▁단점을	-16411
▁당선된	-16412
▁대가를	-16413
▁대상의	-16414
▁대응해	-16415
▁더러운	-16416
▁도입과	-16417
▁도입을	-16418
▁돌리고	-16419
▁동료들	-16420
▁되구요	-16421
▁되세요	-16422
▁되어있	-16423
▁되었든	-16424
▁될까봐	-16425
▁들어갔	-16426
▁따지면	-16427
▁때때로	-16428
▁또다른	-16429
▁로비에	-16430
▁리더들	-16431
▁마스크	-16432
▁마음속	-16433
▁만나는	-16434
▁만남의	-16435
▁많으니	-16436
▁많으며	-16437
▁말대로	-16438
▁말씀은	-16439
▁말하기	-16440
▁맞으나	-16441
▁맞춰야	-16442
▁맡기는	-16443
▁매출액	-16444
▁먹으면	-16445
▁메시지	-16446
▁면밀한	-16447
▁면밀히	-16448
▁명백히	-16449
▁명이서	-16450
▁몇년간	-16451
▁몇년이	-16452
▁몰입도	-16453
▁몸으로	-16454
▁못가게	-16455
▁무서워	-16456
▁문구를	-16457
▁문의는	-16458
▁문제될	-16459
▁문제일	-16460
▁묻지도	-16461
▁미션을	-16462
▁밑에서	-16463
▁바꾸기	-16464
▁박탈에	-16465
▁받는다	-16466
▁받았고	-16467
▁받으실	-16468
▁방송도	-16469
▁배우자	-16470
▁배치된	-16471
▁밸런스	-16472
▁버리는	-16473
▁버리지	-16474
▁버튼이	-16475
▁번거롭	-16476
▁법원이	-16477
▁변경한	-16478
▁변동이	-16479
▁변민관	-16480
▁변하는	-16481
▁보기도	-16482
▁보름씩	-16483
▁보안에	-16484
▁보여야	-16485
▁보여지	-16486
▁보이면	-16487
▁복지를	-16488
▁본부간	-16489
▁본부나	-16490
▁부러워	-16491
▁부서로	-16492
▁부재로	-16493
▁분야별	-16494
▁분이라	-16495
▁불안한	-16496
▁비교가	-16497
▁비교해	-16498
▁비난을	-16499
▁비하여	-16500
▁빕니다	-16501
▁사규는	-16502
▁사외의	-16503
▁사용은	-16504
▁사이즈	-16505
▁상이한	-16506
▁상이할	-16507
▁상처가	-16508
▁새벽에	-16509
▁생각한	-16510
▁생일자	-16511
▁선택을	-16512
▁설명과	-16513
▁설정을	-16514
▁성과측	-16515
▁세우는	-16516
▁셔틀을	-16517
▁소그룹	-16518
▁수강할	-16519
▁수고가	-16520
▁수당에	-16521
▁수도권	-16522
▁수렴이	-16523
▁수석급	-16524
▁수행과	-16525
▁순수한	-16526
▁순환을	-16527
▁슬림화	-16528
▁시기가	-16529
▁시설을	-16530
▁시에도	-16531
▁시작이	-16532
▁시켜서	-16533
▁실력을	-16534
▁실적도	-16535
▁실행해	-16536
▁심하다	-16537
▁아니죠	-16538
▁아쉬울	-16539
▁안보고	-16540
▁안하니	-16541
▁않기를	-16542
▁않는한	-16543
▁않으나	-16544
▁암호를	-16545
▁약점을	-16546
▁양수석	-16547
▁어필할	-16548
▁엄연히	-16549
▁에이전	-16550
▁여기가	-16551
▁여유도	-16552
▁연차에	-16553
▁예기치	-16554
▁예전과	-16555
▁옛날에	-16556
▁오류로	-16557
▁올렸던	-16558
▁완결성	-16559
▁외치고	-16560
▁요구가	-16561
▁요청시	-16562
▁용량은	-16563
▁우리와	-16564
▁운영성	-16565
▁움직일	-16566
▁위임이	-16567
▁위치한	-16568
▁유난히	-16569
▁유대감	-16570
▁유리할	-16571
▁육성할	-16572
▁은근히	-16573
▁응답이	-16574
▁의문점	-16575
▁의외로	-16576
▁의자가	-16577
▁의자는	-16578
▁의지에	-16579
▁이걸로	-16580
▁이네요	-16581
▁이런걸	-16582
▁이뤄질	-16583
▁이른바	-16584
▁이름을	-16585
▁이슈와	-16586
▁이슈화	-16587
▁이어서	-16588
▁이유도	-16589
▁이익과	-16590
▁이직에	-16591
▁인건비	-16592
▁인력과	-16593
▁인력들	-16594
▁인사를	-16595
▁인원은	-16596
▁인정과	-16597
▁일들을	-16598
▁일이나	-16599
▁일인데	-16600
▁임기는	-16601
▁입사후	-16602
▁있고요	-16603
▁있는걸	-16604
▁자료도	-16605
▁자세에	-16606
▁자원이	-16607
▁자율화	-16608
▁잡담을	-16609
▁잡음이	-16610
▁장소가	-16611
▁장애에	-16612
▁장치가	-16613
▁저장을	-16614
▁적다고	-16615
▁적으로	-16616
▁적응할	-16617
▁전사와	-16618
▁전체에	-16619
▁점검이	-16620
▁접속도	-16621
▁정당화	-16622
▁정의를	-16623
▁정의와	-16624
▁정중히	-16625
▁정체된	-16626
▁제기가	-16627
▁제약에	-16628
▁제한도	-16629
▁제한할	-16630
▁조성해	-16631
▁존댓말	-16632
▁주제가	-16633
▁주차가	-16634
▁주체가	-16635
▁준비된	-16636
▁중심적	-16637
▁중인데	-16638
▁지나치	-16639
▁지라도	-16640
▁지연된	-16641
▁직급과	-16642
▁진행되	-16643
▁진행됨	-16644
▁차이나	-16645
▁참석할	-16646
▁참조로	-16647
▁창문을	-16648
▁찾기가	-16649
▁찾아가	-16650
▁채용공	-16651
▁처음엔	-16652
▁체계는	-16653
▁초과한	-16654
▁초년차	-16655
▁축제로	-16656
▁출입문	-16657
▁충돌이	-16658
▁충원을	-16659
▁측면도	-16660
▁친밀도	-16661
▁커지는	-16662
▁컬처서	-16663
▁타이트	-16664
▁통화는	-16665
▁특성이	-16666
▁특수성	-16667
▁팀빌딩	-16668
▁팀운영	-16669
▁팀원도	-16670
▁팀전략	-16671
▁파트별	-16672
▁평상시	-16673
▁표준화	-16674
▁프리랜	-16675
▁프린트	-16676
▁하나를	-16677
▁하던지	-16678
▁하향식	-16679
▁한계로	-16680
▁한곳에	-16681
▁한국의	-16682
▁한동안	-16683
▁해달라	-16684
▁해명을	-16685
▁행태는	-16686
▁향상의	-16687
▁형식에	-16688
▁형식적	-16689
▁혼란을	-16690
▁홍보를	-16691
▁확대해	-16692
▁확산을	-16693
▁활동의	-16694
▁활용을	-16695
▁회의는	-16696
▁회의와	-16697
▁획정은	-16698
▁효력을	-16699
▁후발주	-16700
▁휴양소	-16701
▁휴일을	-16702
▁휴지로	-16703
▁흐리는	-16704
▁흡연자	-16705
▁힘드시	-16706
▁힘차게	-16707
것이라고	-16708
관련해서	-16709
기반으로	-16710
단계에서	-16711
드리도록	-16712
만이라도	-16713
부족으로	-16714
사항으로	-16715
상관없이	-16716
시다시피	-16717
시스템에	-16718
시스템이	-16719
일까지는	-16720
적이어서	-16721
주십시오	-16722
찾습니다	-16723
팀원들을	-16724
퍼런스를	-16725
하라는게	-16726
하시느라	-16727
한다거나	-16728
해줬으면	-16729
회사라고	-16730
eiver	-16731
ework	-16732
point	-16733
▁#507	-16734
▁demo	-16735
▁link	-16736
▁mail	-16737
▁rule	-16738
▁tobe	-16739
▁type	-16740
▁view	-16741
▁가능하다	-16742
▁가르침을	-16743
▁가중되고	-16744
▁간단하고	-16745
▁감사하고	-16746
▁감사하는	-16747
▁강제적인	-16748
▁개발하는	-16749
▁개선되지	-16750
▁개선점이	-16751
▁개진하여	-16752
▁결정되는	-16753
▁경영진과	-16754
▁경영진을	-16755
▁계시다면	-16756
▁계약협상	-16757
▁고객이나	-16758
▁고정좌석	-16759
▁고충처리	-16760
▁곳입니다	-16761
▁공간으로	-16762
▁공감하며	-16763
▁공개경고	-16764
▁공유해야	-16765
▁관계사가	-16766
▁관련없는	-16767
▁구성원께	-16768
▁구성하고	-16769
▁구성하는	-16770
▁구성하되	-16771
▁그러려니	-16772
▁그럴거면	-16773
▁그렇군요	-16774
▁글쓴이의	-16775
▁기대하고	-16776
▁기대하지	-16777
▁기업과의	-16778
▁기업들의	-16779
▁기울여야	-16780
▁나온다고	-16781
▁나왔으면	-16782
▁나타나는	-16783
▁남아있는	-16784
▁납득하고	-16785
▁너무너무	-16786
▁노동자는	-16787
▁노조라는	-16788
▁노하우가	-16789
▁누구한테	-16790
▁느끼시는	-16791
▁늘어나고	-16792
▁다가가는	-16793
▁다르지만	-16794
▁단기실적	-16795
▁달라지고	-16796
▁담당자도	-16797
▁담배꽁초	-16798
▁당사자는	-16799
▁대외협력	-16800
▁돌아가고	-16801
▁되더군요	-16802
▁되어있고	-16803
▁들어가야	-16804
▁들어있는	-16805
▁따라가기	-16806
▁때문이다	-16807
▁레퍼런스	-16808
▁로드맵을	-16809
▁만들어질	-16810
▁만족했음	-16811
▁말씀드렸	-16812
▁말하면서	-16813
▁말합니다	-16814
▁매몰되어	-16815
▁메신저가	-16816
▁메일용량	-16817
▁명목하에	-16818
▁목표수립	-16819
▁몰랐네요	-16820
▁못한다면	-16821
▁무책임한	-16822
▁문서관리	-16823
▁문제네요	-16824
▁문제점은	-16825
▁물어봐도	-16826
▁민트님이	-16827
▁바뀌면서	-16828
▁바닥에서	-16829
▁바라지도	-16830
▁바로바로	-16831
▁반바지를	-16832
▁방안으로	-16833
▁방향이나	-16834
▁배려심이	-16835
▁번거로운	-16836
▁벌어지는	-16837
▁변화혁신	-16838
▁보더라도	-16839
▁보안조치	-16840
▁보여지는	-16841
▁보이지는	-16842
▁보지말고	-16843
▁본사근무	-16844
▁부장님의	-16845
▁부탁해요	-16846
▁비교하여	-16847
▁비난하는	-16848
▁비용절감	-16849
▁비효율성	-16850
▁사규에는	-16851
▁사내공모	-16852
▁사내정치	-16853
▁사람들만	-16854
▁사람보다	-16855
▁사상으로	-16856
▁사업분야	-16857
▁사장님이	-16858
▁사적인감	-16859
▁사회에서	-16860
▁삭제해야	-16861
▁산재되어	-16862
▁상호존중	-16863
▁생각되나	-16864
▁생각되지	-16865
▁생각하실	-16866
▁생각해볼	-16867
▁서로서로	-16868
▁서비스가	-16869
▁성격으로	-16870
▁성장하는	-16871
▁소통으로	-16872
▁소통채널	-16873
▁솔루션의	-16874
▁수석님들	-16875
▁수석님을	-16876
▁수용하지	-16877
▁수준에서	-16878
▁스타일로	-16879
▁습득하여	-16880
▁시급하게	-16881
▁시스템도	-16882
▁시스템일	-16883
▁시작해야	-16884
▁시점이라	-16885
▁신기술과	-16886
▁실행력에	-16887
▁싫어하는	-16888
▁심포니를	-16889
▁싶었는데	-16890
▁아니겠죠	-16891
▁아니구요	-16892
▁아니냐는	-16893
▁아래에서	-16894
▁아이코스	-16895
▁안된다면	-16896
▁않겠다는	-16897
▁알려줘야	-16898
▁알았으면	-16899
▁어떤가요	-16900
▁어려우면	-16901
▁어렵네요	-16902
▁업무량에	-16903
▁업무방식	-16904
▁없다보니	-16905
▁없어지고	-16906
▁없으니까	-16907
▁여러모로	-16908
▁여러차례	-16909
▁여름에는	-16910
▁연봉조정	-16911
▁영역에서	-16912
▁영역으로	-16913
▁운영자의	-16914
▁움직이기	-16915
▁월요일에	-16916
▁위반하고	-16917
▁유도하고	-16918
▁유도하여	-16919
▁유연성이	-16920
▁유지하기	-16921
▁의견이나	-16922
▁의사전달	-16923
▁의욕저하	-16924
▁의욕적인	-16925
▁의존도가	-16926
▁의존하는	-16927
▁이동하고	-16928
▁이래저래	-16929
▁이러면서	-16930
▁이를테면	-16931
▁이미지가	-16932
▁이에대한	-16933
▁이용하지	-16934
▁이전에도	-16935
▁이후로는	-16936
▁익숙하지	-16937
▁인력배치	-16938
▁인력운영	-16939
▁인수인계	-16940
▁인수합병	-16941
▁인정받고	-16942
▁인정받지	-16943
▁인정하여	-16944
▁일처리가	-16945
▁일치하지	-16946
▁입사하신	-16947
▁자부심이	-16948
▁자질이나	-16949
▁작성하고	-16950
▁장애요인	-16951
▁재량으로	-16952
▁재택근무	-16953
▁적용하지	-16954
▁적합하지	-16955
▁전구성원	-16956
▁전문가로	-16957
▁전문가의	-16958
▁전화해서	-16959
▁제안하는	-16960
▁조의금을	-16961
▁조직변경	-16962
▁조회수가	-16963
▁존재하여	-16964
▁존재하지	-16965
▁종이투표	-16966
▁종합검진	-16967
▁죄송하게	-16968
▁주도하는	-16969
▁주말출근	-16970
▁중복되는	-16971
▁중심적인	-16972
▁중요성을	-16973
▁지난주에	-16974
▁지시하는	-16975
▁지양해야	-16976
▁지지하는	-16977
▁직위해제	-16978
▁직책자는	-16979
▁진행중인	-16980
▁진행하지	-16981
▁집중하기	-16982
▁찍으라고	-16983
▁참여하고	-16984
▁창출하는	-16985
▁처리하기	-16986
▁청취하여	-16987
▁체결하는	-16988
▁초기에는	-16989
▁촉진하고	-16990
▁추진하기	-16991
▁컨텐츠를	-16992
▁타사대비	-16993
▁타팀과의	-16994
▁퇴근하기	-16995
▁트렌드에	-16996
▁특정인을	-16997
▁판단되며	-16998
▁판단되면	-16999
▁판단으로	-17000
▁편의성을	-17001
▁편입니다	-17002
▁평가이의	-17003
▁평균임금	-17004
▁포기하는	-17005
▁품의서에	-17006
▁필요성에	-17007
▁필요성을	-17008
▁하는거죠	-17009
▁하는것도	-17010
▁하도급법	-17011
▁하시느라	-17012
▁하시지만	-17013
▁한쪽으로	-17014
▁할당하여	-17015
▁합의하여	-17016
▁해결되지	-17017
▁해결하지	-17018
▁해야되는	-17019
▁현재진행	-17020
▁협조요청	-17021
▁형평성이	-17022
▁화장실을	-17023
▁확대하고	-17024
▁확인해서	-17025
▁활력있게	-17026
▁활력있는	-17027
▁회사내에	-17028
▁회사만의	-17029
▁회의실이	-17030
▁휴지통이	-17031
공유오피스	-17032
드렸습니다	-17033
보겠습니다	-17034
자발적으로	-17035
주식회사의	-17036
차원에서의	-17037
aching	-17038
▁catch	-17039
▁depth	-17040
▁progr	-17041
▁speak	-17042
▁tower	-17043
▁가능했으면	-17044
▁감정적으로	-17045
▁건강검진을	-17046
▁건의합니다	-17047
▁고정급으로	-17048
▁공유인프라	-17049
▁과감한투자	-17050
▁괴롭습니다	-17051
▁구성원개인	-17052
▁구성원께서	-17053
▁구성원이면	-17054
▁구정이라고	-17055
▁구조적으로	-17056
▁균형적으로	-17057
▁노무법인의	-17058
▁늘려주세요	-17059
▁답답합니다	-17060
▁대외적으로	-17061
▁되더라구요	-17062
▁듀얼모니터	-17063
▁드렸습니다	-17064
▁리더들에게	-17065
▁명시적으로	-17066
▁모르겠군요	-17067
▁미사용수당	-17068
▁방법입니다	-17069
▁보상체계가	-17070
▁보안정책에	-17071
▁보완된다면	-17072
▁부분이라고	-17073
▁사람입니다	-17074
▁사업모델을	-17075
▁사업수행을	-17076
▁사업조직에	-17077
▁사업팀에서	-17078
▁상황에서도	-17079
▁솔루션개발	-17080
▁수석님께서	-17081
▁수준입니다	-17082
▁순환근무를	-17083
▁시간외근로	-17084
▁시급합니다	-17085
▁신규사업에	-17086
▁신규사업을	-17087
▁써주셨으면	-17088
▁씁쓸하네요	-17089
▁않았을까요	-17090
▁얘기하시는	-17091
▁어디까지나	-17092
▁업무에맞는	-17093
▁연봉인상률	-17094
▁연장근로에	-17095
▁연차수당의	-17096
▁오래전부터	-17097
▁외부변화에	-17098
▁요구하시는	-17099
▁용어입니다	-17100
▁운영업무에	-17101
▁운영팀에서	-17102
▁의사결정은	-17103
▁의욕관리가	-17104
▁의욕관리비	-17105
▁의욕관리에	-17106
▁이렇게까지	-17107
▁인간적으로	-17108
▁일률적으로	-17109
▁일사부재리	-17110
▁있으신가요	-17111
▁자의적으로	-17112
▁작성합니다	-17113
▁장기적인안	-17114
▁전사공지는	-17115
▁전화통화가	-17116
▁점진적으로	-17117
▁정량적으로	-17118
▁조직구조가	-17119
▁조직으로의	-17120
▁주어졌으면	-17121
▁추정됩니다	-17122
▁충분한교육	-17123
▁측면에서도	-17124
▁클라우드를	-17125
▁팀구성원의	-17126
▁파워포인트	-17127
▁평가에대한	-17128
▁한번이라도	-17129
▁회사생활을	-17130
▁회의실에서	-17131
esurvey	-17132
▁242017	-17133
▁client	-17134
▁commun	-17135
▁구성원보다는	-17136
▁구성원분들도	-17137
▁구성원분들의	-17138
▁구성원에게도	-17139
▁근무자입니다	-17140
▁기술중심으로	-17141
▁말씀드리지만	-17142
▁부당노동행위	-17143
▁불필요한과제	-17144
▁새로운기술에	-17145
▁스피커폰으로	-17146
▁아쉬웠습니다	-17147
▁양동완수석님	-17148
▁업무에필요한	-17149
▁유관조직과의	-17150
▁윤리경영팀의	-17151
▁의사결정이나	-17152
▁장기적관점의	-17153
▁제조사업본부	-17154
▁주장하였으나	-17155
▁특별히개선이	-17156
▁포괄임금제라	-17157
▁필요하겠지만	-17158
▁합리적이라고	-17159
▁협력업체와의	-17160
▁average	-17161
▁contact	-17162
▁landing	-17163
▁telinfo	-17164
▁working	-17165
▁경영협의회선거	-17166
▁고민하겠습니다	-17167
▁스마트워크팀에	-17168
▁진행하였습니다	-17169
pensation	-17170
▁coaching	-17171
▁helpdesk	-17172
▁offering	-17173
▁position	-17174
▁receiver	-17175
▁선거관리위원회를	-17176
▁alignment	-17177
▁jobmarket	-17178
▁motivation	-17179
3,	-17180
cm	-17181
ep	-17182
gy	-17183
my	-17184
tp	-17185
ty	-17186
ᆞ무	-17187
▁■	-17188
▁謂	-17189
▁긁	-17190
▁넋	-17191
▁뇌	-17192
▁덤	-17193
▁떄	-17194
▁뚫	-17195
▁롯	-17196
▁붉	-17197
▁빗	-17198
▁빛	-17199
▁싹	-17200
▁썩	-17201
▁잉	-17202
▁줌	-17203
▁쥬	-17204
▁짬	-17205
▁쿼	-17206
▁톤	-17207
▁툭	-17208
▁팝	-17209
▁펜	-17210
▁폼	-17211
○○	-17212
가운	-17213
가의	-17214
가진	-17215
강요	-17216
개그	-17217
거다	-17218
걸리	-17219
검증	-17220
것만	-17221
경제	-17222
공동	-17223
구석	-17224
구히	-17225
궁금	-17226
근속	-17227
금번	-17228
급의	-17229
길을	-17230
꼬박	-17231
꾸로	-17232
내서	-17233
년후	-17234
논의	-17235
느끼	-17236
느림	-17237
다소	-17238
단한	-17239
달아	-17240
담아	-17241
대책	-17242
데가	-17243
돌파	-17244
동력	-17245
됐다	-17246
될수	-17247
라며	-17248
랑곳	-17249
렸다	-17250
론은	-17251
망에	-17252
먼트	-17253
메가	-17254
명은	-17255
무니	-17256
문학	-17257
미리	-17258
미한	-17259
박을	-17260
발휘	-17261
방위	-17262
방을	-17263
벅스	-17264
병원	-17265
보게	-17266
봤을	-17267
부담	-17268
부턴	-17269
분과	-17270
비와	-17271
상담	-17272
서의	-17273
성향	-17274
수나	-17275
수치	-17276
순실	-17277
스의	-17278
시각	-17279
심야	-17280
아는	-17281
아리	-17282
아주	-17283
얘기	-17284
어느	-17285
에선	-17286
여유	-17287
역활	-17288
오게	-17289
와대	-17290
왔고	-17291
왔다	-17292
운드	-17293
월드	-17294
위가	-17295
유관	-17296
유석	-17297
유의	-17298
의무	-17299
이래	-17300
일방	-17301
임에	-17302
자간	-17303
자격	-17304
자니	-17305
작은	-17306
장갑	-17307
장표	-17308
재가	-17309
적응	-17310
전거	-17311
조원	-17312
존재	-17313
주관	-17314
주요	-17315
주제	-17316
줄을	-17317
중복	-17318
지난	-17319
질을	-17320
집단	-17321
찾기	-17322
철한	-17323
쳤다	-17324
층부	-17325
투리	-17326
플릿	-17327
하를	-17328
합의	-17329
항을	-17330
해를	-17331
행에	-17332
협회	-17333
호사	-17334
,10	-17335
303	-17336
ace	-17337
any	-17338
ash	-17339
ass	-17340
ava	-17341
con	-17342
der	-17343
eop	-17344
erm	-17345
igh	-17346
ily	-17347
iti	-17348
lit	-17349
new	-17350
ops	-17351
ube	-17352
ung	-17353
ᆞ비밀	-17354
▁41	-17355
▁5%	-17356
▁55	-17357
▁cn	-17358
▁ie	-17359
▁ne	-17360
▁ps	-17361
▁rn	-17362
▁ta	-17363
▁謂之	-17364
▁가량	-17365
▁각인	-17366
▁간과	-17367
▁간이	-17368
▁감염	-17369
▁갑갑	-17370
▁갖을	-17371
▁개의	-17372
▁개혁	-17373
▁거점	-17374
▁거주	-17375
▁건가	-17376
▁겪어	-17377
▁경찰	-17378
▁고를	-17379
▁고성	-17380
▁과대	-17381
▁과업	-17382
▁과자	-17383
▁관례	-17384
▁괴로	-17385
▁구석	-17386
▁귀에	-17387
▁그곳	-17388
▁그날	-17389
▁그립	-17390
▁급작	-17391
▁기상	-17392
▁기일	-17393
▁기증	-17394
▁길이	-17395
▁김지	-17396
▁꺼려	-17397
▁꾸벅	-17398
▁끊어	-17399
▁나옴	-17400
▁난무	-17401
▁남지	-17402
▁남쪽	-17403
▁낯설	-17404
▁내실	-17405
▁내심	-17406
▁넓힐	-17407
▁논할	-17408
▁놓는	-17409
▁늦지	-17410
▁다반	-17411
▁달러	-17412
▁달에	-17413
▁담겨	-17414
▁당면	-17415
▁당위	-17416
▁닿는	-17417
▁대박	-17418
▁더럽	-17419
▁덕목	-17420
▁덮개	-17421
▁독감	-17422
▁돈은	-17423
▁돕는	-17424
▁동등	-17425
▁동원	-17426
▁동태	-17427
▁된거	-17428
▁될거	-17429
▁들려	-17430
▁등산	-17431
▁따를	-17432
▁따지	-17433
▁때를	-17434
▁뜨겁	-17435
▁롯데	-17436
▁루틴	-17437
▁마자	-17438
▁막고	-17439
▁많기	-17440
▁말라	-17441
▁맛이	-17442
▁망가	-17443
▁망설	-17444
▁맞출	-17445
▁맡기	-17446
▁머무	-17447
▁멀티	-17448
▁멘트	-17449
▁명단	-17450
▁명쾌	-17451
▁몇십	-17452
▁몇초	-17453
▁목이	-17454
▁못쓰	-17455
▁못올	-17456
▁문장	-17457
▁문턱	-17458
▁뭐든	-17459
▁뭐지	-17460
▁미뤄	-17461
▁미쳐	-17462
▁믿지	-17463
▁반감	-17464
▁반갑	-17465
▁발목	-17466
▁발현	-17467
▁방화	-17468
▁배신	-17469
▁버젼	-17470
▁벙개	-17471
▁변기	-17472
▁변혁	-17473
▁볼때	-17474
▁부응	-17475
▁부팅	-17476
▁부패	-17477
▁분분	-17478
▁불고	-17479
▁붙여	-17480
▁비품	-17481
▁빌려	-17482
▁빼서	-17483
▁뻔한	-17484
▁뿌리	-17485
▁사납	-17486
▁사다	-17487
▁살릴	-17488
▁상무	-17489
▁서열	-17490
▁선뜻	-17491
▁선풍	-17492
▁설날	-17493
▁세밀	-17494
▁센세	-17495
▁소득	-17496
▁소명	-17497
▁속이	-17498
▁손을	-17499
▁수건	-17500
▁수년	-17501
▁시계	-17502
▁시그	-17503
▁시달	-17504
▁시민	-17505
▁시범	-17506
▁시비	-17507
▁시의	-17508
▁신선	-17509
▁실직	-17510
▁싫고	-17511
▁심해	-17512
▁심히	-17513
▁십여	-17514
▁쌓인	-17515
▁씨티	-17516
▁아낄	-17517
▁악덕	-17518
▁알면	-17519
▁암묵	-17520
▁애기	-17521
▁애를	-17522
▁애착	-17523
▁야머	-17524
▁얘긴	-17525
▁어째	-17526
▁어쨋	-17527
▁없냐	-17528
▁연고	-17529
▁연도	-17530
▁연수	-17531
▁영상	-17532
▁영양	-17533
▁영화	-17534
▁오도	-17535
▁온화	-17536
▁왓슨	-17537
▁왼쪽	-17538
▁요금	-17539
▁위계	-17540
▁위상	-17541
▁유니	-17542
▁유료	-17543
▁음악	-17544
▁응용	-17545
▁의기	-17546
▁이긴	-17547
▁이날	-17548
▁인가	-17549
▁인구	-17550
▁일개	-17551
▁일급	-17552
▁일변	-17553
▁읽기	-17554
▁있냐	-17555
▁잊었	-17556
▁잊지	-17557
▁잘은	-17558
▁장난	-17559
▁장벽	-17560
▁저거	-17561
▁저격	-17562
▁저랑	-17563
▁저작	-17564
▁저축	-17565
▁적발	-17566
▁적혀	-17567
▁전국	-17568
▁정교	-17569
▁정할	-17570
▁정형	-17571
▁제휴	-17572
▁좋긴	-17573
▁주먹	-17574
▁주입	-17575
▁주최	-17576
▁주행	-17577
▁죽을	-17578
▁중대	-17579
▁지배	-17580
▁지울	-17581
▁지진	-17582
▁지체	-17583
▁지켰	-17584
▁진도	-17585
▁쪽은	-17586
▁쫓겨	-17587
▁차감	-17588
▁참견	-17589
▁천정	-17590
▁청운	-17591
▁청원	-17592
▁초청	-17593
▁최은	-17594
▁추운	-17595
▁출석	-17596
▁치러	-17597
▁치루	-17598
▁침체	-17599
▁캡처	-17600
▁코너	-17601
▁쿠폰	-17602
▁톨비	-17603
▁팀도	-17604
▁패닉	-17605
▁평해	-17606
▁포털	-17607
▁표방	-17608
▁하늘	-17609
▁하부	-17610
▁하진	-17611
▁한것	-17612
▁합치	-17613
▁했죠	-17614
▁했지	-17615
▁허다	-17616
▁허비	-17617
▁헤아	-17618
▁현안	-17619
▁형사	-17620
▁호응	-17621
▁홀로	-17622
▁화려	-17623
▁화상	-17624
▁화장	-17625
▁환기	-17626
▁흩어	-17627
▁힐링	-17628
가아닌	-17629
가이드	-17630
개선을	-17631
것같아	-17632
결과를	-17633
경우가	-17634
관리의	-17635
교통비	-17636
그러면	-17637
그룹의	-17638
기업에	-17639
너스가	-17640
단계의	-17641
대로만	-17642
대응이	-17643
되는게	-17644
되오니	-17645
드리면	-17646
라는데	-17647
란건지	-17648
료하게	-17649
리스트	-17650
마저도	-17651
명인데	-17652
몰라라	-17653
문제가	-17654
문제는	-17655
문화의	-17656
발적인	-17657
방법이	-17658
방식에	-17659
방에서	-17660
방향이	-17661
밸런스	-17662
버스가	-17663
보도록	-17664
보안을	-17665
부터가	-17666
분기에	-17667
브라운	-17668
사에서	-17669
사측의	-17670
상식사	-17671
상태가	-17672
상태로	-17673
소리도	-17674
수있는	-17675
수준에	-17676
시정도	-17677
신지요	-17678
신청을	-17679
았다는	-17680
었나요	-17681
었으며	-17682
예정일	-17683
오네요	-17684
와같은	-17685
우니까	-17686
웨어를	-17687
육성에	-17688
의견이	-17689
이겠죠	-17690
이러한	-17691
이상이	-17692
이어야	-17693
이었고	-17694
이익을	-17695
이해가	-17696
인력은	-17697
인지에	-17698
일수도	-17699
장비로	-17700
장비에	-17701
절차가	-17702
정하고	-17703
제도와	-17704
줍시다	-17705
중에서	-17706
직원에	-17707
진다는	-17708
창출을	-17709
책임을	-17710
체계는	-17711
측면의	-17712
팀원의	-17713
팀원이	-17714
하건데	-17715
하게끔	-17716
하던가	-17717
하셨을	-17718
하시며	-17719
하에서	-17720
할수는	-17721
해주기	-17722
해주시	-17723
했더니	-17724
혁신은	-17725
현장에	-17726
현장의	-17727
형으로	-17728
확보가	-17729
회의를	-17730
휴가를	-17731
흐름에	-17732
6052	-17733
asht	-17734
duct	-17735
http	-17736
ived	-17737
list	-17738
otal	-17739
ount	-17740
silo	-17741
tech	-17742
uble	-17743
ynix	-17744
ᆞ무기명	-17745
▁1,2	-17746
▁110	-17747
▁150	-17748
▁170	-17749
▁198	-17750
▁318	-17751
▁8:2	-17752
▁`17	-17753
▁but	-17754
▁dna	-17755
▁eim	-17756
▁for	-17757
▁mon	-17758
▁oss	-17759
▁skp	-17760
▁the	-17761
▁tht	-17762
▁‘96	-17763
▁’17	-17764
▁가깝고	-17765
▁가보니	-17766
▁가산을	-17767
▁가용한	-17768
▁가입한	-17769
▁가져와	-17770
▁가중치	-17771
▁각부서	-17772
▁간담회	-17773
▁같던데	-17774
▁같은거	-17775
▁개발팀	-17776
▁개선도	-17777
▁개선안	-17778
▁개시일	-17779
▁개인을	-17780
▁개정에	-17781
▁거겠죠	-17782
▁거라는	-17783
▁거리는	-17784
▁거짓말	-17785
▁건너편	-17786
▁건으로	-17787
▁것이나	-17788
▁겠네요	-17789
▁격차가	-17790
▁경기도	-17791
▁경미한	-17792
▁경제적	-17793
▁경조사	-17794
▁경협에	-17795
▁경협이	-17796
▁계산시	-17797
▁계산을	-17798
▁계시니	-17799
▁계획에	-17800
▁고령화	-17801
▁고민한	-17802
▁고정적	-17803
▁고층부	-17804
▁곳이다	-17805
▁공기청	-17806
▁공유에	-17807
▁공지한	-17808
▁과열을	-17809
▁과정은	-17810
▁관계는	-17811
▁관리의	-17812
▁관심은	-17813
▁관여할	-17814
▁관행이	-17815
▁괴리가	-17816
▁구하는	-17817
▁군대식	-17818
▁귀감이	-17819
▁규모를	-17820
▁규정된	-17821
▁규제만	-17822
▁규제에	-17823
▁그간의	-17824
▁그래요	-17825
▁그럴수	-17826
▁그렇기	-17827
▁그룹장	-17828
▁그분의	-17829
▁금년도	-17830
▁급격히	-17831
▁기간도	-17832
▁기대에	-17833
▁기본권	-17834
▁기업과	-17835
▁기준의	-17836
▁기획력	-17837
▁기획을	-17838
▁깜빡이	-17839
▁끈끈한	-17840
▁끝없는	-17841
▁나네요	-17842
▁나뉘어	-17843
▁나름의	-17844
▁나아진	-17845
▁나아질	-17846
▁남음이	-17847
▁내려가	-17848
▁내부적	-17849
▁내역을	-17850
▁냉정한	-17851
▁넘어갔	-17852
▁넘어선	-17853
▁노사간	-17854
▁노완동	-17855
▁노조를	-17856
▁논리는	-17857
▁높아서	-17858
▁누구와	-17859
▁느려진	-17860
▁늘리고	-17861
▁능력은	-17862
▁다각화	-17863
▁다시금	-17864
▁단합을	-17865
▁당당히	-17866
▁당신은	-17867
▁당하는	-17868
▁대상은	-17869
▁대해선	-17870
▁더하면	-17871
▁독려가	-17872
▁동의는	-17873
▁되려면	-17874
▁되시길	-17875
▁두어야	-17876
▁들어올	-17877
▁들었다	-17878
▁들여다	-17879
▁따듯한	-17880
▁때문일	-17881
▁때문임	-17882
▁때부터	-17883
▁떠드는	-17884
▁리더나	-17885
▁마련한	-17886
▁마스터	-17887
▁마이너	-17888
▁만드신	-17889
▁만족을	-17890
▁만큼의	-17891
▁만회할	-17892
▁많아진	-17893
▁많지는	-17894
▁말구요	-17895
▁말씀에	-17896
▁말하지	-17897
▁맛있게	-17898
▁맞물려	-17899
▁맞춰져	-17900
▁메뉴를	-17901
▁명분이	-17902
▁모를까	-17903
▁모시고	-17904
▁모양새	-17905
▁목요일	-17906
▁목적은	-17907
▁목표만	-17908
▁몰입이	-17909
▁못했음	-17910
▁무능력	-17911
▁문유석	-17912
▁문의와	-17913
▁문의해	-17914
▁문자가	-17915
▁물품이	-17916
▁뭐라도	-17917
▁미팅이	-17918
▁믿음을	-17919
▁믿음이	-17920
▁밉보인	-17921
▁바꾸게	-17922
▁바꿔서	-17923
▁바라고	-17924
▁박탈이	-17925
▁박현정	-17926
▁반면에	-17927
▁반지를	-17928
▁받는거	-17929
▁받도록	-17930
▁발생을	-17931
▁밝혔다	-17932
▁방송이	-17933
▁방해를	-17934
▁배경에	-17935
▁밸런싱	-17936
▁법대로	-17937
▁법률과	-17938
▁법률상	-17939
▁변경도	-17940
▁변경시	-17941
▁변경전	-17942
▁보강이	-17943
▁보고만	-17944
▁보고및	-17945
▁보고용	-17946
▁보관을	-17947
▁보다가	-17948
▁보안관	-17949
▁보안상	-17950
▁보완해	-17951
▁복장을	-17952
▁복지에	-17953
▁본부에	-17954
▁봐서는	-17955
▁봤으면	-17956
▁부분임	-17957
▁부서도	-17958
▁부여와	-17959
▁부장은	-17960
▁부족에	-17961
▁분께는	-17962
▁분당수	-17963
▁분들만	-17964
▁분배를	-17965
▁분석이	-17966
▁분석해	-17967
▁분수광	-17968
▁불가함	-17969
▁불만과	-17970
▁불만도	-17971
▁불쾌한	-17972
▁비공개	-17973
▁비상식	-17974
▁비용도	-17975
▁비우고	-17976
▁비추천	-17977
▁비하면	-17978
▁빈도가	-17979
▁빈소를	-17980
▁빠져나	-17981
▁뽑아야	-17982
▁사건을	-17983
▁사규가	-17984
▁사례는	-17985
▁사무에	-17986
▁사안은	-17987
▁사업도	-17988
▁사진이	-17989
▁사측과	-17990
▁사태가	-17991
▁사항임	-17992
▁산업의	-17993
▁상관이	-17994
▁상승률	-17995
▁상에서	-17996
▁상태에	-17997
▁상황의	-17998
▁생각만	-17999
▁생활에	-18000
▁생활이	-18001
▁서면을	-18002
▁선거권	-18003
▁선의를	-18004
▁선택은	-18005
▁설명할	-18006
▁성과나	-18007
▁성숙한	-18008
▁세면대	-18009
▁세상을	-18010
▁세워서	-18011
▁소리도	-18012
▁소수가	-18013
▁손으로	-18014
▁수석을	-18015
▁수행해	-18016
▁숫자를	-18017
▁쉬어야	-18018
▁스텝이	-18019
▁습득을	-18020
▁시간당	-18021
▁시도도	-18022
▁시도해	-18023
▁시행해	-18024
▁싸우는	-18025
▁쌓이면	-18026
▁쓰는데	-18027
▁아니나	-18028
▁아님을	-18029
▁아랑곳	-18030
▁아래는	-18031
▁안되게	-18032
▁안되기	-18033
▁안되요	-18034
▁안되죠	-18035
▁안올라	-18036
▁안정을	-18037
▁않는것	-18038
▁않는게	-18039
▁않은것	-18040
▁압박을	-18041
▁앞두고	-18042
▁애사심	-18043
▁야근과	-18044
▁약정이	-18045
▁약하고	-18046
▁양해해	-18047
▁어디다	-18048
▁어슬렁	-18049
▁어쩌고	-18050
▁어쩌다	-18051
▁엄격히	-18052
▁업무용	-18053
▁업무이	-18054
▁업무할	-18055
▁없구요	-18056
▁없군요	-18057
▁없기에	-18058
▁없었을	-18059
▁없을것	-18060
▁여건상	-18061
▁여기다	-18062
▁여론을	-18063
▁역량향	-18064
▁연계가	-18065
▁연관이	-18066
▁연단위	-18067
▁연속성	-18068
▁열악함	-18069
▁영원히	-18070
▁옆자리	-18071
▁예약한	-18072
▁오늘의	-18073
▁오용할	-18074
▁올해의	-18075
▁옳다는	-18076
▁옵니다	-18077
▁와이프	-18078
▁요구할	-18079
▁요구함	-18080
▁요새는	-18081
▁요소에	-18082
▁요하는	-18083
▁용기와	-18084
▁용도가	-18085
▁우산을	-18086
▁움직임	-18087
▁원래의	-18088
▁유타워	-18089
▁은혜를	-18090
▁응원을	-18091
▁의무화	-18092
▁의미와	-18093
▁의미의	-18094
▁의자를	-18095
▁의지도	-18096
▁이거는	-18097
▁이번은	-18098
▁이상인	-18099
▁이용자	-18100
▁이후는	-18101
▁인간이	-18102
▁인물을	-18103
▁인상을	-18104
▁인식과	-18105
▁일반화	-18106
▁일방의	-18107
▁일으킬	-18108
▁일전에	-18109
▁임무를	-18110
▁임원과	-18111
▁입구에	-18112
▁입력은	-18113
▁입력이	-18114
▁입어도	-18115
▁있듯이	-18116
▁자기의	-18117
▁자율을	-18118
[...]
