<unk>	0
<s>	0
</s>	0
▁필요	-3.87187
▁구성원	-3.88961
▁업무	-4.09361
▁생각	-4.44837
▁회사	-4.47279
▁조직	-4.62388
▁사업	-4.80946
▁역량	-4.91223
▁시간	-4.9474
▁변화	-5.08555
▁팀원	-5.12517
▁기술	-5.22543
▁개선	-5.26193
▁평가	-5.32762
▁dt	-5.33513
▁경우	-5.34328
▁환경	-5.358
▁교육	-5.39239
▁사람	-5.40412
▁아니	-5.42166
▁성과	-5.4242
▁인력	-5.42992
▁우리	-5.43952
▁의견	-5.44404
▁관리	-5.44533
▁문화	-5.46825
▁부서	-5.48629
▁공유	-5.51989
▁협업	-5.52058
▁소통	-5.54674
▁지원	-5.56336
▁부족	-5.57361
▁관련	-5.58843
▁고객	-5.59518
▁부분	-5.59668
▁결정	-5.61033
▁팀장	-5.62416
▁제도	-5.63271
▁진행	-5.64291
▁수행	-5.65801
▁근무	-5.70977
▁문제	-5.71909
▁의사	-5.72421
▁외부	-5.75814
▁개인	-5.7724
▁개발	-5.7796
▁방향	-5.78869
▁목표	-5.79418
▁확보	-5.8071
▁사용	-5.83538
▁이해	-5.84789
▁리더	-5.85566
▁내용	-5.85957
▁운영	-5.88436
▁기회	-5.89445
▁사항	-5.89954
▁가능	-5.91185
▁프로젝트	-5.93481
▁적극	-5.93692
▁체계	-5.94117
▁상황	-5.95185
▁추진	-5.96809
▁시스템	-6.02538
▁본인	-6.0277
▁수당	-6.06428
▁노력	-6.06789
▁투자	-6.07394
▁중심	-6.11103
▁보상	-6.11229
▁방식	-6.11734
▁기존	-6.11861
▁제시	-6.13913
▁가지	-6.15743
▁모르	-6.15875
▁기준	-6.1667
▁전략	-6.1667
▁중요	-6.18011
▁선거	-6.18146
▁혁신	-6.18281
▁구조	-6.20194
▁때문	-6.22144
▁위원	-6.22144
▁판단	-6.24708
▁직원	-6.25578
▁강화	-6.26015
▁관심	-6.28983
▁만들	-6.31268
▁분위기	-6.32197
▁지속	-6.32197
▁comm	-6.33134
▁장기	-6.33606
▁변경	-6.3408
▁프로세스	-6.35356
▁이동	-6.38288
▁활동	-6.4046
▁전사	-6.40968
▁부문	-6.41138
▁고민	-6.41992
▁발생	-6.41992
▁대응	-6.42336
▁부여	-6.42336
▁이상	-6.43027
▁정도	-6.43374
▁결과	-6.44072
▁근로	-6.44952
▁집중	-6.45661
▁실행	-6.48732
▁휴가	-6.48732
▁관점	-6.491
▁연봉	-6.49654
▁자기	-6.50584
▁자리	-6.52091
▁고려	-6.53044
▁하나	-6.53044
▁해결	-6.53621
▁활용	-6.53813
▁해당	-6.54589
▁방법	-6.54783
▁본부	-6.5596
▁정보	-6.56553
▁ot	-6.5735
▁답변	-6.5735
▁제공	-6.58153
▁요청	-6.5876
▁전체	-6.59167
▁경영협의회	-6.6019
▁경영	-6.60602
▁사이트	-6.61017
▁말씀	-6.62269
▁보고	-6.63325
▁역할	-6.63325
▁조성	-6.63538
▁모습	-6.63751
▁보안	-6.63751
▁처리	-6.64178
▁수준	-6.64607
▁메일	-6.65688
▁과제	-6.66124
▁구성	-6.66124
▁지급	-6.66124
▁본사	-6.66562
▁노조	-6.67443
▁과정	-6.67664
▁참여	-6.68555
▁향상	-6.68555
▁기업	-6.68779
▁sk	-6.69004
▁회의	-6.69454
▁일부	-6.6968
▁인정	-6.70133
▁도전	-6.70361
▁실제	-6.70361
▁보이	-6.71276
▁적용	-6.71507
▁추가	-6.722
▁효율	-6.72432
▁경험	-6.72665
▁구체	-6.73367
▁수석	-6.73367
▁확대	-6.73367
▁사내	-6.75502
▁전문	-6.75983
▁이야기	-6.77684
▁반영	-6.7867
▁육성	-6.7867
▁책임	-6.7867
▁si	-6.79665
▁내부	-6.80417
▁임금	-6.80417
▁성장	-6.8067
▁자체	-6.8067
▁관계	-6.8143
▁현재	-6.8271
▁어려움	-6.82969
▁연차	-6.85057
▁미흡	-6.85322
▁리더십	-6.85586
▁입장	-6.85586
▁동의	-6.86118
▁비용	-6.86118
▁방안	-6.86653
▁확인	-6.87191
▁보완	-6.87461
▁얘기	-6.88275
▁주장	-6.88275
▁기반	-6.90479
▁신규	-6.90479
▁차원	-6.91318
▁포함	-6.92448
▁불편	-6.92732
▁급여	-6.93591
▁it	-6.93879
▁정책	-6.93879
▁달성	-6.94167
▁규정	-6.94747
▁수립	-6.95038
▁위주	-6.9533
▁이유	-6.95623
▁감사	-6.95916
▁요구	-6.96506
▁배려	-6.97398
▁현실	-6.97997
▁공감	-6.98902
▁실패	-6.9951
▁계획	-6.99815
▁근로자	-6.99815
▁지금	-7.00121
▁검토	-7.00428
▁단위	-7.00428
▁영역	-7.01356
▁직책	-7.01356
▁자신	-7.01667
▁특성	-7.01667
▁그룹	-7.02606
▁담당자	-7.02921
▁준비	-7.04511
▁단기	-7.04832
▁부탁	-7.05154
▁상대	-7.05477
▁vdi	-7.06126
▁권한	-7.06126
▁바뀌	-7.06126
▁문서	-7.07108
▁시행	-7.07108
▁경향	-7.07438
▁발전	-7.07438
▁능력	-7.07768
▁시키	-7.08433
▁측면	-7.08767
▁파악	-7.09102
▁실질	-7.09438
▁기본	-7.09775
▁이번	-7.09775
▁동기	-7.10113
▁시도	-7.10453
▁이슈	-7.10453
▁설명	-7.10794
▁임원	-7.10794
▁자유	-7.10794
▁직급	-7.11136
▁나오	-7.11479
▁존재	-7.11479
▁공간	-7.12168
▁자료	-7.12168
▁다양	-7.12515
▁선관위	-7.13212
▁인식	-7.13562
▁절차	-7.13562
▁마련	-7.13914
▁이익	-7.14266
▁기간	-7.1462
▁사례	-7.1462
▁선임	-7.1462
▁지시	-7.1462
▁협의	-7.1462
▁개개인	-7.14976
▁공정	-7.16409
▁공지	-7.16409
▁마음	-7.16409
▁전환	-7.16409
▁특정	-7.16771
▁발굴	-7.17498
▁복지	-7.17864
▁전문가	-7.17864
▁파트	-7.17864
▁담당	-7.18231
▁서비스	-7.18231
▁무엇	-7.18599
▁솔루션	-7.19712
▁주도	-7.20461
▁당사	-7.20838
▁부장	-7.20838
▁신청	-7.20838
▁선택	-7.21216
▁실적	-7.21977
▁작성	-7.22743
▁행동	-7.22743
▁이용	-7.23515
▁사실	-7.23903
▁분야	-7.24293
▁의미	-7.24293
▁이후	-7.24293
▁일정	-7.24685
▁소리	-7.25472
▁느낌	-7.25868
▁도입	-7.26665
▁접근	-7.26665
▁차이	-7.26665
▁도움	-7.27066
▁대비	-7.27872
▁사고	-7.27872
▁자율	-7.27872
▁아래	-7.28278
▁근거	-7.28685
▁리딩	-7.29094
▁매출	-7.29094
▁승진	-7.29094
▁사전	-7.29917
▁cha	-7.30331
▁협력	-7.30331
▁중간	-7.30747
▁댓글	-7.31584
▁자발	-7.31584
▁실행력	-7.32005
▁설정	-7.32428
▁형성	-7.32428
▁미래	-7.33279
▁전달	-7.33279
▁활성	-7.33279
▁bm	-7.34137
▁창출	-7.34137
▁대부분	-7.34569
▁유지	-7.34569
▁효과	-7.34569
▁올리	-7.35003
▁기대	-7.35876
▁현장	-7.35876
▁드리	-7.36316
▁작업	-7.36316
▁좌석	-7.37201
▁입사	-7.37646
▁최근	-7.38995
▁커뮤니케이션	-7.38995
▁po	-7.39448
▁대상	-7.39448
▁산업	-7.39448
▁투입	-7.39448
▁시작	-7.39904
▁성공	-7.40361
▁야근	-7.41283
▁대표	-7.42213
▁대하	-7.42213
▁주변	-7.42213
▁pm	-7.42682
▁근무자	-7.42682
▁느끼	-7.42682
▁결국	-7.43152
▁불만	-7.43152
▁판교	-7.43152
▁작년	-7.43625
▁대화	-7.45539
▁올해	-7.45539
▁자세	-7.46023
▁인원	-7.46999
▁전화	-7.46999
▁시장	-7.4749
▁이전	-7.4749
▁제고	-7.4749
▁추구	-7.48481
▁합리	-7.48481
▁가이드	-7.4948
▁논의	-7.4948
▁반대	-7.4948
▁사원	-7.4948
▁제안	-7.4948
▁아이디어	-7.49984
▁정확	-7.49984
▁협조	-7.49984
▁건강	-7.50491
▁신뢰	-7.50491
▁제한	-7.50491
▁투표	-7.50491
▁후보	-7.50491
▁만족	-7.50999
▁휴일	-7.50999
▁의식	-7.51511
▁형태	-7.51511
▁목적	-7.52025
▁채용	-7.52542
▁하이닉스	-7.52542
▁누구	-7.53061
▁별도	-7.53584
▁수평	-7.54109
▁제기	-7.54109
▁통상	-7.54109
▁상태	-7.54636
▁표현	-7.557
▁가치	-7.56236
▁조정	-7.56236
▁kpi	-7.56775
▁공감대	-7.56775
▁배치	-7.56775
▁의사소통	-7.56775
▁장애	-7.56775
▁공개	-7.57317
▁단계	-7.57862
▁의지	-7.57862
▁유심포니	-7.5841
▁biz	-7.58961
▁co	-7.58961
▁정의	-7.58961
▁clod	-7.59515
▁부담	-7.59515
▁비교	-7.60072
▁실무	-7.60072
▁요소	-7.60072
▁보내	-7.60633
▁조치	-7.60633
▁인상	-7.61196
▁포괄임금제	-7.61196
▁행복	-7.61196
▁예약	-7.62332
▁일방	-7.62332
▁수렴	-7.62905
▁여기	-7.62905
▁마인드	-7.63482
▁연장	-7.63482
▁동안	-7.64062
▁그러	-7.64645
▁고생	-7.65231
▁만큼	-7.65231
▁안정	-7.65231
▁기획	-7.65821
▁동료	-7.65821
▁업체	-7.65821
▁비전	-7.66415
▁관리자	-7.67012
▁동일	-7.67012
▁분석	-7.67012
▁핵심	-7.67012
▁모두	-7.67612
▁신경	-7.67612
▁이끌	-7.67612
▁출근	-7.67612
▁어디	-7.68216
▁정리	-7.68824
▁추진력	-7.69436
▁강조	-7.70051
▁과거	-7.70051
▁그것	-7.70051
▁선거구	-7.70671
▁역량개발	-7.70671
▁원활	-7.70671
▁퇴근	-7.70671
▁규모	-7.71921
▁기능	-7.71921
▁개편	-7.72551
▁신입	-7.72551
▁일반	-7.73186
▁지식	-7.73186
▁문의	-7.73825
▁예전	-7.73825
▁인재	-7.74468
▁게시판	-7.75116
▁pc	-7.75767
▁저희	-7.75767
▁오피스	-7.76423
▁개별	-7.77747
▁공식	-7.77747
▁지양	-7.78416
▁한계	-7.78416
▁권리	-7.7909
▁보유	-7.79768
▁여부	-7.79768
▁발휘	-7.8045
▁선출	-7.8045
▁수용	-7.8045
▁승인	-7.8045
▁신속	-7.8045
▁전사공지	-7.8045
▁긍정	-7.81138
▁습득	-7.8183
▁여유	-7.8183
▁이루	-7.8183
▁상호	-7.82526
▁정기	-7.82526
▁제외	-7.82526
▁계약	-7.83228
▁논리	-7.83228
▁의도	-7.83228
▁통신	-7.83228
▁iaio	-7.83935
▁io	-7.83935
▁다음	-7.83935
▁독려	-7.83935
▁진급	-7.83935
▁존중	-7.85364
▁포인트	-7.85364
▁사규	-7.86086
▁안내	-7.86086
▁its	-7.86813
▁단순	-7.86813
▁바탕	-7.86813
▁보장	-7.86813
▁사회	-7.86813
▁영향	-7.87545
▁ai	-7.88283
▁바꾸	-7.88283
▁사유	-7.88283
▁지향	-7.88283
▁취지	-7.88283
▁칭찬	-7.88283
▁구축	-7.89027
▁유관	-7.89027
▁형식	-7.89027
▁세미나	-7.89776
▁주말	-7.89776
▁to	-7.90531
▁여러분	-7.90531
▁mi	-7.91291
▁구분	-7.91291
▁생활	-7.91291
▁연계	-7.91291
▁인사	-7.91291
▁최소	-7.91291
▁희망	-7.91291
▁오픈	-7.92058
▁목소리	-7.9283
▁항목	-7.9283
▁경쟁력	-7.93608
▁관계사	-7.93608
▁연락	-7.93608
▁기술력	-7.94392
▁눈치	-7.94392
▁다수	-7.94392
▁생기	-7.94392
▁프로그램	-7.94392
▁행사	-7.94392
▁금융	-7.95183
▁ca	-7.9598
▁반복	-7.9598
▁양동완	-7.9598
▁연구	-7.9598
▁의무	-7.9598
▁의문	-7.9598
▁충원	-7.9598
▁하루	-7.9598
▁혁명	-7.9598
▁과도	-7.96783
▁모델	-7.96783
▁증가	-7.96783
▁합의	-7.96783
▁현상	-7.96783
▁만드	-7.97593
▁배분	-7.97593
▁저하	-7.97593
▁피드백	-7.97593
▁내재	-7.98409
▁수주	-7.98409
▁omm	-7.99232
▁강제	-7.99232
▁언급	-7.99232
▁회의실	-7.99232
▁ict	-8.00062
▁선정	-8.00062
▁언제	-8.00062
▁영업	-8.00062
▁행위	-8.00062
▁경력	-8.00899
▁공동	-8.00899
▁순환	-8.00899
▁원칙	-8.00899
▁채널	-8.00899
▁다니	-8.01743
▁리소스	-8.01743
▁처음	-8.01743
▁객사	-8.02594
▁속도	-8.02594
▁윤리	-8.02594
▁점검	-8.02594
▁접속	-8.02594
▁조사	-8.02594
▁주관	-8.02594
▁al	-8.03452
▁당장	-8.03452
▁조금	-8.03452
▁투명	-8.03452
▁예정	-8.04318
▁참고	-8.04318
▁향후	-8.04318
▁금액	-8.05191
▁기여	-8.05191
▁실무자	-8.05191
▁얼마	-8.05191
▁경청	-8.06072
▁마시	-8.06072
▁몰입	-8.06072
▁비즈니스	-8.06072
▁설치	-8.06072
▁이루어지	-8.06072
▁인프라	-8.06072
▁전반	-8.06072
▁주차	-8.06072
▁do	-8.06961
▁oi	-8.06961
▁계산	-8.06961
▁장점	-8.06961
▁격려	-8.07858
▁삭제	-8.07858
▁범위	-8.08763
▁사이	-8.08763
▁소속	-8.08763
▁ib	-8.09676
▁li	-8.09676
▁노동자	-8.09676
▁면담	-8.09676
▁방해	-8.09676
▁보고서	-8.09676
▁센터	-8.09676
▁인지	-8.09676
▁감정	-8.10598
▁데이터	-8.10598
▁방송	-8.10598
▁부재	-8.10598
▁스텝	-8.10598
▁입력	-8.10598
▁노동조합	-8.11528
▁등록	-8.11528
▁무시	-8.11528
▁수정	-8.11528
▁위하	-8.11528
▁제약	-8.11528
▁고정	-8.12467
▁오해	-8.12467
▁개념	-8.13415
▁경영진	-8.13415
▁대체	-8.13415
▁부정	-8.13415
▁위반	-8.13415
▁참석	-8.13415
▁창의	-8.13415
▁헬스	-8.13415
▁들어가	-8.14372
▁부하	-8.14372
▁시점	-8.14372
▁외부사이트	-8.14372
▁기본급	-8.15338
▁시너지	-8.15338
▁정착	-8.15338
▁캔미팅	-8.15338
▁vi	-8.16314
▁비율	-8.16314
▁상대방	-8.16314
▁성향	-8.16314
▁시기	-8.16314
▁예산	-8.16314
▁줄이	-8.16314
▁skt	-8.17299
▁등등	-8.17299
▁아쉬움	-8.17299
▁토론	-8.17299
▁통합	-8.17299
▁ok	-8.18294
▁경협	-8.18294
▁대외	-8.18294
▁분배	-8.18294
▁산정	-8.18294
▁챙기	-8.18294
▁평균	-8.18294
▁떨어지	-8.19299
▁시대	-8.19299
▁자원	-8.19299
▁태도	-8.19299
▁특별	-8.19299
▁ig	-8.20314
▁균형	-8.20314
▁법률	-8.20314
▁야간	-8.20314
▁이거	-8.20314
▁자격	-8.20314
▁장소	-8.20314
▁축소	-8.20314
▁이것	-8.2134
▁주기	-8.2134
▁혜택	-8.2134
▁그때	-8.22376
▁높이	-8.22376
▁도출	-8.22376
▁맞추	-8.22376
▁지방	-8.22376
▁초기	-8.22376
▁추천	-8.22376
▁모니터	-8.23423
▁바라	-8.23423
▁상위	-8.23423
▁위임	-8.23423
▁위치	-8.23423
▁화장실	-8.23423
▁pjt	-8.24481
▁sa	-8.24481
▁시각	-8.24481
▁이외	-8.24481
▁점심	-8.24481
▁제거	-8.24481
▁조건	-8.24481
▁퇴직	-8.24481
▁협의회	-8.24481
▁후배	-8.24481
▁휴무	-8.24481
▁강요	-8.25551
▁탈피	-8.25551
▁결론	-8.26632
▁성격	-8.26632
▁이제	-8.26632
▁정하	-8.26632
▁등급	-8.27725
▁지정	-8.27725
▁카드	-8.27725
▁통화	-8.27725
▁근본	-8.2883
▁배정	-8.2883
▁법인	-8.2883
▁사무실	-8.2883
▁없애	-8.2883
▁지연	-8.2883
▁퇴사	-8.2883
▁ta	-8.29947
▁개월	-8.29947
▁설득	-8.29947
▁설문	-8.29947
▁예상	-8.29947
▁정상	-8.29947
▁초과	-8.29947
▁회식	-8.29947
▁각자	-8.31077
▁당시	-8.31077
▁수직	-8.31077
▁유도	-8.31077
▁정산	-8.31077
▁교류	-8.3222
▁교체	-8.3222
▁소요	-8.3222
▁아침	-8.3222
▁양수석	-8.3222
▁원인	-8.3222
▁직접	-8.3222
▁질문	-8.3222
▁digial	-8.33376
▁노트북	-8.33376
▁대리	-8.33376
▁사안	-8.33376
▁수익	-8.33376
▁신사업	-8.33376
▁판결	-8.33376
▁hi	-8.34546
▁경쟁	-8.34546
▁모바일	-8.34546
▁장려	-8.34546
▁전자	-8.34546
▁체크	-8.34546
▁출퇴근	-8.34546
▁해외	-8.34546
▁가족	-8.35729
▁나가	-8.35729
▁대처	-8.35729
▁주제	-8.35729
▁지키	-8.35729
▁출마	-8.35729
▁대로	-8.36927
▁최소한	-8.36927
▁나누	-8.38139
▁문자	-8.38139
▁분리	-8.38139
▁불가	-8.38139
▁실명	-8.38139
▁자동	-8.38139
▁sl	-8.39366
▁과장	-8.39366
▁선거관리위원회	-8.39366
▁선제	-8.39366
▁실천	-8.39366
▁익명	-8.39366
▁청취	-8.39366
▁파일	-8.39366
▁할당	-8.39366
▁거리	-8.40608
▁동시	-8.40608
▁서로	-8.40608
▁영입	-8.40608
▁가요	-8.41866
▁개입	-8.41866
▁걱정	-8.41866
▁기분	-8.41866
▁끼리	-8.41866
▁업계	-8.41866
▁열정	-8.41866
▁우려	-8.41866
▁적응	-8.41866
▁점수	-8.41866
▁클라우드	-8.41866
▁평소	-8.41866
▁ha	-8.4314
▁문제점	-8.4314
▁소송	-8.4314
▁숫자	-8.4314
▁연말	-8.4314
▁제보	-8.4314
▁학습	-8.4314
▁glo	-8.4443
▁번호	-8.4443
▁부당	-8.4443
▁선배	-8.4443
▁요인	-8.4443
▁이미지	-8.4443
▁출장	-8.4443
▁la	-8.45738
▁차별	-8.45738
▁홍보	-8.45738
▁개방	-8.47062
▁노사	-8.47062
▁무리	-8.47062
▁무효	-8.47062
▁바라보	-8.47062
▁응원	-8.47062
▁장비	-8.47062
▁종료	-8.47062
▁주차장	-8.47062
▁직무	-8.47062
▁필수	-8.47062
▁ak	-8.48405
▁가시	-8.48405
▁개진	-8.48405
▁방문	-8.48405
▁선거운동	-8.48405
▁연결	-8.48405
▁인간	-8.48405
▁정신	-8.48405
▁통제	-8.48405
▁alig	-8.49765
▁강점	-8.49765
▁공통	-8.49765
▁관계자	-8.49765
▁대신	-8.49765
▁해소	-8.49765
▁허용	-8.49765
▁ag	-8.51144
▁구매	-8.51144
▁규칙	-8.51144
▁당사자	-8.51144
▁버스	-8.51144
▁수강	-8.51144
▁연관	-8.51144
▁이직	-8.51144
▁중복	-8.51144
▁현황	-8.51144
▁금번	-8.52543
▁돌아가	-8.52543
▁바람	-8.52543
▁방지	-8.52543
▁변하	-8.52543
▁부문장	-8.52543
▁운동	-8.52543
▁원하	-8.52543
▁의존	-8.52543
▁자연	-8.52543
▁os	-8.53961
▁갖추	-8.53961
▁걸리	-8.53961
▁금지	-8.53961
▁시설	-8.53961
▁요즘	-8.53961
▁이기주의	-8.53961
▁확장	-8.53961
▁ibm	-8.554
▁거기	-8.554
▁기억	-8.554
▁노동	-8.554
▁생산	-8.554
▁boom	-8.5686
▁명시	-8.5686
▁제조	-8.5686
▁중시	-8.5686
▁통보	-8.5686
▁aio	-8.58342
▁대안	-8.58342
▁사기	-8.58342
▁스스로	-8.58342
▁이름	-8.58342
▁저녁	-8.58342
▁정작	-8.58342
▁지적	-8.58342
▁포도	-8.58342
▁피해	-8.58342
▁근무지	-8.59846
▁기사	-8.59846
▁본질	-8.59846
▁사정	-8.59846
▁식사	-8.59846
▁유리	-8.59846
▁최고	-8.59846
▁현업	-8.59846
▁근태	-8.61372
▁동적	-8.61372
▁서베이	-8.61372
▁양성	-8.61372
▁우수	-8.61372
▁재무	-8.61372
▁지지	-8.61372
▁취합	-8.61372
▁폐지	-8.61372
▁계속	-8.62923
▁기타	-8.62923
▁납득	-8.62923
▁명회	-8.62923
▁스트레스	-8.62923
▁심의	-8.62923
▁완결	-8.62923
▁표시	-8.62923
▁금전	-8.64497
▁따르	-8.64497
▁보호	-8.64497
▁상사	-8.64497
▁우선	-8.64497
▁조율	-8.64497
▁첨부	-8.64497
▁편의	-8.64497
▁품질	-8.64497
▁계정	-8.66098
▁기다리	-8.66098
▁법원	-8.66098
▁보관	-8.66098
▁의심	-8.66098
▁절대	-8.66098
▁준수	-8.66098
▁직위	-8.66098
▁포기	-8.66098
▁내년	-8.67724
▁노동부	-8.67724
▁만약	-8.67724
▁사무	-8.67724
▁사옥	-8.67724
▁순간	-8.67724
▁통하	-8.67724
▁경쟁사	-8.69377
▁단점	-8.69377
▁세부	-8.69377
▁소속감	-8.69377
▁수고	-8.69377
▁오늘	-8.69377
▁용기	-8.69377
▁인하	-8.69377
▁저장	-8.69377
▁치중	-8.69377
▁트렌드	-8.69377
▁혼자	-8.69377
▁omaio	-8.71057
▁결재	-8.71057
▁따라가	-8.71057
▁로드맵	-8.71057
▁박탈	-8.71057
▁스탭	-8.71057
▁오류	-8.71057
▁인터넷	-8.71057
▁테스트	-8.71057
▁파견	-8.71057
▁comm.	-8.72767
▁daa	-8.72767
▁검진	-8.72767
▁비중	-8.72767
▁암호	-8.72767
▁자산	-8.72767
▁친분	-8.72767
▁확산	-8.72767
▁휴직	-8.72767
▁희생	-8.72767
▁il	-8.74506
▁공격	-8.74506
▁극대	-8.74506
▁대변	-8.74506
▁마지막	-8.74506
▁병행	-8.74506
▁불안감	-8.74506
▁비난	-8.74506
▁비즈	-8.74506
▁상시	-8.74506
▁식당	-8.74506
▁주요	-8.74506
▁증대	-8.74506
▁화면	-8.74506
▁igh	-8.76276
▁가입	-8.76276
▁고용	-8.76276
▁교통비	-8.76276
▁보수	-8.76276
▁복리	-8.76276
▁분기	-8.76276
▁사장	-8.76276
▁순위	-8.76276
▁압박	-8.76276
▁여건	-8.76276
▁인정받	-8.76276
▁잘못	-8.76276
▁저해	-8.76276
▁지역	-8.76276
▁차세대	-8.76276
▁타인	-8.76276
▁bala	-8.78078
▁공부	-8.78078
▁마찬가지	-8.78078
▁보통	-8.78078
▁비밀	-8.78078
▁사와	-8.78078
▁아이	-8.78078
▁엘리베이터	-8.78078
▁용량	-8.78078
▁해석	-8.78078
▁lad	-8.79913
▁ma	-8.79913
▁감소	-8.79913
▁게시	-8.79913
▁나아가	-8.79913
▁나중	-8.79913
▁낭비	-8.79913
▁노무	-8.79913
▁노사협	-8.79913
▁당하	-8.79913
▁반응	-8.79913
▁발표	-8.79913
▁사용자	-8.79913
▁상관	-8.79913
▁커리어	-8.79913
▁팀제	-8.79913
▁판례	-8.79913
▁val	-8.81782
▁가져가	-8.81782
▁검증	-8.81782
▁그분	-8.81782
▁나머지	-8.81782
▁단기간	-8.81782
▁대우	-8.81782
▁메뉴	-8.81782
▁사업장	-8.81782
▁상승	-8.81782
▁상하	-8.81782
▁스마트워크	-8.81782
▁위법	-8.81782
▁정부	-8.81782
▁지하	-8.81782
▁질책	-8.81782
▁차단	-8.81782
▁체감	-8.81782
▁측정	-8.81782
▁코칭	-8.81782
▁포괄	-8.81782
▁poi	-8.83687
▁가정	-8.83687
▁개발자	-8.83687
▁국내	-8.83687
▁배제	-8.83687
▁서버	-8.83687
▁선도	-8.83687
▁소극	-8.83687
▁실력	-8.83687
▁의자	-8.83687
▁적정	-8.83687
▁정립	-8.83687
▁축적	-8.83687
▁계시	-8.85628
▁그동안	-8.85628
▁나름	-8.85628
▁단체	-8.85628
▁대기	-8.85628
▁대다수	-8.85628
▁대책	-8.85628
▁더불	-8.85628
▁목표달성	-8.85628
▁불안	-8.85628
▁소수	-8.85628
▁아무	-8.85628
▁일어나	-8.85628
▁형평	-8.85628
▁cl	-8.87609
▁과다	-8.87609
▁권위	-8.87609
▁나라	-8.87609
▁나이	-8.87609
▁당신	-8.87609
▁배포	-8.87609
▁신고	-8.87609
▁심포니	-8.87609
▁조화	-8.87609
▁차장	-8.87609
▁포장	-8.87609
▁협상	-8.87609
▁id	-8.89629
▁ida	-8.89629
▁관여	-8.89629
▁약점	-8.89629
▁오후	-8.89629
▁움직이	-8.89629
▁이하	-8.89629
▁이해도	-8.89629
▁적시	-8.89629
▁집착	-8.89629
▁책임지	-8.89629
▁처우	-8.89629
▁최종	-8.89629
▁ho	-8.91691
▁mis	-8.91691
▁so	-8.91691
▁svy	-8.91691
▁검색	-8.91691
▁넘어가	-8.91691
▁단축	-8.91691
▁대상자	-8.91691
▁매너	-8.91691
▁미치	-8.91691
▁받아들이	-8.91691
▁발견	-8.91691
▁실시	-8.91691
▁양해	-8.91691
▁올라오	-8.91691
▁우리회사	-8.91691
▁의회	-8.91691
▁이해관계	-8.91691
▁종합	-8.91691
▁주일	-8.91691
▁참조	-8.91691
▁책상	-8.91691
▁최대한	-8.91691
▁키우	-8.91691
▁활력	-8.91691
▁om	-8.93796
▁경직	-8.93796
▁글로벌	-8.93796
▁비지니스	-8.93796
▁비판	-8.93796
▁세상	-8.93796
▁세우	-8.93796
▁솔선수범	-8.93796
▁인센티브	-8.93796
▁자부심	-8.93796
▁진심	-8.93796
▁집단	-8.93796
▁혼란	-8.93796
▁bp	-8.95947
▁da	-8.95947
▁voi	-8.95947
▁담배	-8.95947
▁떠나	-8.95947
▁모니터링	-8.95947
▁미팅	-8.95947
▁생각나	-8.95947
▁셔틀	-8.95947
▁소진	-8.95947
▁원가	-8.95947
▁월급	-8.95947
▁이러	-8.95947
▁정치	-8.95947
▁제품	-8.95947
▁찬성	-8.95947
▁커피	-8.95947
▁플랫	-8.95947
▁확신	-8.95947
▁회피	-8.95947
▁sm	-8.98145
▁고충	-8.98145
▁관행	-8.98145
▁능동	-8.98145
▁돌파	-8.98145
▁마케팅	-8.98145
▁메신저	-8.98145
▁발언	-8.98145
▁불리	-8.98145
▁사과	-8.98145
▁소규모	-8.98145
▁수동	-8.98145
▁실현	-8.98145
▁연초	-8.98145
▁완료	-8.98145
▁요구사항	-8.98145
▁이메일	-8.98145
▁조심	-8.98145
▁지표	-8.98145
▁컨설팅	-8.98145
▁확정	-8.98145
▁ladi	-9.00392
▁skms	-9.00392
▁갈등	-9.00392
▁나서	-9.00392
▁동종	-9.00392
▁따지	-9.00392
▁리스크	-9.00392
▁메시지	-9.00392
▁상당	-9.00392
▁서울	-9.00392
▁신설	-9.00392
▁애정	-9.00392
▁어필	-9.00392
▁용인	-9.00392
▁윗분	-9.00392
▁자제	-9.00392
▁정체	-9.00392
▁제조사업	-9.00392
▁조절	-9.00392
▁조합원	-9.00392
▁증진	-9.00392
▁지도	-9.00392
▁책자	-9.00392
▁패기	-9.00392
▁di	-9.02691
▁개설	-9.02691
▁규제	-9.02691
▁내리	-9.02691
▁달라지	-9.02691
▁물리	-9.02691
▁벗어나	-9.02691
▁상식	-9.02691
▁원분	-9.02691
▁전담	-9.02691
▁전파	-9.02691
▁줄어들	-9.02691
▁가격	-9.05044
▁계열사	-9.05044
▁고취	-9.05044
▁괴리	-9.05044
▁구글	-9.05044
▁들어오	-9.05044
▁실수	-9.05044
▁얼굴	-9.05044
▁자동차	-9.05044
▁조합	-9.05044
▁직장	-9.05044
▁책임감	-9.05044
▁최선	-9.05044
▁할애	-9.05044
▁had	-9.07454
▁pl	-9.07454
▁tango	-9.07454
▁냄새	-9.07454
▁네트워크	-9.07454
▁늘어나	-9.07454
▁디지털	-9.07454
▁미지급	-9.07454
▁버리	-9.07454
▁불법	-9.07454
▁산출물	-9.07454
▁삼성	-9.07454
▁선물	-9.07454
▁에너지	-9.07454
▁자사	-9.07454
▁절감	-9.07454
▁창구	-9.07454
▁창립	-9.07454
▁타파	-9.07454
▁한정	-9.07454
▁후생	-9.07454
▁soc	-9.09923
▁건의	-9.09923
▁뉴스	-9.09923
▁라인	-9.09923
▁모금	-9.09923
▁부수	-9.09923
▁비젼	-9.09923
▁사진	-9.09923
▁심야	-9.09923
▁안보	-9.09923
▁온라인	-9.09923
▁우회전	-9.09923
▁이내	-9.09923
▁주위	-9.09923
▁체제	-9.09923
▁케이스	-9.09923
▁kdb	-9.12455
▁supx	-9.12455
▁tool	-9.12455
▁강도	-9.12455
▁개정	-9.12455
▁교육비	-9.12455
▁구하	-9.12455
▁그림	-9.12455
▁극복	-9.12455
▁나무	-9.12455
▁당선	-9.12455
▁당일	-9.12455
▁마무리	-9.12455
▁만나	-9.12455
▁발송	-9.12455
▁상기	-9.12455
▁상여금	-9.12455
▁소신	-9.12455
▁손해	-9.12455
▁시정	-9.12455
▁안목	-9.12455
▁연속	-9.12455
▁위원회	-9.12455
▁접수	-9.12455
▁증거	-9.12455
▁지나	-9.12455
▁처벌	-9.12455
▁최대	-9.12455
▁축하	-9.12455
▁타사	-9.12455
▁횟수	-9.12455
▁흐름	-9.12455
▁iio	-9.15052
▁ol	-9.15052
▁ppt	-9.15052
▁각종	-9.15052
▁감성	-9.15052
▁결여	-9.15052
▁권장	-9.15052
▁기관	-9.15052
▁드라이브	-9.15052
▁레벨	-9.15052
▁민주	-9.15052
▁법무	-9.15052
▁보너스	-9.15052
▁스타일	-9.15052
▁아마존	-9.15052
▁약간	-9.15052
▁위험	-9.15052
▁임직원	-9.15052
▁증설	-9.15052
▁진단	-9.15052
▁차량	-9.15052
▁추정	-9.15052
▁트랜드	-9.15052
▁ci	-9.17719
▁div	-9.17719
▁가산	-9.17719
▁감수	-9.17719
▁감안	-9.17719
▁거부	-9.17719
▁돌리	-9.17719
▁두려워하	-9.17719
▁배우	-9.17719
▁분산	-9.17719
▁사건	-9.17719
▁선행	-9.17719
▁소모	-9.17719
▁소식	-9.17719
▁에티켓	-9.17719
▁여자	-9.17719
▁연봉제	-9.17719
▁유사	-9.17719
▁인수	-9.17719
▁일괄	-9.17719
▁일수	-9.17719
▁제목	-9.17719
▁조항	-9.17719
▁충돌	-9.17719
▁취업규칙	-9.17719
▁카페	-9.17719
▁피선거권	-9.17719
▁그간	-9.20459
▁글쓴이	-9.20459
▁내역	-9.20459
▁네이버	-9.20459
▁별개	-9.20459
▁보강	-9.20459
▁부합	-9.20459
▁사물함	-9.20459
▁상담	-9.20459
▁아웃룩	-9.20459
▁약속	-9.20459
▁여지	-9.20459
▁요망	-9.20459
▁우선시	-9.20459
▁은행	-9.20459
▁일관	-9.20459
▁주니어	-9.20459
▁직군	-9.20459
▁차례	-9.20459
▁표준	-9.20459
▁cll	-9.23276
▁skill	-9.23276
▁yamm	-9.23276
▁경고	-9.23276
▁관철	-9.23276
▁기념일	-9.23276
▁누락	-9.23276
▁단어	-9.23276
▁머리	-9.23276
▁버튼	-9.23276
▁법정	-9.23276
▁불신	-9.23276
▁선발	-9.23276
▁설계	-9.23276
▁소개	-9.23276
▁요건	-9.23276
▁위원장	-9.23276
▁전공	-9.23276
▁주의	-9.23276
▁진정	-9.23276
▁추후	-9.23276
▁취소	-9.23276
▁친절	-9.23276
▁컨텐츠	-9.23276
▁편중	-9.23276
▁com	-9.26175
▁dlivy	-9.26175
▁감시	-9.26175
▁결단력	-9.26175
▁네이트	-9.26175
▁대답	-9.26175
▁박탈감	-9.26175
▁벤처	-9.26175
▁본문	-9.26175
▁분실	-9.26175
▁비례	-9.26175
▁신중	-9.26175
▁의하	-9.26175
▁자극	-9.26175
▁정년	-9.26175
▁정성	-9.26175
▁제출	-9.26175
▁중점	-9.26175
▁진출	-9.26175
▁차선	-9.26175
▁취하	-9.26175
▁치열	-9.26175
▁한편	-9.26175
▁합병	-9.26175
▁확립	-9.26175
▁ga	-9.2916
▁oldg	-9.2916
▁공모	-9.2916
▁공평	-9.2916
▁끝나	-9.2916
▁독서	-9.2916
▁디테일	-9.2916
▁로컬	-9.2916
▁분당	-9.2916
▁블라인드	-9.2916
▁세대	-9.2916
▁세분	-9.2916
▁소외	-9.2916
▁소외감	-9.2916
▁수단	-9.2916
▁여론	-9.2916
▁원격	-9.2916
▁유급	-9.2916
▁응대	-9.2916
▁일치	-9.2916
▁자분	-9.2916
▁전용	-9.2916
▁정식	-9.2916
▁주인	-9.2916
▁카리스마	-9.2916
▁현지	-9.2916
▁휴게	-9.2916
▁휴식	-9.2916
▁mo	-9.32237
▁th	-9.32237
▁가중	-9.32237
▁거시	-9.32237
▁공공	-9.32237
▁구현	-9.32237
▁그거	-9.32237
▁기피	-9.32237
▁독단	-9.32237
▁반면	-9.32237
▁백업	-9.32237
▁보험	-9.32237
▁부작용	-9.32237
▁사료	-9.32237
▁성능	-9.32237
▁소스	-9.32237
▁실망	-9.32237
▁왜곡	-9.32237
▁욕심	-9.32237
▁원천	-9.32237
▁윗사람	-9.32237
▁이어지	-9.32237
▁전가	-9.32237
▁접목	-9.32237
▁증명	-9.32237
▁지요	-9.32237
▁지장	-9.32237
▁진입	-9.32237
▁차등	-9.32237
▁촉진	-9.32237
▁특화	-9.32237
▁함양	-9.32237
▁현행	-9.32237
▁c&c	-9.35412
▁og	-9.35412
▁각각	-9.35412
▁교환	-9.35412
▁구내식당	-9.35412
▁국가	-9.35412
▁꼰대	-9.35412
▁단합	-9.35412
▁대형	-9.35412
▁동결	-9.35412
▁동의서	-9.35412
▁배경	-9.35412
▁부모	-9.35412
▁사태	-9.35412
▁설득력	-9.35412
▁소문	-9.35412
▁알리	-9.35412
▁애초	-9.35412
▁오전	-9.35412
▁옮기	-9.35412
▁완벽	-9.35412
▁완화	-9.35412
▁외치	-9.35412
▁유출	-9.35412
▁의구심	-9.35412
▁임기	-9.35412
▁전년	-9.35412
▁조언	-9.35412
▁조회	-9.35412
▁지침	-9.35412
▁짜증	-9.35412
▁찾아보	-9.35412
▁크기	-9.35412
▁페이지	-9.35412
▁프로	-9.35412
▁해결책	-9.35412
▁km	-9.38691
▁lg	-9.38691
▁개년	-9.38691
▁데스크	-9.38691
▁맡기	-9.38691
▁먹거리	-9.38691
▁미비	-9.38691
▁반도체	-9.38691
▁반말	-9.38691
▁분담	-9.38691
▁성립	-9.38691
▁업적	-9.38691
▁오프라인	-9.38691
▁육아	-9.38691
▁주체	-9.38691
▁확충	-9.38691
▁휴게실	-9.38691
▁ala	-9.42081
▁im	-9.42081
▁jo	-9.42081
▁간섭	-9.42081
▁고도	-9.42081
▁기자	-9.42081
▁까지	-9.42081
▁노하우	-9.42081
▁누르	-9.42081
▁력사	-9.42081
▁무료	-9.42081
▁문구	-9.42081
▁밴드	-9.42081
▁불명확	-9.42081
▁삼성전자	-9.42081
▁아무것	-9.42081
▁용도	-9.42081
▁워크	-9.42081
▁유연근	-9.42081
▁응답	-9.42081
▁인원수	-9.42081
▁임의	-9.42081
▁작성자	-9.42081
▁장치	-9.42081
▁전통	-9.42081
▁총괄	-9.42081
▁최신	-9.42081
▁출장비	-9.42081
▁침해	-9.42081
▁커리큘럼	-9.42081
▁컬쳐	-9.42081
▁탄력	-9.42081
▁편안	-9.42081
▁포상	-9.42081
▁플랜	-9.42081
▁하위	-9.42081
▁한국	-9.42081
▁한쪽	-9.42081
▁modl	-9.4559
▁건물	-9.4559
▁계발	-9.4559
▁급변	-9.4559
▁기록	-9.4559
▁기술자	-9.4559
▁누적	-9.4559
▁도메인	-9.4559
▁뒷받침	-9.4559
▁본연	-9.4559
▁비방	-9.4559
▁사후	-9.4559
▁숙소	-9.4559
▁악용	-9.4559
▁연동	-9.4559
▁예측	-9.4559
▁올라가	-9.4559
▁유기	-9.4559
▁이력	-9.4559
▁입증	-9.4559
▁작용	-9.4559
▁전개	-9.4559
▁출입	-9.4559
▁친밀	-9.4559
▁특이	-9.4559
▁평등	-9.4559
▁핸드폰	-9.4559
▁행정	-9.4559
▁big	-9.49227
▁day	-9.49227
▁nd	-9.49227
▁oom	-9.49227
▁sds	-9.49227
▁결과물	-9.49227
▁국민	-9.49227
▁모임	-9.49227
▁민주주의	-9.49227
▁믿음	-9.49227
▁바닥	-9.49227
▁분실물	-9.49227
▁빠지	-9.49227
▁사무국	-9.49227
▁상충	-9.49227
▁상품	-9.49227
▁선진	-9.49227
▁소급	-9.49227
▁스킬	-9.49227
▁시야	-9.49227
▁심화	-9.49227
▁양보	-9.49227
▁융합	-9.49227
▁의혹	-9.49227
▁이행	-9.49227
▁전제	-9.49227
▁조장	-9.49227
▁종속	-9.49227
▁청구	-9.49227
▁친구	-9.49227
▁캠퍼스	-9.49227
▁특수	-9.49227
▁파트너	-9.49227
▁해명	-9.49227
▁am	-9.53001
▁ba	-9.53001
▁coodi	-9.53001
▁gid	-9.53001
▁lvl	-9.53001
▁mgm	-9.53001
▁ms	-9.53001
▁pah	-9.53001
▁pi	-9.53001
▁vls	-9.53001
▁강의	-9.53001
▁곤란	-9.53001
▁과반수	-9.53001
▁그룹웨어	-9.53001
▁근처	-9.53001
▁급진	-9.53001
▁노출	-9.53001
▁덕분	-9.53001
▁동참	-9.53001
▁로그인	-9.53001
▁마감	-9.53001
▁메모리	-9.53001
▁미루	-9.53001
▁병원	-9.53001
▁부팅	-9.53001
▁상급자	-9.53001
▁상반기	-9.53001
▁상세	-9.53001
▁생존	-9.53001
▁소지	-9.53001
▁신호	-9.53001
▁쌓이	-9.53001
▁약정	-9.53001
▁일자	-9.53001
▁임시	-9.53001
▁자녀	-9.53001
▁정량	-9.53001
▁정자	-9.53001
▁주식회사	-9.53001
▁주어지	-9.53001
▁지인	-9.53001
▁특정인	-9.53001
▁파격	-9.53001
▁피곤	-9.53001
▁하반기	-9.53001
▁한마디	-9.53001
▁oa	-9.56923
▁pa	-9.56923
▁pmo	-9.56923
▁sy	-9.56923
▁감각	-9.56923
▁강압	-9.56923
▁개최	-9.56923
▁국회의원	-9.56923
▁금요일	-9.56923
▁금일	-9.56923
▁기초	-9.56923
▁느림	-9.56923
▁대면	-9.56923
▁도구	-9.56923
▁도모	-9.56923
▁독립	-9.56923
▁동등	-9.56923
▁라디오	-9.56923
▁만족도	-9.56923
▁명분	-9.56923
▁명세서	-9.56923
▁모색	-9.56923
▁모순	-9.56923
▁미션	-9.56923
▁방어	-9.56923
▁배양	-9.56923
▁부대	-9.56923
▁사망	-9.56923
▁상처	-9.56923
▁서명	-9.56923
▁시절	-9.56923
▁실습	-9.56923
▁안건	-9.56923
▁예의	-9.56923
▁운용	-9.56923
▁워라	-9.56923
▁지난번	-9.56923
▁집합	-9.56923
▁징계	-9.56923
▁최적	-9.56923
▁컴퓨터	-9.56923
▁코드	-9.56923
▁텔레콤	-9.56923
▁평일	-9.56923
▁품의서	-9.56923
▁프레임	-9.56923
▁피력	-9.56923
▁핑계	-9.56923
▁허리	-9.56923
▁협박	-9.56923
▁흡연	-9.56923
▁ail	-9.61006
▁pla	-9.61006
▁sot	-9.61006
▁tam	-9.61006
▁vb	-9.61006
▁구두	-9.61006
▁김상범	-9.61006
▁니다	-9.61006
▁도달	-9.61006
▁리뷰	-9.61006
▁막말	-9.61006
▁맞춤	-9.61006
▁매몰	-9.61006
▁명절	-9.61006
▁발급	-9.61006
▁법리	-9.61006
▁상실	-9.61006
▁수년	-9.61006
▁수록	-9.61006
▁순서	-9.61006
▁스피드	-9.61006
▁슬리퍼	-9.61006
▁심사	-9.61006
▁언행	-9.61006
▁옛날	-9.61006
▁완성	-9.61006
▁용어	-9.61006
▁이기	-9.61006
▁이기주	-9.61006
▁인증	-9.61006
▁재원	-9.61006
▁전사관	-9.61006
▁정비	-9.61006
▁증빙	-9.61006
▁초래	-9.61006
▁포용력	-9.61006
▁포탈	-9.61006
▁학교	-9.61006
▁행태	-9.61006
▁회계	-9.61006
▁휴지통	-9.61006
▁dail	-9.65262
▁oaio	-9.65262
▁감독	-9.65262
▁강사	-9.65262
▁결격	-9.65262
▁고집	-9.65262
▁공정성	-9.65262
▁구정	-9.65262
▁내려오	-9.65262
▁논란	-9.65262
▁놓치	-9.65262
▁다운	-9.65262
▁동향	-9.65262
▁두려움	-9.65262
▁미안	-9.65262
▁반성	-9.65262
▁비데	-9.65262
▁사라지	-9.65262
▁살펴보	-9.65262
▁선호	-9.65262
▁세계	-9.65262
▁수치	-9.65262
▁스팸	-9.65262
▁시행착오	-9.65262
▁양식	-9.65262
▁업무상	-9.65262
▁엑셀	-9.65262
▁운운	-9.65262
▁위배	-9.65262
▁유효	-9.65262
▁이견	-9.65262
▁인생	-9.65262
▁입후보자	-9.65262
▁전형	-9.65262
▁제반	-9.65262
▁종이	-9.65262
▁종일	-9.65262
▁지나가	-9.65262
▁진실	-9.65262
▁채우	-9.65262
▁폐쇄	-9.65262
▁포용	-9.65262
▁허락	-9.65262
▁허위	-9.65262
▁훼손	-9.65262
▁ao	-9.69707
▁cns	-9.69707
▁lgay	-9.69707
▁가처분	-9.69707
▁거짓말	-9.69707
▁결집	-9.69707
▁경제	-9.69707
▁고참	-9.69707
▁구시대	-9.69707
▁균등	-9.69707
▁나아지	-9.69707
▁넘기	-9.69707
▁눈높이	-9.69707
▁늘리	-9.69707
▁다가가	-9.69707
▁대법원	-9.69707
▁대통령	-9.69707
▁들리	-9.69707
▁명목	-9.69707
▁모범	-9.69707
▁무조건	-9.69707
▁복구	-9.69707
▁비하	-9.69707
▁사양	-9.69707
▁상향	-9.69707
▁셀프	-9.69707
▁스마트	-9.69707
▁시니어	-9.69707
▁애사심	-9.69707
▁어쩌	-9.69707
▁예시	-9.69707
▁예외	-9.69707
▁완수	-9.69707
▁이득	-9.69707
▁이론	-9.69707
▁이벤트	-9.69707
▁일원	-9.69707
▁자질	-9.69707
▁장기간	-9.69707
▁적음	-9.69707
▁정무	-9.69707
▁조기	-9.69707
▁지내	-9.69707
▁초점	-9.69707
▁키보드	-9.69707
▁테이블	-9.69707
▁팀웍	-9.69707
▁피로도	-9.69707
▁필요시	-9.69707
▁호불호	-9.69707
▁go	-9.74359
▁iv	-9.74359
▁oadma	-9.74359
▁계기	-9.74359
▁계층	-9.74359
▁공기	-9.74359
▁공상	-9.74359
▁근로계약서	-9.74359
▁근속	-9.74359
▁내지	-9.74359
▁대한민국	-9.74359
▁리드	-9.74359
▁물품	-9.74359
▁방침	-9.74359
▁밸런스	-9.74359
▁보단	-9.74359
▁복장	-9.74359
▁분장	-9.74359
▁붙이	-9.74359
▁비치	-9.74359
▁서면	-9.74359
▁선입견	-9.74359
▁수집	-9.74359
▁습관	-9.74359
▁시험	-9.74359
▁실효	-9.74359
▁업그레이드	-9.74359
▁엔지니어	-9.74359
▁여성	-9.74359
▁오랫동안	-9.74359
▁외주	-9.74359
▁월요일	-9.74359
▁유발	-9.74359
▁유형	-9.74359
▁인물	-9.74359
▁자신감	-9.74359
▁장표	-9.74359
▁전송	-9.74359
▁점진	-9.74359
▁질의	-9.74359
▁차연우	-9.74359
▁차지	-9.74359
▁참가	-9.74359
▁초등	-9.74359
▁취급	-9.74359
▁퀄리티	-9.74359
▁헌법	-9.74359
▁ilo	-9.79238
▁ip	-9.79238
▁lb	-9.79238
▁mak	-9.79238
▁myh	-9.79238
▁no	-9.79238
▁olook	-9.79238
▁pilo	-9.79238
▁talk	-9.79238
▁tim	-9.79238
▁가져오	-9.79238
▁개발비	-9.79238
▁결제	-9.79238
▁공용	-9.79238
▁국한	-9.79238
▁끼치	-9.79238
▁남자	-9.79238
▁년차	-9.79238
▁논쟁	-9.79238
▁니즈	-9.79238
▁대회	-9.79238
▁독자	-9.79238
▁떠넘기	-9.79238
▁러닝	-9.79238
▁마디	-9.79238
▁마음가짐	-9.79238
▁마진	-9.79238
▁매니저	-9.79238
▁몰리	-9.79238
▁무제	-9.79238
▁바램	-9.79238
▁방치	-9.79238
▁본격	-9.79238
▁사고방식	-9.79238
▁사상	-9.79238
▁세팅	-9.79238
▁소음	-9.79238
▁수반	-9.79238
▁스킨	-9.79238
▁실시간	-9.79238
▁안전	-9.79238
▁어도비	-9.79238
▁업데이트	-9.79238
▁온도	-9.79238
▁완전	-9.79238
▁원래	-9.79238
▁윈도우	-9.79238
▁의존도	-9.79238
▁이수	-9.79238
▁이의	-9.79238
▁인색	-9.79238
▁일시	-9.79238
▁입체	-9.79238
▁자존	-9.79238
▁재배치	-9.79238
▁적재적소	-9.79238
▁접하	-9.79238
▁조직원	-9.79238
▁중립	-9.79238
▁중앙	-9.79238
▁지부	-9.79238
▁지우	-9.79238
▁철저	-9.79238
▁출발	-9.79238
▁카톡	-9.79238
▁캠페인	-9.79238
▁판매	-9.79238
▁폐기	-9.79238
▁현안	-9.79238
▁협약	-9.79238
▁화합	-9.79238
▁회견	-9.79238
▁회원	-9.79238
▁휘둘리	-9.79238
▁ah	-9.84367
▁bak	-9.84367
▁chall	-9.84367
▁sal	-9.84367
▁가리	-9.84367
▁가이드라인	-9.84367
▁개척	-9.84367
▁거짓	-9.84367
▁게임	-9.84367
▁과자	-9.84367
▁기원	-9.84367
▁남기	-9.84367
▁누리	-9.84367
▁담보	-9.84367
▁동력	-9.84367
▁디자인	-9.84367
▁링크	-9.84367
▁매뉴얼	-9.84367
▁모양	-9.84367
▁민트	-9.84367
▁변기	-9.84367
▁변동	-9.84367
▁보충	-9.84367
▁분과	-9.84367
▁상주	-9.84367
▁소홀	-9.84367
▁수련	-9.84367
▁스타트업	-9.84367
▁스피커폰	-9.84367
▁식대	-9.84367
▁아이템	-9.84367
▁어울리	-9.84367
▁여기저기	-9.84367
▁욕먹	-9.84367
▁원수	-9.84367
▁의결	-9.84367
▁이때	-9.84367
▁이분	-9.84367
▁일요일	-9.84367
▁장시간	-9.84367
▁전적	-9.84367
▁정액	-9.84367
▁주신	-9.84367
▁지원금	-9.84367
▁최우선	-9.84367
▁클릭	-9.84367
▁토의	-9.84367
▁파워	-9.84367
▁패스	-9.84367
▁편향	-9.84367
▁홀딩스	-9.84367
▁agm	-9.89774
▁gad	-9.89774
▁ii	-9.89774
▁my	-9.89774
▁noki	-9.89774
▁sym	-9.89774
▁가운데	-9.89774
▁간담회	-9.89774
▁거절	-9.89774
▁결단	-9.89774
▁경영층	-9.89774
▁고유	-9.89774
▁공약	-9.89774
▁관하	-9.89774
▁구역	-9.89774
▁구호	-9.89774
▁권익	-9.89774
▁기만	-9.89774
▁나타나	-9.89774
▁난리	-9.89774
▁낮추	-9.89774
▁내놓	-9.89774
▁내일	-9.89774
▁넘치	-9.89774
▁누군가	-9.89774
▁다행	-9.89774
▁단기성	-9.89774
▁동감	-9.89774
▁동반	-9.89774
▁라기	-9.89774
▁말투	-9.89774
▁매각	-9.89774
▁몰두	-9.89774
▁문항	-9.89774
▁반박	-9.89774
▁벤치마킹	-9.89774
▁보궐	-9.89774
▁브랜드	-9.89774
▁서류	-9.89774
▁성숙	-9.89774
▁성취	-9.89774
▁셔틀버스	-9.89774
▁시급	-9.89774
▁악순환	-9.89774
▁알아보	-9.89774
▁양방향	-9.89774
▁어린이집	-9.89774
▁억지	-9.89774
▁역활	-9.89774
▁연휴	-9.89774
▁오르	-9.89774
▁요새	-9.89774
▁요약	-9.89774
▁이틀	-9.89774
▁이현수	-9.89774
▁인격	-9.89774
▁자랑	-9.89774
▁잡히	-9.89774
▁전부	-9.89774
▁정년퇴직	-9.89774
▁정자동	-9.89774
▁좌회전	-9.89774
▁직설	-9.89774
▁최초	-9.89774
▁취약	-9.89774
▁친밀감	-9.89774
▁침묵	-9.89774
▁컨퍼런스	-9.89774
▁특징	-9.89774
▁패치	-9.89774
▁편리	-9.89774
▁폴더	-9.89774
▁플라스틱	-9.89774
▁획정	-9.89774
▁휴대폰	-9.89774
▁agil	-9.9549
▁lik	-9.9549
▁lo	-9.9549
▁lok	-9.9549
▁mm	-9.9549
▁ssl	-9.9549
▁zo	-9.9549
▁가속	-9.9549
▁거치	-9.9549
▁결심	-9.9549
▁공무원	-9.9549
▁군요	-9.9549
▁권위주의	-9.9549
▁기재	-9.9549
▁네트	-9.9549
▁농담	-9.9549
▁다면	-9.9549
▁달리	-9.9549
▁답글	-9.9549
▁동영상	-9.9549
▁뚜껑	-9.9549
▁로드	-9.9549
▁로열티	-9.9549
▁며칠	-9.9549
▁무급	-9.9549
▁물가	-9.9549
▁발상	-9.9549
▁버티	-9.9549
▁벤더	-9.9549
▁비추	-9.9549
▁사랑	-9.9549
▁살아남	-9.9549
▁선관	-9.9549
▁선점	-9.9549
▁소비	-9.9549
▁손실	-9.9549
▁시행령	-9.9549
▁싸우	-9.9549
▁싸이트	-9.9549
▁쓰레기	-9.9549
▁아랫사람	-9.9549
▁엘레	-9.9549
▁우대	-9.9549
▁원고	-9.9549
▁위로	-9.9549
▁위상	-9.9549
▁윗선	-9.9549
▁유대감	-9.9549
▁유입	-9.9549
▁음료	-9.9549
▁의뢰	-9.9549
▁이끄	-9.9549
▁이동은	-9.9549
▁이사	-9.9549
▁이양	-9.9549
▁일률	-9.9549
▁일상	-9.9549
▁잣대	-9.9549
▁제재	-9.9549
▁직진	-9.9549
▁진취	-9.9549
▁참석자	-9.9549
▁찾아가	-9.9549
▁초과근무	-9.9549
▁충족	-9.9549
▁치우치	-9.9549
▁커지	-9.9549
▁토대	-9.9549
▁통일	-9.9549
▁트리	-9.9549
▁평준	-9.9549
▁표출	-9.9549
▁합법	-9.9549
▁호칭	-9.9549
▁회장	-9.9549
▁dm	-10.0155
▁domai	-10.0155
▁dy	-10.0155
▁ll	-10.0155
▁load	-10.0155
▁거론	-10.0155
▁견해	-10.0155
▁결정력	-10.0155
▁경비	-10.0155
▁고수	-10.0155
▁고정급	-10.0155
▁고직	-10.0155
▁규약	-10.0155
▁그쪽	-10.0155
▁근간	-10.0155
▁기계식	-10.0155
▁기기	-10.0155
▁기한	-10.0155
▁다녀오	-10.0155
▁다루	-10.0155
▁단일	-10.0155
▁당황	-10.0155
▁도배	-10.0155
▁도서	-10.0155
▁동전	-10.0155
▁드러나	-10.0155
▁떠들	-10.0155
▁리스트	-10.0155
▁마켓	-10.0155
▁만남	-10.0155
▁매진	-10.0155
▁모듈	-10.0155
▁민원	-10.0155
▁바보	-10.0155
▁반감	-10.0155
▁버전	-10.0155
▁불이익	-10.0155
▁불통	-10.0155
▁빌딩	-10.0155
▁사업대표	-10.0155
▁사외	-10.0155
▁선고	-10.0155
▁성실	-10.0155
▁소모임	-10.0155
▁시선	-10.0155
▁시즌	-10.0155
▁연중	-10.0155
▁열리	-10.0155
▁와중	-10.0155
▁위기	-10.0155
▁음식	-10.0155
▁이중	-10.0155
▁이탈	-10.0155
▁인치	-10.0155
▁임무	-10.0155
▁임산부	-10.0155
▁전결	-10.0155
▁전기	-10.0155
▁접촉	-10.0155
▁조작	-10.0155
▁조제	-10.0155
▁주간	-10.0155
▁주저	-10.0155
▁중단	-10.0155
▁증원	-10.0155
▁지난주	-10.0155
▁착각	-10.0155
▁창문	-10.0155
▁책정	-10.0155
▁철수	-10.0155
▁청소	-10.0155
▁체결	-10.0155
▁추상	-10.0155
▁치우	-10.0155
▁타워	-10.0155
▁투쟁	-10.0155
▁파괴	-10.0155
▁훈련	-10.0155
▁ial	-10.0801
▁idp	-10.0801
▁imay	-10.0801
▁isac	-10.0801
▁kly	-10.0801
▁oo	-10.0801
▁poal	-10.0801
▁sk주식회사	-10.0801
▁talki	-10.0801
▁겨울	-10.0801
▁경계	-10.0801
▁경중	-10.0801
▁고급	-10.0801
▁공동체	-10.0801
▁공헌	-10.0801
▁광고	-10.0801
▁궁극	-10.0801
▁기울이	-10.0801
▁남용	-10.0801
▁노고	-10.0801
▁대내	-10.0801
▁대학원	-10.0801
▁따라오	-10.0801
▁따름	-10.0801
▁레퍼런스	-10.0801
▁로테이션	-10.0801
▁모드	-10.0801
▁모이	-10.0801
▁무대응	-10.0801
▁미국	-10.0801
▁미만	-10.0801
▁반론	-10.0801
▁뿌리	-10.0801
▁사일로	-10.0801
▁산입	-10.0801
▁성과급	-10.0801
▁소프트	-10.0801
▁수십	-10.0801
▁순수	-10.0801
▁신문	-10.0801
▁실정	-10.0801
▁실험	-10.0801
▁아끼	-10.0801
▁여력	-10.0801
▁영상	-10.0801
▁외국	-10.0801
▁외면	-10.0801
▁운행	-10.0801
▁원거리	-10.0801
▁유대	-10.0801
▁의거	-10.0801
▁이어폰	-10.0801
▁이천	-10.0801
▁이터	-10.0801
▁인수인계	-10.0801
▁인적	-10.0801
▁임하	-10.0801
▁자격증	-10.0801
▁자의	-10.0801
▁저동	-10.0801
▁적기	-10.0801
▁전원	-10.0801
▁전폭	-10.0801
▁절반	-10.0801
▁존대	-10.0801
▁주심	-10.0801
▁직전	-10.0801
▁진작	-10.0801
▁진행시	-10.0801
▁짜리	-10.0801
▁차주	-10.0801
▁청주	-10.0801
▁체험	-10.0801
▁촉탁	-10.0801
▁출력	-10.0801
▁출신	-10.0801
▁취득	-10.0801
▁캡쳐	-10.0801
▁통과	-10.0801
▁페브리즈	-10.0801
▁편애	-10.0801
▁표기	-10.0801
▁표명	-10.0801
▁피로감	-10.0801
▁항문	-10.0801
▁회수	-10.0801
▁효력	-10.0801
▁billi	-10.1491
▁clodz	-10.1491
▁colla	-10.1491
▁iot	-10.1491
▁oah	-10.1491
▁silo	-10.1491
▁skcc	-10.1491
▁tcl	-10.1491
▁가상	-10.1491
▁강구	-10.1491
▁거대	-10.1491
▁격의	-10.1491
▁격차	-10.1491
▁결속력	-10.1491
▁결정권자	-10.1491
▁경력직	-10.1491
▁고과	-10.1491
▁공고	-10.1491
▁공급	-10.1491
▁공문	-10.1491
▁공백	-10.1491
▁과도기	-10.1491
▁관리비	-10.1491
▁관심없	-10.1491
▁긴급	-10.1491
▁꺼리	-10.1491
▁나뉘	-10.1491
▁눈앞	-10.1491
▁눈치보	-10.1491
▁닉네임	-10.1491
▁다변	-10.1491
▁다시	-10.1491
▁대무	-10.1491
▁대학	-10.1491
▁도로	-10.1491
▁돌려주	-10.1491
▁라면	-10.1491
▁랜덤	-10.1491
▁루머	-10.1491
▁막히	-10.1491
▁만연	-10.1491
▁모집	-10.1491
▁반발	-10.1491
▁발목	-10.1491
▁백만	-10.1491
▁번개	-10.1491
▁법령	-10.1491
▁보임	-10.1491
▁복도	-10.1491
▁부담감	-10.1491
▁부르	-10.1491
▁부활	-10.1491
▁비상근무	-10.1491
▁사우	-10.1491
▁상명하복	-10.1491
▁생략	-10.1491
▁선곡	-10.1491
▁설립	-10.1491
▁손익	-10.1491
▁스마트폰	-10.1491
▁실전	-10.1491
▁실체	-10.1491
▁아빠	-10.1491
▁악성	-10.1491
▁양심	-10.1491
▁언론	-10.1491
▁염려	-10.1491
▁예방	-10.1491
▁옹호	-10.1491
▁외수	-10.1491
▁용품	-10.1491
▁원증	-10.1491
▁원할하	-10.1491
▁위생	-10.1491
▁유포	-10.1491
▁유행	-10.1491
▁음식물	-10.1491
▁이동도	-10.1491
▁이르	-10.1491
▁인건비	-10.1491
▁인더스	-10.1491
▁인성	-10.1491
▁일임	-10.1491
▁입도	-10.1491
▁장단점	-10.1491
▁전기차	-10.1491
▁전진	-10.1491
▁정당	-10.1491
▁제언	-10.1491
▁주차권	-10.1491
▁중도	-10.1491
▁중요도	-10.1491
▁증상	-10.1491
▁지불	-10.1491
▁진동	-10.1491
▁찍히	-10.1491
▁체질	-10.1491
▁출입증	-10.1491
▁칸막이	-10.1491
▁커버	-10.1491
▁코딩	-10.1491
▁타이밍	-10.1491
▁토요일	-10.1491
▁통찰력	-10.1491
▁판교역	-10.1491
▁피로	-10.1491
▁피부	-10.1491
▁현대	-10.1491
▁호흡	-10.1491
▁홈페이지	-10.1491
▁회신	-10.1491
▁gb	-10.2232
▁kt	-10.2232
▁pod	-10.2232
▁solio	-10.2232
▁svi	-10.2232
▁간접	-10.2232
▁감기	-10.2232
▁감당	-10.2232
▁감동	-10.2232
▁걸림돌	-10.2232
▁검사	-10.2232
▁경진	-10.2232
▁고치	-10.2232
▁고통	-10.2232
▁공론	-10.2232
▁공장	-10.2232
▁과소	-10.2232
▁관습	-10.2232
▁구입	-10.2232
▁극단	-10.2232
▁근원	-10.2232
▁금년	-10.2232
▁급자	-10.2232
▁꼼수	-10.2232
▁끝내	-10.2232
▁날짜	-10.2232
▁내외	-10.2232
▁노조원	-10.2232
▁단기성과	-10.2232
▁대내외	-10.2232
▁대응력	-10.2232
▁대접	-10.2232
▁도둑	-10.2232
▁도착	-10.2232
▁동작	-10.2232
▁되풀이	-10.2232
▁만일	-10.2232
▁모으	-10.2232
▁무기명	-10.2232
▁박수	-10.2232
▁박스	-10.2232
▁반하	-10.2232
▁법규	-10.2232
▁변수	-10.2232
▁변질	-10.2232
▁변환	-10.2232
▁복합	-10.2232
▁본래	-10.2232
▁비서	-10.2232
▁비우	-10.2232
▁산업은행	-10.2232
▁상단	-10.2232
▁상상	-10.2232
▁생성	-10.2232
▁선별	-10.2232
▁선의	-10.2232
▁수시	-10.2232
▁수요	-10.2232
▁숙박	-10.2232
▁술잔	-10.2232
▁숨기	-10.2232
▁스터디	-10.2232
▁슬로건	-10.2232
▁신임	-10.2232
▁실비	-10.2232
▁심도	-10.2232
▁심리	-10.2232
▁싸움	-10.2232
▁악의	-10.2232
▁악화	-10.2232
▁안주	-10.2232
▁어제	-10.2232
▁업종	-10.2232
▁여름	-10.2232
▁영수증	-10.2232
▁왕복	-10.2232
▁위클리	-10.2232
▁유가족	-10.2232
▁유치원	-10.2232
▁인공지능	-10.2232
▁인사이트	-10.2232
▁자회사	-10.2232
▁장갑	-10.2232
▁장악	-10.2232
▁장악력	-10.2232
▁재검토	-10.2232
▁재미	-10.2232
▁전입	-10.2232
▁정답	-10.2232
▁정시	-10.2232
▁제안서	-10.2232
▁조의금	-10.2232
▁존경	-10.2232
▁존댓말	-10.2232
▁주소	-10.2232
▁중국	-10.2232
▁지주회사	-10.2232
▁지하철	-10.2232
▁쪼개	-10.2232
▁쪽지	-10.2232
▁착수	-10.2232
▁초반	-10.2232
▁초집	-10.2232
▁초청	-10.2232
▁추세	-10.2232
▁추측	-10.2232
▁출산	-10.2232
▁충성	-10.2232
▁충실	-10.2232
▁충전	-10.2232
▁취사선택	-10.2232
▁컨트롤	-10.2232
▁코어	-10.2232
▁키워드	-10.2232
▁탄핵	-10.2232
▁퇴임	-10.2232
▁파티션	-10.2232
▁패러다임	-10.2232
▁피하	-10.2232
▁하향	-10.2232
▁학자금	-10.2232
▁합산	-10.2232
▁해고	-10.2232
▁헌신	-10.2232
▁환영	-10.2232
▁휴지	-10.2232
▁힘쓰	-10.2232
▁cpu	-10.3032
▁gdc	-10.3032
▁iy	-10.3032
▁lod	-10.3032
▁lxi	-10.3032
▁poc	-10.3032
▁pt	-10.3032
▁가슴	-10.3032
▁가치관	-10.3032
▁감내	-10.3032
▁결정자	-10.3032
▁경기	-10.3032
▁고령화	-10.3032
▁공로	-10.3032
▁공수	-10.3032
▁공채	-10.3032
▁구도	-10.3032
▁권유	-10.3032
▁그곳	-10.3032
▁기계	-10.3032
▁기구	-10.3032
▁나열	-10.3032
▁냉정	-10.3032
▁논하	-10.3032
▁단절	-10.3032
▁단체교섭	-10.3032
▁대가	-10.3032
▁대장	-10.3032
▁대표자	-10.3032
▁둘째	-10.3032
▁듯이	-10.3032
▁떠오르	-10.3032
▁마우스	-10.3032
▁막내	-10.3032
▁메리트	-10.3032
▁멘토	-10.3032
▁명령	-10.3032
▁명예	-10.3032
▁모험	-10.3032
▁목격	-10.3032
▁물건	-10.3032
▁밀접	-10.3032
▁밀착	-10.3032
▁바로잡	-10.3032
▁발령	-10.3032
▁발탁	-10.3032
▁벌어지	-10.3032
▁본업	-10.3032
▁분류	-10.3032
▁비상	-10.3032
▁빈도	-10.3032
▁사익	-10.3032
▁살리	-10.3032
▁상당수	-10.3032
▁새벽	-10.3032
▁생김	-10.3032
▁생태	-10.3032
▁수도	-10.3032
▁신념	-10.3032
▁쌍방	-10.3032
▁안녕	-10.3032
▁양치기	-10.3032
▁어깨	-10.3032
▁업로드	-10.3032
▁에어컨	-10.3032
▁우산	-10.3032
▁운전	-10.3032
▁월차	-10.3032
▁위직	-10.3032
▁유용	-10.3032
▁유일	-10.3032
▁일본	-10.3032
▁일사부재리	-10.3032
▁일으키	-10.3032
▁입각	-10.3032
▁잡담	-10.3032
▁재고	-10.3032
▁재량	-10.3032
▁재판부	-10.3032
▁전화기	-10.3032
▁정황	-10.3032
▁조직력	-10.3032
▁종류	-10.3032
▁좋아하	-10.3032
▁좌우	-10.3032
▁주당	-10.3032
▁주력	-10.3032
▁지경	-10.3032
▁직속	-10.3032
▁차리	-10.3032
▁찬바람	-10.3032
▁채택	-10.3032
▁컬처	-10.3032
▁택시	-10.3032
▁토산	-10.3032
▁편견	-10.3032
▁편성	-10.3032
▁표정	-10.3032
▁하도급	-10.3032
▁한참	-10.3032
▁항소	-10.3032
▁해제	-10.3032
▁허심탄회	-10.3032
▁회복	-10.3032
▁흡연자	-10.3032
▁ciix	-10.3902
▁cs	-10.3902
▁hy	-10.3902
▁iz	-10.3902
▁mb	-10.3902
▁od	-10.3902
▁oki	-10.3902
▁okok	-10.3902
▁oms	-10.3902
▁siy	-10.3902
▁small	-10.3902
▁sms	-10.3902
▁usb	-10.3902
▁가중치	-10.3902
▁간격	-10.3902
▁개성	-10.3902
▁건설	-10.3902
▁게시물	-10.3902
▁격식	-10.3902
▁견제	-10.3902
▁경영자	-10.3902
▁계약서	-10.3902
▁고질	-10.3902
▁고착	-10.3902
▁공사	-10.3902
▁공조	-10.3902
▁공짜	-10.3902
▁과업	-10.3902
▁교통	-10.3902
▁국내외	-10.3902
▁궁금증	-10.3902
▁권력	-10.3902
▁권역	-10.3902
▁귀속	-10.3902
▁그날	-10.3902
▁기부	-10.3902
▁깊이	-10.3902
▁내려가	-10.3902
▁내제	-10.3902
▁능률	-10.3902
▁대립	-10.3902
▁대의원	-10.3902
▁대중교통	-10.3902
▁도서관	-10.3902
▁돌아다니	-10.3902
▁돌아보	-10.3902
▁돌파력	-10.3902
▁들이	-10.3902
▁레터	-10.3902
▁립니	-10.3902
▁마이크	-10.3902
▁매도	-10.3902
▁매체	-10.3902
▁멈추	-10.3902
▁멤버	-10.3902
▁명단	-10.3902
▁모션	-10.3902
▁목록	-10.3902
▁무게	-10.3902
▁무지	-10.3902
▁묵살	-10.3902
▁문장	-10.3902
▁물류	-10.3902
▁미달	-10.3902
▁밀도	-10.3902
▁밝히	-10.3902
▁방면	-10.3902
▁법상	-10.3902
▁베조스	-10.3902
▁부스	-10.3902
▁상용	-10.3902
▁선두	-10.3902
▁세분화	-10.3902
▁세입자	-10.3902
▁손가락	-10.3902
▁수긍	-10.3902
▁스케줄	-10.3902
▁스킨십	-10.3902
▁실내	-10.3902
▁심신	-10.3902
▁심정	-10.3902
▁쓰이	-10.3902
▁아이디	-10.3902
▁안마	-10.3902
▁앞뒤	-10.3902
▁앞서	-10.3902
▁약자	-10.3902
▁언어	-10.3902
▁예절	-10.3902
▁오락실	-10.3902
▁요원	-10.3902
▁요지	-10.3902
▁용납	-10.3902
▁이곳	-10.3902
▁이동한	-10.3902
▁인내심	-10.3902
▁인신공격	-10.3902
▁일당	-10.3902
▁입구	-10.3902
▁작동	-10.3902
▁재발	-10.3902
▁재산	-10.3902
▁재편	-10.3902
▁쟁점	-10.3902
▁저번	-10.3902
▁저성	-10.3902
▁적폐	-10.3902
▁전날	-10.3902
▁절약	-10.3902
▁점유	-10.3902
▁정자역	-10.3902
▁제정	-10.3902
▁좌지우지	-10.3902
▁주문	-10.3902
▁준하	-10.3902
▁중순	-10.3902
▁즉흥	-10.3902
▁즐기	-10.3902
▁지라	-10.3902
▁직결	-10.3902
▁직장인	-10.3902
▁진화	-10.3902
▁집행부	-10.3902
▁차후	-10.3902
▁청원	-10.3902
▁체력	-10.3902
▁최악	-10.3902
▁최적화	-10.3902
▁추석	-10.3902
▁출처	-10.3902
▁취향	-10.3902
▁컬러	-10.3902
▁케어	-10.3902
▁터치	-10.3902
▁토론회	-10.3902
▁통로	-10.3902
▁트레이너	-10.3902
▁포커스	-10.3902
▁포털	-10.3902
▁프린터	-10.3902
▁한숨	-10.3902
▁호미	-10.3902
▁후생비	-10.3902
▁후자	-10.3902
▁휴무일	-10.3902
▁흔들리	-10.3902
▁all	-10.4855
▁cili	-10.4855
▁dna	-10.4855
▁gap	-10.4855
▁idaio	-10.4855
▁nok	-10.4855
▁oad	-10.4855
▁oli	-10.4855
▁ook	-10.4855
▁pool	-10.4855
▁sdy	-10.4855
▁sha	-10.4855
▁sit	-10.4855
▁skc	-10.4855
▁sns	-10.4855
▁td	-10.4855
▁xxx	-10.4855
▁가방	-10.4855
▁결정시	-10.4855
▁겹치	-10.4855
▁경로	-10.4855
▁경조	-10.4855
▁고성	-10.4855
▁관념	-10.4855
▁관련자	-10.4855
▁관찰	-10.4855
▁광장	-10.4855
▁교감	-10.4855
▁교섭	-10.4855
▁군대	-10.4855
▁규범	-10.4855
▁근시안	-10.4855
▁금주	-10.4855
▁급과	-10.4855
▁기인	-10.4855
▁까먹	-10.4855
▁꺼내	-10.4855
▁끈기	-10.4855
▁낙선	-10.4855
▁날씨	-10.4855
▁내선	-10.4855
▁내실	-10.4855
▁너희	-10.4855
▁넘어서	-10.4855
▁뉘앙스	-10.4855
▁다투	-10.4855
▁단독	-10.4855
▁달력	-10.4855
▁답습	-10.4855
▁당면	-10.4855
▁도중	-10.4855
▁맥락	-10.4855
▁명칭	-10.4855
▁몰아가	-10.4855
▁무능	-10.4855
▁박종오	-10.4855
▁반바지	-10.4855
▁반차	-10.4855
▁배부	-10.4855
▁복호화	-10.4855
▁부가	-10.4855
▁부각	-10.4855
▁분사	-10.4855
▁분할	-10.4855
▁블로그	-10.4855
▁비대	-10.4855
▁사범	-10.4855
▁산재	-10.4855
▁산출	-10.4855
▁상응	-10.4855
▁서열	-10.4855
▁선거법	-10.4855
▁선동	-10.4855
▁선후배	-10.4855
▁세심	-10.4855
▁소화	-10.4855
▁술자리	-10.4855
▁승인서	-10.4855
▁시일	-10.4855
▁신생	-10.4855
▁실천력	-10.4855
▁심층	-10.4855
▁아들	-10.4855
▁알아주	-10.4855
▁야기	-10.4855
▁양쪽	-10.4855
▁엄마	-10.4855
▁엘베	-10.4855
▁역지사지	-10.4855
▁연간	-10.4855
▁연락처	-10.4855
▁오너	-10.4855
▁외근	-10.4855
▁우측	-10.4855
▁울리	-10.4855
▁위축	-10.4855
▁유능	-10.4855
▁유동	-10.4855
▁유명무실	-10.4855
▁유선	-10.4855
▁융통	-10.4855
▁이질	-10.4855
▁인구	-10.4855
▁인기	-10.4855
▁일비	-10.4855
▁일전	-10.4855
▁입맛	-10.4855
▁자괴감	-10.4855
▁자동화	-10.4855
▁재배정	-10.4855
▁저조	-10.4855
▁적성	-10.4855
▁전시	-10.4855
▁전향	-10.4855
▁전후	-10.4855
▁접점	-10.4855
▁정밀	-10.4855
▁정서	-10.4855
▁제보자	-10.4855
▁줄어드	-10.4855
▁중존	-10.4855
▁중첩	-10.4855
▁증액	-10.4855
▁지주	-10.4855
▁지치	-10.4855
▁지켜보	-10.4855
▁직면	-10.4855
▁진전	-10.4855
▁집계	-10.4855
▁처분	-10.4855
▁출구	-10.4855
▁충격	-10.4855
▁치료	-10.4855
▁친환경	-10.4855
▁커뮤니티	-10.4855
▁콘텐츠	-10.4855
▁콜라	-10.4855
▁타임	-10.4855
▁통근	-10.4855
▁통폐합	-10.4855
▁트래픽	-10.4855
▁파일럿	-10.4855
▁판사	-10.4855
▁패널	-10.4855
▁패턴	-10.4855
▁편차	-10.4855
▁피고	-10.4855
▁하나하나	-10.4855
▁하락	-10.4855
▁학생	-10.4855
▁해치	-10.4855
▁호도	-10.4855
▁호소	-10.4855
▁호텔	-10.4855
▁혼재	-10.4855
▁확률	-10.4855
▁획득	-10.4855
▁흐리	-10.4855
▁흑백	-10.4855
▁힘내	-10.4855
▁aiviy	-10.5909
▁chk	-10.5909
▁hisk	-10.5909
▁hl	-10.5909
▁ix	-10.5909
▁job	-10.5909
▁ki	-10.5909
▁mail	-10.5909
▁ool	-10.5909
▁pms	-10.5909
▁ssm	-10.5909
▁ty	-10.5909
▁vy	-10.5909
▁xx	-10.5909
▁가량	-10.5909
▁가용	-10.5909
▁각지	-10.5909
▁간부	-10.5909
▁간주	-10.5909
▁감추	-10.5909
▁강연	-10.5909
▁개시	-10.5909
▁개인주의	-10.5909
▁거점	-10.5909
▁건승	-10.5909
▁게재	-10.5909
▁고정석	-10.5909
▁공시	-10.5909
▁공원	-10.5909
▁공제	-10.5909
▁관료	-10.5909
▁괴롭히	-10.5909
▁구멍	-10.5909
▁구상	-10.5909
▁구애	-10.5909
▁귀감	-10.5909
▁귀기울이	-10.5909
▁그치	-10.5909
▁근절	-10.5909
▁글자	-10.5909
▁금융사업	-10.5909
▁급기	-10.5909
▁기념	-10.5909
▁기안	-10.5909
▁기조	-10.5909
▁기획력	-10.5909
▁긴장	-10.5909
▁김병두	-10.5909
▁남성	-10.5909
▁내년도	-10.5909
▁노동법	-10.5909
▁노동청	-10.5909
▁다각	-10.5909
▁다기	-10.5909
▁단말기	-10.5909
▁단속	-10.5909
▁단편	-10.5909
▁당부	-10.5909
▁당위	-10.5909
▁대선	-10.5909
▁도리	-10.5909
▁독선	-10.5909
▁동원	-10.5909
▁등장	-10.5909
▁떨어뜨리	-10.5909
▁리플	-10.5909
▁망치	-10.5909
▁모독	-10.5909
▁무분별	-10.5909
▁무언가	-10.5909
▁물질	-10.5909
▁미들	-10.5909
▁반납	-10.5909
▁변형	-10.5909
▁보람	-10.5909
▁보편	-10.5909
▁복귀	-10.5909
▁본선	-10.5909
▁부과	-10.5909
▁북쪽	-10.5909
▁불평	-10.5909
▁블루투스	-10.5909
▁비닐	-10.5909
▁사퇴	-10.5909
▁새해	-10.5909
▁서랍	-10.5909
▁석식	-10.5909
▁선생	-10.5909
▁선언	-10.5909
▁성취감	-10.5909
▁세금	-10.5909
▁소명	-10.5909
▁소재	-10.5909
▁수급	-10.5909
▁수령	-10.5909
▁수상	-10.5909
▁시비	-10.5909
▁시위	-10.5909
▁시청	-10.5909
▁신정	-10.5909
▁신충식	-10.5909
▁실물	-10.5909
▁아우르	-10.5909
▁애기	-10.5909
▁애자일	-10.5909
▁약화	-10.5909
▁양말	-10.5909
▁얼음	-10.5909
▁에러	-10.5909
▁여행	-10.5909
▁역시	-10.5909
▁역행	-10.5909
▁연수	-10.5909
▁영향력	-10.5909
▁오가	-10.5909
▁옵션	-10.5909
▁움직임	-10.5909
▁위계	-10.5909
▁위협	-10.5909
▁유권자	-10.5909
▁유의	-10.5909
▁유인물	-10.5909
▁유통	-10.5909
▁음악	-10.5909
▁의문점	-10.5909
▁의아	-10.5909
▁이것저것	-10.5909
▁이래	-10.5909
▁이성	-10.5909
▁이용자	-10.5909
▁인용	-10.5909
▁인터뷰	-10.5909
▁일터	-10.5909
▁임명	-10.5909
▁자장	-10.5909
▁장님	-10.5909
▁장이	-10.5909
▁재직	-10.5909
▁쟁의	-10.5909
▁저항	-10.5909
▁전국	-10.5909
▁전면	-10.5909
▁전출	-10.5909
▁전하	-10.5909
▁정규직	-10.5909
▁정문	-10.5909
▁정수기	-10.5909
▁정장	-10.5909
▁제로	-10.5909
▁조삼모사	-10.5909
▁종이컵	-10.5909
▁주거지	-10.5909
▁중재	-10.5909
▁지난해	-10.5909
▁지르	-10.5909
▁지배	-10.5909
▁지위	-10.5909
▁지체	-10.5909
▁진입로	-10.5909
▁집중력	-10.5909
▁참견	-10.5909
▁철회	-10.5909
▁출시	-10.5909
▁출장지	-10.5909
▁취약점	-10.5909
▁친목	-10.5909
▁친화	-10.5909
▁컴플라이언스	-10.5909
▁코멘트	-10.5909
▁코카	-10.5909
▁타부	-10.5909
▁통증	-10.5909
▁판결문	-10.5909
▁패스워드	-10.5909
▁평판	-10.5909
▁폭언	-10.5909
▁프레쉬	-10.5909
▁하금	-10.5909
▁하단	-10.5909
▁하원	-10.5909
▁한시	-10.5909
▁한잔	-10.5909
▁호랑이	-10.5909
▁환기	-10.5909
▁회람	-10.5909
▁후속	-10.5909
▁히스토리	-10.5909
▁add	-10.7087
▁aq	-10.7087
▁cc	-10.7087
▁cdp	-10.7087
▁coahi	-10.7087
▁cook	-10.7087
▁goal	-10.7087
▁gy	-10.7087
▁halh	-10.7087
▁iliy	-10.7087
▁kill	-10.7087
▁laio	-10.7087
▁lhc	-10.7087
▁loal	-10.7087
▁moivaio	-10.7087
▁ollo	-10.7087
▁pak	-10.7087
▁play	-10.7087
▁skb	-10.7087
▁ski	-10.7087
▁skp	-10.7087
▁sma	-10.7087
▁ti	-10.7087
▁tm	-10.7087
▁ui	-10.7087
▁union	-10.7087
▁가성	-10.7087
▁거주	-10.7087
▁건수	-10.7087
▁걸어다니	-10.7087
▁결산	-10.7087
▁결성	-10.7087
▁겸비	-10.7087
▁겸손	-10.7087
▁경감	-10.7087
▁경선	-10.7087
▁경시	-10.7087
▁곳곳	-10.7087
▁공자	-10.7087
▁과반	-10.7087
▁관장	-10.7087
▁교훈	-10.7087
▁구심점	-10.7087
▁군대식	-10.7087
▁권고	-10.7087
▁기각	-10.7087
▁기득	-10.7087
▁기운	-10.7087
▁끌어내	-10.7087
▁난방	-10.7087
▁납기	-10.7087
▁노선	-10.7087
▁노후	-10.7087
▁다각화	-10.7087
▁단결	-10.7087
▁단함	-10.7087
▁달하	-10.7087
▁당근	-10.7087
▁대중	-10.7087
▁덮개	-10.7087
▁데리	-10.7087
▁독립성	-10.7087
▁독주회	-10.7087
▁독촉	-10.7087
▁동네	-10.7087
▁듀얼	-10.7087
▁드러내	-10.7087
▁드림	-10.7087
▁떠드	-10.7087
▁리프	-10.7087
▁마사지	-10.7087
▁마을	-10.7087
▁마찰	-10.7087
▁말단	-10.7087
▁매출액	-10.7087
▁메세지	-10.7087
▁멘토링	-10.7087
▁면실	-10.7087
▁면접	-10.7087
▁몇몇	-10.7087
▁모양새	-10.7087
▁무리수	-10.7087
▁무의미	-10.7087
▁무한	-10.7087
▁박사	-10.7087
▁발의	-10.7087
▁방법론	-10.7087
▁번복	-10.7087
▁베이	-10.7087
▁별거	-10.7087
▁보관함	-10.7087
▁보전	-10.7087
▁보직	-10.7087
▁부리	-10.7087
▁부서원	-10.7087
▁부조리	-10.7087
▁불쾌감	-10.7087
▁비꼬	-10.7087
▁비대위	-10.7087
▁빈약	-10.7087
▁사나	-10.7087
▁사생활	-10.7087
▁사업자	-10.7087
▁사이즈	-10.7087
▁사인	-10.7087
▁상생	-10.7087
▁상정	-10.7087
▁생겨나	-10.7087
▁생일	-10.7087
▁샤워	-10.7087
▁서랍장	-10.7087
▁서포트	-10.7087
▁세무	-10.7087
▁소모품	-10.7087
▁소정	-10.7087
▁소프트웨어	-10.7087
▁손님	-10.7087
▁수서	-10.7087
▁숙지	-10.7087
▁스티커	-10.7087
▁신뢰도	-10.7087
▁신발	-10.7087
▁실직	-10.7087
▁쓰레기통	-10.7087
▁아내	-10.7087
▁아이스	-10.7087
▁압박감	-10.7087
▁역사	-10.7087
▁연기	-10.7087
▁연단	-10.7087
▁연도	-10.7087
▁연연	-10.7087
▁예비	-10.7087
▁오버	-10.7087
▁오션	-10.7087
▁완성도	-10.7087
▁왓슨	-10.7087
▁욕구	-10.7087
▁우위	-10.7087
▁우호	-10.7087
▁원망	-10.7087
▁위촉	-10.7087
▁이관	-10.7087
▁이타	-10.7087
▁이해력	-10.7087
▁일련	-10.7087
▁일종	-10.7087
▁입지	-10.7087
▁자식	-10.7087
▁자진	-10.7087
▁잔업	-10.7087
▁장벽	-10.7087
▁재택근무	-10.7087
▁저러	-10.7087
▁적임	-10.7087
▁전락	-10.7087
▁전무	-10.7087
▁전세	-10.7087
▁전이	-10.7087
▁절전	-10.7087
▁접근성	-10.7087
▁정규	-10.7087
▁정지	-10.7087
▁정차	-10.7087
▁정치판	-10.7087
▁조합비	-10.7087
▁존속	-10.7087
▁좌절감	-10.7087
▁주거	-10.7087
▁주민	-10.7087
▁주최	-10.7087
▁죽이	-10.7087
▁중기	-10.7087
▁지목	-10.7087
▁지혜	-10.7087
▁진짜	-10.7087
▁차감	-10.7087
▁창의력	-10.7087
▁창조	-10.7087
▁책임자	-10.7087
▁챌린지	-10.7087
▁처사	-10.7087
▁첫째	-10.7087
▁청산	-10.7087
▁체인지	-10.7087
▁초년	-10.7087
▁초대	-10.7087
▁초빙	-10.7087
▁출차	-10.7087
▁충고	-10.7087
▁충전기	-10.7087
▁침체	-10.7087
▁컨셉	-10.7087
▁타각	-10.7087
▁타이트	-10.7087
▁퇴직금	-10.7087
▁파이	-10.7087
▁페이스북	-10.7087
▁편의점	-10.7087
▁펼치	-10.7087
▁평생	-10.7087
▁포럼	-10.7087
▁포지셔닝	-10.7087
▁폭력	-10.7087
▁품의	-10.7087
▁프리랜서	-10.7087
▁프린트	-10.7087
▁피어리	-10.7087
▁피크	-10.7087
▁필드	-10.7087
▁하늘	-10.7087
▁하심	-10.7087
▁한하	-10.7087
▁합치	-10.7087
▁해법	-10.7087
▁행하	-10.7087
▁허들	-10.7087
▁허비	-10.7087
▁현금	-10.7087
▁협상력	-10.7087
▁혼선	-10.7087
▁화법	-10.7087
▁후보자	-10.7087
▁후임	-10.7087
▁휠체어	-10.7087
▁휴양소	-10.7087
▁흐르	-10.7087
▁흥미	-10.7087
▁aid	-10.8422
▁as	-10.8422
▁dal	-10.8422
▁dmo	-10.8422
▁gi	-10.8422
▁ill	-10.8422
▁mac	-10.8422
▁maki	-10.8422
▁mba	-10.8422
▁oh	-10.8422
▁ojt	-10.8422
▁oss	-10.8422
▁oy	-10.8422
▁plaom	-10.8422
▁shai	-10.8422
▁sho	-10.8422
▁shoi	-10.8422
▁skhy	-10.8422
▁tigh	-10.8422
▁toal	-10.8422
▁toh	-10.8422
▁가동	-10.8422
▁가르치	-10.8422
▁간과	-10.8422
▁강약	-10.8422
▁강자	-10.8422
▁개혁	-10.8422
▁거듭나	-10.8422
▁거래	-10.8422
▁건너편	-10.8422
▁격지	-10.8422
▁견적	-10.8422
▁계열	-10.8422
▁고위	-10.8422
▁공인	-10.8422
▁공표	-10.8422
▁관객	-10.8422
▁관례	-10.8422
▁광범위	-10.8422
▁교차로	-10.8422
▁구비	-10.8422
▁귀걸이	-10.8422
▁그대	-10.8422
▁그리	-10.8422
▁근무일	-10.8422
▁기수	-10.8422
▁긴장감	-10.8422
▁김경희	-10.8422
▁난무	-10.8422
▁내기	-10.8422
▁내려놓	-10.8422
▁내심	-10.8422
▁노동관계	-10.8422
▁놔두	-10.8422
▁다툼	-10.8422
▁단가	-10.8422
▁단발	-10.8422
▁단정	-10.8422
▁닫히	-10.8422
▁당해	-10.8422
▁대여	-10.8422
▁덕목	-10.8422
▁도약	-10.8422
▁독재	-10.8422
▁돌아오	-10.8422
▁동료평가	-10.8422
▁동조	-10.8422
▁뒤쳐지	-10.8422
▁따위	-10.8422
▁딴지	-10.8422
▁라이프	-10.8422
▁로비	-10.8422
▁로케이션	-10.8422
▁루틴	-10.8422
▁마치	-10.8422
▁만회	-10.8422
▁매력	-10.8422
▁멀티	-10.8422
▁메가	-10.8422
▁모자라	-10.8422
▁무기	-10.8422
▁무성의	-10.8422
▁묵시	-10.8422
▁뭉치	-10.8422
▁미혼	-10.8422
▁민감	-10.8422
▁박근혜	-10.8422
▁반지	-10.8422
▁발췌	-10.8422
▁발현	-10.8422
▁배우자	-10.8422
▁범죄	-10.8422
▁보도	-10.8422
▁보조	-10.8422
▁보존	-10.8422
▁복사	-10.8422
▁복수	-10.8422
▁부류	-10.8422
▁부여받	-10.8422
▁부응	-10.8422
▁분열	-10.8422
▁불행	-10.8422
▁붙잡	-10.8422
▁빠져나가	-10.8422
▁사로	-10.8422
▁상회	-10.8422
▁서요	-10.8422
▁서포	-10.8422
▁석사	-10.8422
▁석상	-10.8422
▁설비	-10.8422
▁성의	-10.8422
▁세력	-10.8422
▁세면대	-10.8422
▁세월	-10.8422
▁센스	-10.8422
▁센싱	-10.8422
▁소득	-10.8422
▁소양	-10.8422
▁소위	-10.8422
▁소유	-10.8422
▁소집	-10.8422
▁속이	-10.8422
▁손톱	-10.8422
▁솔선	-10.8422
▁수범	-10.8422
▁수신	-10.8422
▁숙제	-10.8422
▁순식간	-10.8422
▁스펙	-10.8422
▁실상	-10.8422
▁악영향	-10.8422
▁안함	-10.8422
▁알람	-10.8422
▁알파코	-10.8422
▁암묵	-10.8422
▁앞두	-10.8422
▁애쓰	-10.8422
▁양력	-10.8422
▁어긋나	-10.8422
▁어기	-10.8422
▁어머니	-10.8422
▁얽매이	-10.8422
▁여럿	-10.8422
▁연대	-10.8422
▁연령	-10.8422
▁예고	-10.8422
▁예년	-10.8422
▁오퍼	-10.8422
▁올림	-10.8422
▁와이프	-10.8422
▁워드	-10.8422
▁원간	-10.8422
▁유머	-10.8422
▁유인	-10.8422
▁은혜	-10.8422
▁응용	-10.8422
▁의료	-10.8422
▁의원	-10.8422
▁이윤	-10.8422
▁인권	-10.8422
▁인내	-10.8422
▁인증서	-10.8422
▁인포섹	-10.8422
▁일체감	-10.8422
▁입시	-10.8422
▁입학	-10.8422
▁자긍심	-10.8422
▁자기계	-10.8422
▁자르	-10.8422
▁자문	-10.8422
▁자수	-10.8422
▁자차	-10.8422
▁잠재	-10.8422
▁잠재력	-10.8422
▁잡음	-10.8422
▁재판	-10.8422
▁저거	-10.8422
▁저의	-10.8422
▁저축	-10.8422
▁적자	-10.8422
▁전방	-10.8422
▁정정	-10.8422
▁정형	-10.8422
▁제때	-10.8422
▁제자리	-10.8422
▁제휴	-10.8422
▁조협	-10.8422
▁좌절	-10.8422
▁주먹구구식	-10.8422
▁주지	-10.8422
▁주행	-10.8422
▁지리	-10.8422
▁지부장	-10.8422
▁지와	-10.8422
▁지출	-10.8422
▁직사광선	-10.8422
▁직시	-10.8422
▁진척	-10.8422
▁진학	-10.8422
▁짐작	-10.8422
▁집행	-10.8422
▁착오	-10.8422
▁천만	-10.8422
▁첫날	-10.8422
▁청와대	-10.8422
▁체불	-10.8422
▁촬영	-10.8422
▁축척	-10.8422
▁치루	-10.8422
▁캐리어	-10.8422
▁커싱	-10.8422
▁케이블	-10.8422
▁코스	-10.8422
▁쿠폰	-10.8422
▁큰일	-10.8422
▁탈락	-10.8422
▁탐지	-10.8422
▁테크	-10.8422
▁토로	-10.8422
▁통찰	-10.8422
▁통행료	-10.8422
▁판단력	-10.8422
▁평과	-10.8422
▁평상시	-10.8422
▁포유	-10.8422
▁포지션	-10.8422
▁표면	-10.8422
▁푸념	-10.8422
▁풍기	-10.8422
▁피라미드	-10.8422
▁피해자	-10.8422
▁하부	-10.8422
▁하청	-10.8422
▁하향식	-10.8422
▁한데	-10.8422
▁한도	-10.8422
▁한때	-10.8422
▁합류	-10.8422
▁항의	-10.8422
▁해상도	-10.8422
▁허무	-10.8422
▁현명	-10.8422
▁회의록	-10.8422
▁후회	-10.8422
▁휴가일	-10.8422
▁휴가제	-10.8422
▁휴직자	-10.8422
▁흘리	-10.8422
▁흡수	-10.8422
▁희망자	-10.8422
▁adva	-10.9964
▁aliy	-10.9964
▁amily	-10.9964
▁ay	-10.9964
▁bd	-10.9964
▁cah	-10.9964
▁cctv	-10.9964
▁ch	-10.9964
▁coo	-10.9964
▁ct	-10.9964
▁dt총괄	-10.9964
▁dvi	-10.9964
▁dvlo	-10.9964
▁gx	-10.9964
▁iiaio	-10.9964
▁in	-10.9964
▁ito	-10.9964
▁java	-10.9964
▁ly	-10.9964
▁mai	-10.9964
▁mou	-10.9964
▁paas	-10.9964
▁pd	-10.9964
▁sv	-10.9964
▁tami	-10.9964
▁tc	-10.9964
▁tco	-10.9964
▁up	-10.9964
▁vm	-10.9964
▁가로막	-10.9964
▁가을	-10.9964
▁가함	-10.9964
▁가혹	-10.9964
▁간극	-10.9964
▁감도	-10.9964
▁강좌	-10.9964
▁강행	-10.9964
▁개개	-10.9964
▁거버넌스	-10.9964
▁걸음	-10.9964
▁게이트	-10.9964
▁결속	-10.9964
▁겸하	-10.9964
▁경과	-10.9964
▁고지	-10.9964
▁고착화	-10.9964
▁공과	-10.9964
▁공명정대	-10.9964
▁공모전	-10.9964
▁공적	-10.9964
▁과시	-10.9964
▁관료주의	-10.9964
▁관리직	-10.9964
▁관심사	-10.9964
▁관용	-10.9964
▁교수	-10.9964
▁국제	-10.9964
▁군데	-10.9964
▁그만큼	-10.9964
▁근참	-10.9964
▁기쁨	-10.9964
▁기입	-10.9964
▁김주	-10.9964
▁까페	-10.9964
▁깨달	-10.9964
▁끊기	-10.9964
▁나태	-10.9964
▁남쪽	-10.9964
▁내다보	-10.9964
▁내보내	-10.9964
▁내세우	-10.9964
▁넓히	-10.9964
▁넘어오	-10.9964
▁년수	-10.9964
▁노동조합법	-10.9964
▁노측	-10.9964
▁논점	-10.9964
▁다가오	-10.9964
▁다리	-10.9964
▁다지	-10.9964
▁달러	-10.9964
▁담배꽁초	-10.9964
▁답안	-10.9964
▁당선자	-10.9964
▁당혹	-10.9964
▁대략	-10.9964
▁대의	-10.9964
▁대피	-10.9964
▁도덕	-10.9964
▁도적	-10.9964
▁독서실	-10.9964
▁동인	-10.9964
▁두뇌	-10.9964
▁뒷자리	-10.9964
▁딜리버리	-10.9964
▁런지	-10.9964
▁마음속	-10.9964
▁말꼬리	-10.9964
▁말죽거리	-10.9964
▁매니지먼트	-10.9964
▁매직	-10.9964
▁매칭	-10.9964
▁맥북	-10.9964
▁먼지	-10.9964
▁명의	-10.9964
▁모시	-10.9964
▁모호	-10.9964
▁몰아주	-10.9964
▁무대	-10.9964
▁무례	-10.9964
▁무상	-10.9964
▁무선	-10.9964
▁무인	-10.9964
▁무임승차	-10.9964
▁물론	-10.9964
▁미덕	-10.9964
▁미동	-10.9964
▁미명	-10.9964
▁미세먼지	-10.9964
▁민폐	-10.9964
▁바깥	-10.9964
▁바라지	-10.9964
▁바래	-10.9964
▁바퀴	-10.9964
▁반기	-10.9964
▁반사	-10.9964
▁발란스	-10.9964
▁발비	-10.9964
▁밤새	-10.9964
▁밥그릇	-10.9964
▁방음	-10.9964
▁방화벽	-10.9964
▁배척	-10.9964
▁배타	-10.9964
▁배터리	-10.9964
▁법대	-10.9964
▁베드	-10.9964
▁베이스	-10.9964
▁변명	-10.9964
▁변민	-10.9964
▁변혁	-10.9964
▁별일	-10.9964
▁보급	-10.9964
▁보름	-10.9964
▁복호	-10.9964
▁본급	-10.9964
▁본전	-10.9964
▁볼일	-10.9964
▁부인	-10.9964
▁부패	-10.9964
▁북측	-10.9964
▁불의	-10.9964
▁뷰어	-10.9964
▁비아	-10.9964
▁사각지대	-10.9964
▁사간	-10.9964
▁사심	-10.9964
▁사업주	-10.9964
▁사적	-10.9964
▁살피	-10.9964
▁상무	-10.9964
▁상옥	-10.9964
▁새끼	-10.9964
▁서술	-10.9964
▁서적	-10.9964
▁선거일	-10.9964
▁설날	-10.9964
▁성남	-10.9964
▁성숙도	-10.9964
▁성인	-10.9964
▁성추행	-10.9964
▁성희롱	-10.9964
▁세트	-10.9964
▁셀러	-10.9964
▁소망	-10.9964
▁소매업	-10.9964
▁소변	-10.9964
▁소비자	-10.9964
▁소유자	-10.9964
▁속하	-10.9964
▁쇄신	-10.9964
▁수박	-10.9964
▁수요일	-10.9964
▁수저	-10.9964
▁수차례	-10.9964
▁수학	-10.9964
▁수행자	-10.9964
▁순차	-10.9964
▁스타	-10.9964
▁스토리	-10.9964
▁스토리지	-10.9964
▁스페셜	-10.9964
▁스피디	-10.9964
▁승리	-10.9964
▁승소	-10.9964
▁시간대	-10.9964
▁시건	-10.9964
▁시계	-10.9964
▁시내	-10.9964
▁신지	-10.9964
▁신청서	-10.9964
▁실업	-10.9964
▁심기	-10.9964
▁심이	-10.9964
▁쌍방향	-10.9964
▁쓸모	-10.9964
▁아부	-10.9964
▁아이러니	-10.9964
▁아키	-10.9964
▁아픔	-10.9964
▁안착	-10.9964
▁알기	-10.9964
▁암흑기	-10.9964
▁애착	-10.9964
▁앵커	-10.9964
▁야외	-10.9964
▁양지	-10.9964
▁양측	-10.9964
▁어수선	-10.9964
▁어플리케이션	-10.9964
▁엉망	-10.9964
▁에스	-10.9964
▁연공서열	-10.9964
▁연임	-10.9964
▁염두	-10.9964
▁영어	-10.9964
▁영업력	-10.9964
▁영혼	-10.9964
▁오랜만	-10.9964
▁오른쪽	-10.9964
▁오염	-10.9964
▁완동	-10.9964
▁왼쪽	-10.9964
▁요금	-10.9964
▁요하	-10.9964
▁우유	-10.9964
▁웃기	-10.9964
▁원두	-10.9964
▁월간	-10.9964
▁월례회	-10.9964
▁위화감	-10.9964
▁유감	-10.9964
▁유저	-10.9964
▁음주	-10.9964
▁음해	-10.9964
▁의제	-10.9964
▁이동하	-10.9964
▁이민환	-10.9964
▁이질감	-10.9964
▁인근	-10.9964
▁인맥	-10.9964
▁인양	-10.9964
▁일자리	-10.9964
▁일정액	-10.9964
▁일조	-10.9964
▁잉여	-10.9964
▁자정	-10.9964
▁작정	-10.9964
▁잔여	-10.9964
▁잡무	-10.9964
▁잡아먹	-10.9964
▁저격	-10.9964
▁저기	-10.9964
▁저돌	-10.9964
▁저지르	-10.9964
▁적소	-10.9964
▁적어지	-10.9964
▁적재	-10.9964
▁전산	-10.9964
▁제어판	-10.9964
▁조부모	-10.9964
▁조차	-10.9964
▁존재감	-10.9964
▁종용	-10.9964
▁좌측	-10.9964
▁주가	-10.9964
▁주고받	-10.9964
▁주근	-10.9964
▁주협	-10.9964
▁중장	-10.9964
▁증차	-10.9964
▁지성인	-10.9964
▁지수	-10.9964
▁지점	-10.9964
▁지진	-10.9964
▁직선	-10.9964
▁진도	-10.9964
▁진보	-10.9964
▁집단지	-10.9964
▁징역	-10.9964
▁차로	-10.9964
▁차이점	-10.9964
▁찬반	-10.9964
▁창고	-10.9964
▁창업	-10.9964
▁채찍	-10.9964
▁철학	-10.9964
▁체득	-10.9964
▁초급	-10.9964
▁촉구	-10.9964
▁총대	-10.9964
▁총액	-10.9964
▁총체	-10.9964
▁충실하	-10.9964
▁취미	-10.9964
▁치과	-10.9964
▁치약	-10.9964
▁카카오	-10.9964
▁코디네이션	-10.9964
▁타입	-10.9964
▁탄생	-10.9964
▁탈의실	-10.9964
▁태그	-10.9964
▁태우	-10.9964
▁터지	-10.9964
▁테더링	-10.9964
▁텍스트	-10.9964
▁팀워크	-10.9964
▁퍼포먼스	-10.9964
▁편가르	-10.9964
▁편법	-10.9964
▁평화	-10.9964
▁포착	-10.9964
▁표방	-10.9964
▁풀리	-10.9964
▁풍선	-10.9964
▁플러스	-10.9964
▁피상	-10.9964
▁피스	-10.9964
▁하계휴가	-10.9964
▁하자	-10.9964
▁해년	-10.9964
▁허가	-10.9964
▁형사	-10.9964
▁호응	-10.9964
▁호의	-10.9964
▁화내	-10.9964
▁화요일	-10.9964
▁화이팅	-10.9964
▁화학	-10.9964
▁활기	-10.9964
▁회유	-10.9964
▁ad	-11.1787
▁agi	-11.1787
▁aibil	-11.1787
▁alk	-11.1787
▁bizoad	-11.1787
▁call	-11.1787
▁chag	-11.1787
▁cli	-11.1787
▁db	-11.1787
▁divi	-11.1787
▁dj	-11.1787
▁hd	-11.1787
▁high	-11.1787
▁hoi	-11.1787
▁itsm	-11.1787
▁jdg	-11.1787
▁kb	-11.1787
▁ky	-11.1787
▁liaio	-11.1787
▁loaio	-11.1787
▁loyaly	-11.1787
▁mio	-11.1787
▁mli	-11.1787
▁nao	-11.1787
▁old	-11.1787
▁opn	-11.1787
▁pai	-11.1787
▁pogam	-11.1787
▁saas	-11.1787
▁sid	-11.1787
▁skn	-11.1787
▁soi	-11.1787
▁tak	-11.1787
▁tha	-11.1787
▁timly	-11.1787
▁tioom	-11.1787
▁tli	-11.1787
▁ux	-11.1787
▁va	-11.1787
▁vial	-11.1787
▁voc	-11.1787
▁vpn	-11.1787
▁zip	-11.1787
▁가급적	-11.1787
▁가두	-11.1787
▁가르침	-11.1787
▁가시성	-11.1787
▁각오	-11.1787
▁간략	-11.1787
▁갈음	-11.1787
▁감액	-11.1787
▁감축	-11.1787
▁강성	-11.1787
▁강제성	-11.1787
▁개표	-11.1787
▁겉핥	-11.1787
▁결실	-11.1787
▁결합	-11.1787
▁경조사	-11.1787
▁경찰	-11.1787
▁계단	-11.1787
▁계좌	-11.1787
▁계획서	-11.1787
▁고깃집	-11.1787
▁고리	-11.1787
▁고압	-11.1787
▁고요	-11.1787
▁고의	-11.1787
▁공존	-11.1787
▁공중	-11.1787
▁공직	-11.1787
▁과금	-11.1787
▁과대	-11.1787
▁과로사	-11.1787
▁과목	-11.1787
▁과부하	-11.1787
▁과외	-11.1787
▁과잉	-11.1787
▁관리인	-11.1787
▁교통정리	-11.1787
▁교환기	-11.1787
▁구간	-11.1787
▁구더기	-11.1787
▁구별	-11.1787
▁국정	-11.1787
▁규명	-11.1787
▁극도	-11.1787
▁근래	-11.1787
▁금상첨화	-11.1787
▁금연	-11.1787
▁기대치	-11.1787
▁기르	-11.1787
▁기름	-11.1787
▁기숙사	-11.1787
▁기울	-11.1787
▁기적	-11.1787
▁기하	-11.1787
▁기호	-11.1787
▁김인태	-11.1787
▁깜빡이	-11.1787
▁끌려가	-11.1787
▁나무라	-11.1787
▁나타내	-11.1787
▁낙관	-11.1787
▁날리	-11.1787
▁내면	-11.1787
▁냉방	-11.1787
▁냉소	-11.1787
▁냉장고	-11.1787
▁넘쳐나	-11.1787
▁노래	-11.1787
▁노예	-11.1787
▁노이즈	-11.1787
▁노총	-11.1787
▁높히	-11.1787
▁놓아주	-11.1787
▁늘어지	-11.1787
▁니스	-11.1787
▁다듬	-11.1787
▁다방면	-11.1787
▁단시간	-11.1787
▁단추	-11.1787
▁달식	-11.1787
▁당첨	-11.1787
▁당초	-11.1787
▁대대	-11.1787
▁대등	-11.1787
▁대말	-11.1787
▁대출	-11.1787
▁도시락	-11.1787
▁독감	-11.1787
▁독점	-11.1787
▁동선	-11.1787
▁동태	-11.1787
▁동호회	-11.1787
▁둔갑	-11.1787
▁둘째치	-11.1787
▁뒤집	-11.1787
▁득표	-11.1787
▁득하	-11.1787
▁등산	-11.1787
▁뛰어넘	-11.1787
▁뜨리	-11.1787
▁레드	-11.1787
▁려고	-11.1787
▁로그아웃	-11.1787
▁로직	-11.1787
▁류근식	-11.1787
▁마스터	-11.1787
▁마이너	-11.1787
▁막장	-11.1787
▁망가지	-11.1787
▁맞춤법	-11.1787
▁매년	-11.1787
▁매달리	-11.1787
▁매사	-11.1787
▁맹목	-11.1787
▁머무르	-11.1787
▁머신	-11.1787
▁먹통	-11.1787
▁먼저	-11.1787
▁면제	-11.1787
▁명심	-11.1787
▁모름	-11.1787
▁목요일	-11.1787
▁무단결근	-11.1787
▁무모	-11.1787
▁무사안일	-11.1787
▁무응답	-11.1787
▁문유석	-11.1787
▁문책	-11.1787
▁물통	-11.1787
▁미디어	-11.1787
▁미사	-11.1787
▁미소	-11.1787
▁미연	-11.1787
▁밀리	-11.1787
▁밀어붙이	-11.1787
▁밑단	-11.1787
▁바텀	-11.1787
▁박일	-11.1787
▁발맞추	-11.1787
▁발신	-11.1787
▁발주	-11.1787
▁발주자	-11.1787
▁배상	-11.1787
▁버그	-11.1787
▁병과주의	-11.1787
▁보유자	-11.1787
▁보험금	-11.1787
▁복식	-11.1787
▁복지부동	-11.1787
▁봉사	-11.1787
▁분도	-11.1787
▁분수	-11.1787
▁불공정	-11.1787
▁불안해하	-11.1787
▁불어넣	-11.1787
▁블럭	-11.1787
▁블루	-11.1787
▁비상식	-11.1787
▁비염	-11.1787
▁비유	-11.1787
▁빌미	-11.1787
▁빙자	-11.1787
▁사도	-11.1787
▁사리사욕	-11.1787
▁사물	-11.1787
▁사비	-11.1787
▁사용료	-11.1787
▁사임	-11.1787
▁산하	-11.1787
▁산학	-11.1787
▁살아가	-11.1787
▁상부	-11.1787
▁상여	-11.1787
▁색깔	-11.1787
▁생가	-11.1787
▁생명	-11.1787
▁생색내	-11.1787
▁서두	-11.1787
▁선거인	-11.1787
▁선풍기	-11.1787
▁선호도	-11.1787
▁세표	-11.1787
▁소감	-11.1787
▁소견	-11.1787
▁소단위	-11.1787
▁소름	-11.1787
▁소멸	-11.1787
▁소송비	-11.1787
▁소용	-11.1787
▁소장	-11.1787
▁속담	-11.1787
▁송부	-11.1787
▁쇼핑	-11.1787
▁수량	-11.1787
▁수백	-11.1787
▁수신자	-11.1787
▁수압	-11.1787
▁수용성	-11.1787
▁숙고	-11.1787
▁숙박비	-11.1787
▁순이익	-11.1787
▁스트레칭	-11.1787
▁승률	-11.1787
▁시나리오	-11.1787
▁시달리	-11.1787
▁시민	-11.1787
▁시범	-11.1787
▁시연	-11.1787
▁식권	-11.1787
▁신나	-11.1787
▁실감	-11.1787
▁실례	-11.1787
▁실리콘	-11.1787
▁심사숙고	-11.1787
▁씨앗	-11.1787
▁아이폰	-11.1787
▁아집	-11.1787
▁아카데미	-11.1787
▁안배	-11.1787
▁안쪽	-11.1787
▁압도	-11.1787
▁압력	-11.1787
▁앞장서	-11.1787
▁야머	-11.1787
▁양상	-11.1787
▁양자	-11.1787
▁양질	-11.1787
▁어른	-11.1787
▁어찌하	-11.1787
▁언사	-11.1787
▁에이브릴	-11.1787
▁여사	-11.1787
▁역동	-11.1787
▁역설	-11.1787
▁연사	-11.1787
▁연쇄	-11.1787
▁연장선	-11.1787
▁열람	-11.1787
▁열쇠	-11.1787
▁영화	-11.1787
▁예기	-11.1787
▁예약자	-11.1787
▁오도	-11.1787
▁오락	-11.1787
▁오타	-11.1787
▁외향	-11.1787
▁외형	-11.1787
▁우리나라	-11.1787
▁우선순위	-11.1787
▁우회	-11.1787
▁운동복	-11.1787
▁웃음	-11.1787
▁워킹	-11.1787
▁원리	-11.1787
▁월급쟁이	-11.1787
▁위로금	-11.1787
▁윗글	-11.1787
▁유닛	-11.1787
▁유료	-11.1787
▁유류	-11.1787
▁유무	-11.1787
▁유타	-11.1787
▁유휴	-11.1787
▁은근	-11.1787
▁음력	-11.1787
▁음력설	-11.1787
▁음료수	-11.1787
▁음성	-11.1787
▁의외	-11.1787
▁의의	-11.1787
▁이대로	-11.1787
▁이동제	-11.1787
▁이동해	-11.1787
▁이원화	-11.1787
▁인만	-11.1787
▁인비	-11.1787
▁인상액	-11.1787
▁인트라넷	-11.1787
▁일거리	-11.1787
▁일제	-11.1787
▁일지	-11.1787
▁일회성	-11.1787
▁임원진	-11.1787
▁자간	-11.1787
▁자경단	-11.1787
▁자금	-11.1787
▁자급	-11.1787
▁자나	-11.1787
▁자본	-11.1787
▁장간	-11.1787
▁장거리	-11.1787
▁장과	-11.1787
▁장관	-11.1787
▁장기근속	-11.1787
▁장마	-11.1787
▁장애물	-11.1787
▁재질	-11.1787
▁저작	-11.1787
▁적합	-11.1787
▁전념	-11.1787
▁전략사업	-11.1787
▁전망	-11.1787
▁전수	-11.1787
▁전술	-11.1787
▁전일	-11.1787
▁전임자	-11.1787
▁전쟁터	-11.1787
▁절충	-11.1787
▁점심때	-11.1787
▁정례	-11.1787
▁정류장	-11.1787
▁정원	-11.1787
▁정적	-11.1787
▁제수	-11.1787
▁젠더	-11.1787
▁조지	-11.1787
▁종사	-11.1787
▁주세	-11.1787
▁주세요	-11.1787
▁주시	-11.1787
▁주자	-11.1787
▁준급	-11.1787
▁중석	-11.1787
▁중소기업	-11.1787
▁중식	-11.1787
▁중임	-11.1787
▁증서	-11.1787
▁지도자	-11.1787
▁지성	-11.1787
▁지역구	-11.1787
▁지엽	-11.1787
▁지원자	-11.1787
▁직관	-11.1787
▁진솔	-11.1787
▁진술	-11.1787
▁진일보	-11.1787
▁차질	-11.1787
▁착용	-11.1787
▁창가	-11.1787
▁청정기	-11.1787
▁체념	-11.1787
▁쳐다보	-11.1787
▁초심	-11.1787
▁촛불	-11.1787
▁최저	-11.1787
▁추궁	-11.1787
▁출근길	-11.1787
▁출발점	-11.1787
▁출입문	-11.1787
▁충만	-11.1787
▁취업	-11.1787
▁치부	-11.1787
▁치아	-11.1787
▁치이	-11.1787
▁친화력	-11.1787
▁침범	-11.1787
▁카더라	-11.1787
▁카카오톡	-11.1787
▁카테고리	-11.1787
▁커서	-11.1787
▁코너	-11.1787
▁타성	-11.1787
▁탄소	-11.1787
▁탐구	-11.1787
▁태클	-11.1787
▁택배	-11.1787
▁탱고	-11.1787
▁터무니	-11.1787
▁템플	-11.1787
▁통계	-11.1787
▁통신비	-11.1787
▁통용	-11.1787
▁통장	-11.1787
▁퇴색	-11.1787
▁특유	-11.1787
▁특장	-11.1787
▁파트너십	-11.1787
▁팩스	-11.1787
▁폄하	-11.1787
▁포인터	-11.1787
▁포트폴리오	-11.1787
▁폭발	-11.1787
▁푸쉬	-11.1787
▁플래닛	-11.1787
▁플랫폼	-11.1787
▁플레이	-11.1787
▁피엠	-11.1787
▁하닉	-11.1787
▁학위	-11.1787
▁한글	-11.1787
▁한동안	-11.1787
▁해오름	-11.1787
▁해체	-11.1787
▁해피	-11.1787
▁형편	-11.1787
▁혼돈	-11.1787
▁회의감	-11.1787
▁효용	-11.1787
▁후퇴	-11.1787
▁휘두르	-11.1787
▁흔드	-11.1787
▁흔들	-11.1787
▁흘러가	-11.1787
▁힐링	-11.1787
▁aa	-11.4018
▁agg	-11.4018
▁ahi	-11.4018
▁alaio	-11.4018
▁aoy	-11.4018
▁bb	-11.4018
▁bi	-11.4018
▁bottom	-11.4018
▁cyl	-11.4018
▁dc	-11.4018
▁dg	-11.4018
▁dlay	-11.4018
▁dvo	-11.4018
▁googl	-11.4018
▁hall	-11.4018
▁hdgi	-11.4018
▁hioms	-11.4018
▁hma	-11.4018
▁iaas	-11.4018
▁iali	-11.4018
▁icbm	-11.4018
▁iiv	-11.4018
▁ili	-11.4018
▁ips	-11.4018
▁kim	-11.4018
▁ktx	-11.4018
▁lay	-11.4018
▁lia	-11.4018
▁lt	-11.4018
▁mmoy	-11.4018
▁msg	-11.4018
▁myok	-11.4018
▁nav	-11.4018
▁nx	-11.4018
▁nxo	-11.4018
▁oll	-11.4018
▁olla	-11.4018
▁oma	-11.4018
▁ooo	-11.4018
▁pag	-11.4018
▁paki	-11.4018
▁pho	-11.4018
▁pid	-11.4018
▁poaiv	-11.4018
▁poio	-11.4018
▁sks	-11.4018
▁sk홀딩스	-11.4018
▁sla	-11.4018
▁sld	-11.4018
▁tag	-11.4018
▁tob	-11.4018
▁tokok	-11.4018
▁top	-11.4018
▁tt	-11.4018
▁tv	-11.4018
▁vialiy	-11.4018
▁xi	-11.4018
▁가르키	-11.4018
▁가림막	-11.4018
▁가점	-11.4018
▁가짜	-11.4018
▁각도	-11.4018
▁간직	-11.4018
▁감염	-11.4018
▁감원	-11.4018
▁감점	-11.4018
▁감지	-11.4018
▁강남	-11.4018
▁강단	-11.4018
▁개그	-11.4018
▁개떡	-11.4018
▁개악	-11.4018
▁객관성	-11.4018
▁거리감	-11.4018
▁거북목	-11.4018
▁걸레	-11.4018
▁검은색	-11.4018
▁격력	-11.4018
▁결원	-11.4018
▁결혼	-11.4018
▁경각심	-11.4018
▁경기도	-11.4018
▁경쟁자	-11.4018
▁경찰서	-11.4018
▁경형	-11.4018
▁계선	-11.4018
▁계약직	-11.4018
▁고가	-11.4018
▁고기	-11.4018
▁고르	-11.4018
▁고인	-11.4018
▁고층	-11.4018
▁골목	-11.4018
▁공공사업	-11.4018
▁공통점	-11.4018
▁공휴일	-11.4018
▁과실	-11.4018
▁과열	-11.4018
▁과음	-11.4018
▁과중	-11.4018
▁관건	-11.4018
▁교만	-11.4018
▁교재	-11.4018
▁구내	-11.4018
▁구미	-11.4018
▁구석구석	-11.4018
▁구태	-11.4018
▁국물	-11.4018
▁국방	-11.4018
▁국회	-11.4018
▁굴러가	-11.4018
▁굴리	-11.4018
▁궁금	-11.4018
▁궁금해하	-11.4018
▁권력자	-11.4018
▁규율	-11.4018
▁그래프	-11.4018
▁그려지	-11.4018
▁그릇	-11.4018
▁극명	-11.4018
▁금년도	-11.4018
▁기가	-11.4018
▁기밀	-11.4018
▁기본기	-11.4018
▁기부금	-11.4018
▁기성	-11.4018
▁기왕증	-11.4018
▁기일	-11.4018
▁기혼	-11.4018
▁꺼지	-11.4018
▁꼬리	-11.4018
▁꾸미	-11.4018
▁꾸짖	-11.4018
▁끄집	-11.4018
▁나발	-11.4018
▁낙인	-11.4018
▁남짓	-11.4018
▁남편	-11.4018
▁내망	-11.4018
▁내주	-11.4018
▁녹음	-11.4018
▁놀이	-11.4018
▁농단	-11.4018
▁눈감	-11.4018
▁능력자	-11.4018
▁니케	-11.4018
▁다가서	-11.4018
▁다년	-11.4018
▁다년간	-11.4018
▁다독이	-11.4018
▁다량	-11.4018
▁단행	-11.4018
▁달려가	-11.4018
▁대구	-11.4018
▁대량	-11.4018
▁대리인	-11.4018
▁대세	-11.4018
▁대용량	-11.4018
▁대응책	-11.4018
▁대조	-11.4018
▁대통령령	-11.4018
▁대휴	-11.4018
▁더위	-11.4018
▁던지	-11.4018
▁도난	-11.4018
▁도래	-11.4018
▁도망가	-11.4018
▁도시	-11.4018
▁도입부	-11.4018
▁도저	-11.4018
▁돋보이	-11.4018
▁동급	-11.4018
▁동분서주	-11.4018
▁동아리	-11.4018
▁동완	-11.4018
▁뒤쪽	-11.4018
▁뒤통수	-11.4018
▁뒷사람	-11.4018
▁등원	-11.4018
▁등한시	-11.4018
▁디스플레이	-11.4018
▁딜레마	-11.4018
▁따라잡	-11.4018
▁떠안	-11.4018
▁떨어트리	-11.4018
▁라이터	-11.4018
▁랜딩	-11.4018
▁레이저	-11.4018
▁레인	-11.4018
▁레일	-11.4018
▁마나	-11.4018
▁마녀	-11.4018
▁마다	-11.4018
▁마당	-11.4018
▁마스터플랜	-11.4018
▁마음먹	-11.4018
▁마이	-11.4018
▁마킹	-11.4018
▁막무가내	-11.4018
▁막바지	-11.4018
▁말미	-11.4018
▁매일	-11.4018
▁매트	-11.4018
▁머물	-11.4018
▁먹히	-11.4018
▁면피	-11.4018
▁명예퇴직	-11.4018
▁모르쇠	-11.4018
▁모텔	-11.4018
▁모티베이션	-11.4018
▁목표치	-11.4018
▁몰상식	-11.4018
▁몰지각	-11.4018
▁몸값	-11.4018
▁무형	-11.4018
▁문턱	-11.4018
▁물러서	-11.4018
▁물타기	-11.4018
▁미래산업	-11.4018
▁미스	-11.4018
▁밀어부치	-11.4018
▁밑바닥	-11.4018
▁바지	-11.4018
▁반나절	-11.4018
▁반려	-11.4018
▁반증	-11.4018
▁반환	-11.4018
▁발달	-11.4018
▁발사	-11.4018
▁발짝	-11.4018
▁발행	-11.4018
▁발효	-11.4018
▁밤샘	-11.4018
▁방관	-11.4018
▁방편	-11.4018
▁방학	-11.4018
▁배당	-11.4018
▁배수	-11.4018
▁버퍼	-11.4018
▁번갈	-11.4018
▁법위	-11.4018
▁벨리	-11.4018
▁변호사	-11.4018
▁보건	-11.4018
▁보복	-11.4018
▁보상비	-11.4018
▁보상제	-11.4018
▁보식	-11.4018
▁보안관	-11.4018
▁보이스	-11.4018
▁보호법	-11.4018
▁본안	-11.4018
▁볼펜	-11.4018
▁부적합	-11.4018
▁분란	-11.4018
▁분량	-11.4018
▁분실자	-11.4018
▁분업화	-11.4018
▁분포	-11.4018
▁불만족	-11.4018
▁불법성	-11.4018
▁불평불만	-11.4018
▁불합리	-11.4018
▁브레인스토밍	-11.4018
▁비굴	-11.4018
▁비리	-11.4018
▁비약	-11.4018
▁비위	-11.4018
▁비품	-11.4018
▁비합리	-11.4018
▁비협조	-11.4018
▁비흡연자	-11.4018
▁빈소	-11.4018
▁빈자리	-11.4018
▁빠름	-11.4018
▁뺏기	-11.4018
▁뽀뽀	-11.4018
▁뽀삐	-11.4018
▁사거리	-11.4018
▁사보	-11.4018
▁사서함	-11.4018
▁사용량	-11.4018
▁상견례	-11.4018
▁상권	-11.4018
▁상벌	-11.4018
▁상신	-11.4018
▁상징	-11.4018
▁상황실	-11.4018
▁서산	-11.4018
▁선양	-11.4018
▁선포	-11.4018
▁설문지	-11.4018
▁섭취	-11.4018
▁성남시	-11.4018
▁성수기	-11.4018
▁성질	-11.4018
▁성토	-11.4018
▁세밀화	-11.4018
▁세션	-11.4018
▁세이	-11.4018
▁소등	-11.4018
▁소모적	-11.4018
▁소방수	-11.4018
▁속내	-11.4018
▁속출	-11.4018
▁수건	-11.4018
▁수리	-11.4018
▁수명	-11.4018
▁수습	-11.4018
▁수첩	-11.4018
▁수칙	-11.4018
▁수혈	-11.4018
▁순응	-11.4018
▁스스	-11.4018
▁승낙	-11.4018
▁시건장치	-11.4018
▁시사점	-11.4018
▁시어머니	-11.4018
▁시인	-11.4018
▁식별	-11.4018
▁식비	-11.4018
▁식품	-11.4018
▁신분	-11.4018
▁신상필벌	-11.4018
▁신세	-11.4018
▁신장	-11.4018
▁신청자	-11.4018
▁신체	-11.4018
▁실사	-11.4018
▁실익	-11.4018
▁싸매	-11.4018
▁쏟아지	-11.4018
▁쓴소리	-11.4018
▁씨티	-11.4018
▁아랑곳	-11.4018
▁아래쪽	-11.4018
▁아량	-11.4018
▁아버지	-11.4018
▁아시나	-11.4018
▁아이삭	-11.4018
▁아이스크림	-11.4018
▁아젠다	-11.4018
▁아키텍처	-11.4018
▁악덕	-11.4018
▁안내문	-11.4018
▁안시	-11.4018
▁안일	-11.4018
▁알고리즘	-11.4018
▁알파	-11.4018
▁애시당초	-11.4018
▁애플	-11.4018
▁액션	-11.4018
▁양면	-11.4018
▁양주	-11.4018
▁어린이	-11.4018
▁어법	-11.4018
▁어용	-11.4018
▁어조	-11.4018
▁어투	-11.4018
▁언론사	-11.4018
▁언성	-11.4018
▁업무체계	-11.4018
▁업장	-11.4018
▁에로	-11.4018
▁에서	-11.4018
▁엔지니어링	-11.4018
▁엘리	-11.4018
▁역대	-11.4018
▁역효과	-11.4018
▁연고지	-11.4018
▁연유	-11.4018
▁연출	-11.4018
▁연한	-11.4018
▁열기	-11.4018
▁열의	-11.4018
▁영하	-11.4018
▁예수	-11.4018
▁오만	-11.4018
▁오인	-11.4018
▁오지	-11.4018
▁온화	-11.4018
▁와의	-11.4018
▁와이드	-11.4018
▁완급	-11.4018
▁외부망	-11.4018
▁외산	-11.4018
▁외침	-11.4018
▁요점	-11.4018
▁용서	-11.4018
▁용시	-11.4018
▁용자	-11.4018
▁우기	-11.4018
▁우물	-11.4018
▁우유부단	-11.4018
▁우편	-11.4018
▁원동력	-11.4018
▁원석	-11.4018
▁월례	-11.4018
▁월말	-11.4018
▁위엄	-11.4018
▁유니언	-11.4018
▁유명	-11.4018
▁유보	-11.4018
▁유턴	-11.4018
▁응답자	-11.4018
▁응방	-11.4018
▁응집력	-11.4018
▁의견서	-11.4018
▁의논	-11.4018
▁의대	-11.4018
▁의료비	-11.4018
▁이날	-11.4018
▁이노베이션	-11.4018
▁이동관	-11.4018
▁이맘때	-11.4018
▁이바지	-11.4018
▁이산화	-11.4018
▁이음새	-11.4018
▁이점	-11.4018
▁인가	-11.4018
▁인사이동	-11.4018
▁인천	-11.4018
▁인턴	-11.4018
▁인포	-11.4018
▁일과	-11.4018
▁일관성	-11.4018
▁일동	-11.4018
▁일류	-11.4018
▁일보	-11.4018
▁일부분	-11.4018
▁일환	-11.4018
▁임대	-11.4018
▁임신	-11.4018
▁임팩트	-11.4018
▁자라	-11.4018
▁자부	-11.4018
▁자비	-11.4018
▁자산관리	-11.4018
▁자생력	-11.4018
▁자전거	-11.4018
▁자주	-11.4018
▁자중	-11.4018
▁잘잘못	-11.4018
▁잠시	-11.4018
▁장난	-11.4018
▁장문	-11.4018
▁장사	-11.4018
▁재단	-11.4018
▁쟁이	-11.4018
▁저분	-11.4018
▁저지	-11.4018
▁적발	-11.4018
▁전년도	-11.4018
▁전력	-11.4018
▁절하	-11.4018
▁점거	-11.4018
▁접대	-11.4018
▁정권	-11.4018
▁정기회	-11.4018
▁정량화	-11.4018
▁정제	-11.4018
▁제발	-11.4018
▁제의	-11.4018
▁제작	-11.4018
▁제제	-11.4018
▁제하	-11.4018
▁조명훈	-11.4018
▁조정법	-11.4018
▁조직도	-11.4018
▁조카	-11.4018
▁좁음	-11.4018
▁주니어급	-11.4018
▁주변인	-11.4018
▁주입	-11.4018
▁주입식	-11.4018
▁주주	-11.4018
▁주휴	-11.4018
▁중견	-11.4018
▁중략	-11.4018
▁중반	-11.4018
▁중소	-11.4018
▁중지	-11.4018
▁쥐어짜	-11.4018
▁즈음	-11.4018
▁지급액	-11.4018
▁지능	-11.4018
▁지니	-11.4018
▁지려	-11.4018
▁지법	-11.4018
▁지상	-11.4018
▁지정석	-11.4018
▁지주사	-11.4018
▁직함	-11.4018
▁진로	-11.4018
▁진행상	-11.4018
▁집체	-11.4018
▁징구	-11.4018
▁쫓기	-11.4018
▁차기	-11.4018
▁착신	-11.4018
▁찰떡	-11.4018
▁참관	-11.4018
▁찾아내	-11.4018
▁척도	-11.4018
▁천정	-11.4018
▁청사진	-11.4018
▁청운	-11.4018
▁체류	-11.4018
▁체육	-11.4018
▁쳐드	-11.4018
▁초봉	-11.4018
▁초창기	-11.4018
▁총무	-11.4018
▁총회	-11.4018
▁최순	-11.4018
▁최저임금	-11.4018
▁최정	-11.4018
▁추위	-11.4018
▁추적	-11.4018
▁출범	-11.4018
▁출석	-11.4018
▁출입구	-11.4018
▁층간	-11.4018
▁치르	-11.4018
▁친근감	-11.4018
▁친목도모	-11.4018
▁캐치	-11.4018
▁컴퓨팅	-11.4018
▁코치	-11.4018
▁큰소리	-11.4018
▁타협	-11.4018
▁탁구	-11.4018
▁탁상공론	-11.4018
▁태반	-11.4018
▁태생	-11.4018
▁태풍	-11.4018
▁토너	-11.4018
▁통지	-11.4018
▁퇴근길	-11.4018
▁퇴직자	-11.4018
▁투심	-11.4018
▁트랙	-11.4018
▁트러블	-11.4018
▁트집	-11.4018
▁특근	-11.4018
▁티나	-11.4018
▁티켓	-11.4018
▁파도	-11.4018
▁판정	-11.4018
▁팔리	-11.4018
▁팩토리	-11.4018
▁퍼센트	-11.4018
▁퍼지	-11.4018
▁편집	-11.4018
▁폐해	-11.4018
▁포메이션	-11.4018
▁포크	-11.4018
▁플레인	-11.4018
▁피우	-11.4018
▁피트	-11.4018
▁필연	-11.4018
▁하달	-11.4018
▁하루하루	-11.4018
▁하소연	-11.4018
▁하이패스	-11.4018
▁한눈	-11.4018
▁한자	-11.4018
▁한탄	-11.4018
▁할인	-11.4018
▁합계	-11.4018
▁해내	-11.4018
▁해산	-11.4018
▁핸들	-11.4018
▁행보	-11.4018
▁험담	-11.4018
▁현제	-11.4018
▁혈안	-11.4018
▁혐오	-11.4018
▁호감	-11.4018
▁호봉	-11.4018
▁혼동	-11.4018
▁혼잡	-11.4018
▁화나	-11.4018
▁화두	-11.4018
▁화상	-11.4018
▁화장	-11.4018
▁화제	-11.4018
▁환산	-11.4018
▁회사원	-11.4018
▁회색	-11.4018
▁흉내	-11.4018
▁흔적	-11.4018
▁흥분	-11.4018
▁희석	-11.4018
▁히터	-11.4018
▁aiv	-11.6895
▁ali	-11.6895
▁alizaio	-11.6895
▁alki	-11.6895
▁amazo	-11.6895
▁api	-11.6895
▁avag	-11.6895
▁bigdaa	-11.6895
▁bill	-11.6895
▁billa	-11.6895
▁bl	-11.6895
▁bo	-11.6895
▁booki	-11.6895
▁boomu	-11.6895
▁cic	-11.6895
▁ciial	-11.6895
▁clik	-11.6895
▁commim	-11.6895
▁covag	-11.6895
▁daily	-11.6895
▁dl	-11.6895
▁dmi	-11.6895
▁don	-11.6895
▁dp	-11.6895
▁gay	-11.6895
▁gbs	-11.6895
▁gio	-11.6895
▁good	-11.6895
▁gov	-11.6895
▁hag	-11.6895
▁hai	-11.6895
▁hith	-11.6895
▁ih	-11.6895
▁imag	-11.6895
▁is	-11.6895
▁itc	-11.6895
▁its사업	-11.6895
▁ja	-11.6895
▁joi	-11.6895
▁lai	-11.6895
▁ld	-11.6895
▁lgal	-11.6895
▁lgcns	-11.6895
▁mah	-11.6895
▁mahi	-11.6895
▁maos	-11.6895
▁md	-11.6895
▁mdo	-11.6895
▁mg	-11.6895
▁mov	-11.6895
▁nami	-11.6895
▁oho	-11.6895
▁olli	-11.6895
▁ooday	-11.6895
▁op	-11.6895
▁ov	-11.6895
▁ovaio	-11.6895
▁poma	-11.6895
▁ps	-11.6895
▁push	-11.6895
▁qaliy	-11.6895
▁qik	-11.6895
▁sdi	-11.6895
▁shad	-11.6895
▁slim	-11.6895
▁slli	-11.6895
▁soy	-11.6895
▁spoc	-11.6895
▁sva	-11.6895
▁tamok	-11.6895
▁task	-11.6895
▁tht	-11.6895
▁tlb	-11.6895
▁ul	-11.6895
▁volv	-11.6895
▁vs	-11.6895
▁yllo	-11.6895
▁ym	-11.6895
▁zi	-11.6895
▁가감	-11.6895
▁가게	-11.6895
▁가교	-11.6895
▁가까이	-11.6895
▁가래	-11.6895
▁가리키	-11.6895
▁가산점	-11.6895
▁가장	-11.6895
▁가중주의	-11.6895
▁각인	-11.6895
▁간결	-11.6895
▁간소화	-11.6895
▁간식	-11.6895
▁간파	-11.6895
▁간헐	-11.6895
▁간혹	-11.6895
▁감싸	-11.6895
▁갑과	-11.6895
▁갑인	-11.6895
▁강북	-11.6895
▁강점기	-11.6895
▁개구리	-11.6895
▁개새끼	-11.6895
▁개의	-11.6895
▁개인정보	-11.6895
▁개인차	-11.6895
▁거수기	-11.6895
▁거주지	-11.6895
▁거지	-11.6895
▁거치대	-11.6895
▁거품	-11.6895
▁건네	-11.6895
▁건더기	-11.6895
▁건도	-11.6895
▁건드리	-11.6895
▁걸기	-11.6895
▁검수	-11.6895
▁검열	-11.6895
▁검정	-11.6895
▁겉모습	-11.6895
▁겉옷	-11.6895
▁격년	-11.6895
▁격변	-11.6895
▁견과	-11.6895
▁견디	-11.6895
▁견문	-11.6895
▁견지	-11.6895
▁결식아동	-11.6895
▁경북	-11.6895
▁경영지원	-11.6895
▁경주마	-11.6895
▁경험치	-11.6895
▁계도	-11.6895
▁계몽	-11.6895
▁계산법	-11.6895
▁고담	-11.6895
▁고대	-11.6895
▁고등	-11.6895
▁고무	-11.6895
▁고문	-11.6895
▁고법	-11.6895
▁고속	-11.6895
▁고심	-11.6895
▁고연	-11.6895
▁고조	-11.6895
▁골드	-11.6895
▁골치	-11.6895
▁공론화	-11.6895
▁공방	-11.6895
▁공생	-11.6895
▁공연	-11.6895
▁공청회	-11.6895
▁공학	-11.6895
▁과단	-11.6895
▁과대평가	-11.6895
▁과부	-11.6895
▁과학	-11.6895
▁관료제	-11.6895
▁관제	-11.6895
▁교과서	-11.6895
▁교부	-11.6895
▁교사	-11.6895
▁교시	-11.6895
▁교통편	-11.6895
▁구걸	-11.6895
▁구나	-11.6895
▁구루	-11.6895
▁구식	-11.6895
▁구조물	-11.6895
▁구지	-11.6895
▁국격	-11.6895
▁국세청	-11.6895
▁국정원	-11.6895
▁군자	-11.6895
▁귀담	-11.6895
▁귀족	-11.6895
▁그만두	-11.6895
▁금수	-11.6895
▁급박	-11.6895
▁급속도	-11.6895
▁긍지	-11.6895
▁기대감	-11.6895
▁기동	-11.6895
▁기법	-11.6895
▁기복	-11.6895
▁기상특보	-11.6895
▁기술사	-11.6895
▁기술원	-11.6895
▁기아	-11.6895
▁기증	-11.6895
▁기프	-11.6895
▁기형	-11.6895
▁기획부	-11.6895
▁김길	-11.6895
▁김장	-11.6895
▁김지애	-11.6895
▁김태영	-11.6895
▁까스	-11.6895
▁깨닫	-11.6895
▁깨지	-11.6895
▁껍데기	-11.6895
▁꾸리	-11.6895
▁끌어올리	-11.6895
▁끼어들	-11.6895
▁나기	-11.6895
▁나래	-11.6895
▁낙수	-11.6895
▁난폭	-11.6895
▁날라가	-11.6895
▁날아가	-11.6895
▁남녀	-11.6895
▁남발	-11.6895
▁남이	-11.6895
▁남측	-11.6895
▁납부	-11.6895
▁낭고	-11.6895
▁내공	-11.6895
▁내려지	-11.6895
▁냉난방	-11.6895
▁넘어지	-11.6895
▁노동력	-11.6895
▁노동조합원	-11.6895
▁노래방	-11.6895
▁노령	-11.6895
▁노릇	-11.6895
▁노무현	-11.6895
▁노인	-11.6895
▁노트	-11.6895
▁논문	-11.6895
▁논지	-11.6895
▁놀라	-11.6895
▁농구	-11.6895
▁농사	-11.6895
▁눈살	-11.6895
▁늘어놓	-11.6895
▁다각도	-11.6895
▁다발	-11.6895
▁다운로드	-11.6895
▁다이어리	-11.6895
▁다짐	-11.6895
▁닥달	-11.6895
▁닥치	-11.6895
▁단결권	-11.6895
▁단골	-11.6895
▁단련	-11.6895
▁단부	-11.6895
▁단비	-11.6895
▁단서	-11.6895
▁단시	-11.6895
▁달려드	-11.6895
▁담시	-11.6895
▁답장	-11.6895
▁당년	-11.6895
▁당월	-11.6895
▁대단위	-11.6895
▁대동소이	-11.6895
▁대사	-11.6895
▁대수	-11.6895
▁대치	-11.6895
▁대학교	-11.6895
▁대행	-11.6895
▁더럽히	-11.6895
▁더블	-11.6895
▁더하기	-11.6895
▁덩달	-11.6895
▁덩치	-11.6895
▁도만	-11.6895
▁도우미	-11.6895
▁도장	-11.6895
▁도형	-11.6895
▁독거	-11.6895
▁독력	-11.6895
▁독불장군	-11.6895
▁독특	-11.6895
▁돌려받	-11.6895
▁돌발	-11.6895
▁돌쟁이	-11.6895
▁동수	-11.6895
▁동요	-11.6895
▁동자	-11.6895
▁동존	-11.6895
▁동쪽	-11.6895
▁둔감	-11.6895
▁뒷담화	-11.6895
▁뒷면	-11.6895
▁뒷정리	-11.6895
▁드라마	-11.6895
▁드라이	-11.6895
▁드라이버	-11.6895
▁드라이어	-11.6895
▁드레스	-11.6895
▁드릴	-11.6895
▁득표수	-11.6895
▁들어서	-11.6895
▁들이대	-11.6895
▁등재	-11.6895
▁디스크	-11.6895
▁디폴트	-11.6895
▁따먹	-11.6895
▁딸아이	-11.6895
▁때리	-11.6895
▁떠돌	-11.6895
▁뛰어들	-11.6895
▁라가	-11.6895
▁라이	-11.6895
▁라이센스	-11.6895
▁레이아웃	-11.6895
▁로그	-11.6895
▁리뉴	-11.6895
▁리빌	-11.6895
▁리프트	-11.6895
▁마니	-11.6895
▁마스크	-11.6895
▁마음고생	-11.6895
▁마이너스	-11.6895
▁마자	-11.6895
▁마주치	-11.6895
▁막강	-11.6895
▁만든	-11.6895
▁만료	-11.6895
▁만지	-11.6895
▁만천하	-11.6895
▁말미암	-11.6895
▁망정	-11.6895
▁망하	-11.6895
▁맞기	-11.6895
▁매개체	-11.6895
▁매너리즘	-11.6895
▁매매	-11.6895
▁매핑	-11.6895
▁메꾸	-11.6895
▁메디	-11.6895
▁메모	-11.6895
▁메모장	-11.6895
▁메이	-11.6895
▁면죄부	-11.6895
▁명복	-11.6895
▁명퇴	-11.6895
▁모럴	-11.6895
▁모면	-11.6895
▁모음	-11.6895
▁목금	-11.6895
▁목적의식	-11.6895
▁몰아치	-11.6895
▁무가	-11.6895
▁무단	-11.6895
▁무마	-11.6895
▁무심	-11.6895
▁무인점포	-11.6895
▁무장	-11.6895
▁무진	-11.6895
▁무효화	-11.6895
▁문재인	-11.6895
▁문제지	-11.6895
▁물러나	-11.6895
▁물티슈	-11.6895
▁미관	-11.6895
▁미련	-11.6895
▁미로	-11.6895
▁미미	-11.6895
▁미지수	-11.6895
▁미충	-11.6895
▁미칼	-11.6895
▁미트	-11.6895
▁민노총	-11.6895
▁민사부	-11.6895
▁밀어내기	-11.6895
▁밀어주	-11.6895
▁밀집	-11.6895
▁밑거름	-11.6895
▁바가지	-11.6895
▁바구니	-11.6895
▁바르	-11.6895
▁바위	-11.6895
▁박근희	-11.6895
▁박현정	-11.6895
▁반강	-11.6895
▁반경	-11.6895
▁반문	-11.6895
▁반시	-11.6895
▁받침	-11.6895
▁발간	-11.6895
▁발암	-11.6895
▁방문자	-11.6895
▁방울	-11.6895
▁방임	-11.6895
▁방패	-11.6895
▁배식	-11.6895
▁배신	-11.6895
▁배차	-11.6895
▁배출	-11.6895
▁백신	-11.6895
▁밸류	-11.6895
▁벌금	-11.6895
▁벌이	-11.6895
▁벌판	-11.6895
▁범하	-11.6895
▁법안	-11.6895
▁법조문	-11.6895
▁법치	-11.6895
▁베타	-11.6895
▁베테랑	-11.6895
▁베풀	-11.6895
▁벤쳐	-11.6895
▁벤치	-11.6895
▁벨소리	-11.6895
▁변모	-11.6895
▁변신	-11.6895
▁변호	-11.6895
▁병가	-11.6895
▁병폐	-11.6895
▁보기식	-11.6895
▁보듬	-11.6895
▁보스	-11.6895
▁보자	-11.6895
▁보철	-11.6895
▁보태	-11.6895
▁복종	-11.6895
▁본원	-11.6895
▁봉쇄	-11.6895
▁부가가치	-11.6895
▁부끄럼	-11.6895
▁부산	-11.6895
▁부실	-11.6895
▁부양가족	-11.6895
▁부진	-11.6895
▁부착	-11.6895
▁부품	-11.6895
▁북돋	-11.6895
▁분노	-11.6895
▁분리수거	-11.6895
▁분무기	-11.6895
▁분별	-11.6895
▁분수대	-11.6895
▁분쟁	-11.6895
▁불러오	-11.6895
▁불문	-11.6895
▁불시	-11.6895
▁불친절	-11.6895
▁불허	-11.6895
▁불화	-11.6895
▁붉히	-11.6895
▁브라운	-11.6895
▁브리프	-11.6895
▁비번	-11.6895
▁비수기	-11.6895
▁비전문가	-11.6895
▁비효	-11.6895
▁빈도수	-11.6895
▁빈번	-11.6895
▁빌링	-11.6895
▁빌붙	-11.6895
▁빨간색	-11.6895
▁사냥	-11.6895
▁사려	-11.6895
▁사리	-11.6895
▁사업단	-11.6895
▁사연	-11.6895
▁사이버	-11.6895
▁사자	-11.6895
▁사차원	-11.6895
▁삭감	-11.6895
▁산정기	-11.6895
▁산행	-11.6895
▁삼가	-11.6895
▁삼전	-11.6895
▁상계	-11.6895
▁상명	-11.6895
▁상반	-11.6895
▁상분	-11.6895
▁상식선	-11.6895
▁상업	-11.6895
▁상의	-11.6895
▁상인	-11.6895
▁색안경	-11.6895
▁색출	-11.6895
▁생태계	-11.6895
▁서간	-11.6895
▁서서	-11.6895
▁서식	-11.6895
▁서약서	-11.6895
▁서원	-11.6895
▁선구자	-11.6895
▁선례	-11.6895
▁선명	-11.6895
▁선바이저	-11.6895
▁선상	-11.6895
▁선약	-11.6895
▁선전	-11.6895
▁선지급	-11.6895
▁섭렵	-11.6895
▁성급	-11.6895
▁성명	-11.6895
▁성원	-11.6895
▁성찰	-11.6895
▁세경	-11.6895
▁소년	-11.6895
▁소매	-11.6895
▁소설	-11.6895
▁소송비용	-11.6895
▁소회	-11.6895
▁속마음	-11.6895
▁손발	-11.6895
▁손잡	-11.6895
▁수내	-11.6895
▁수료	-11.6895
▁수면	-11.6895
▁수발	-11.6895
▁수수료	-11.6895
▁수술	-11.6895
▁수월	-11.6895
▁수위	-11.6895
▁수작업	-11.6895
▁수지	-11.6895
▁수차	-11.6895
▁수통	-11.6895
▁쉬쉬	-11.6895
▁스캔	-11.6895
▁스타케	-11.6895
▁스타트	-11.6895
▁스택	-11.6895
▁스토어	-11.6895
▁스펙트럼	-11.6895
▁슬로우	-11.6895
▁습도	-11.6895
▁습성	-11.6895
▁승강기	-11.6895
▁승승장구	-11.6895
▁시그널	-11.6895
▁시늉	-11.6895
▁시발점	-11.6895
▁시세	-11.6895
▁시큐리티	-11.6895
▁식단	-11.6895
▁식수	-11.6895
▁신기술	-11.6895
▁신라호텔	-11.6895
▁신뢰감	-11.6895
▁신문고	-11.6895
▁신발장	-11.6895
▁신분당선	-11.6895
▁신한은행	-11.6895
▁실망감	-11.6895
▁실용	-11.6895
▁실주	-11.6895
▁심창	-11.6895
▁심플	-11.6895
▁십수	-11.6895
▁싸잡	-11.6895
▁쏟아부	-11.6895
▁쓰래	-11.6895
▁아기	-11.6895
▁아메리카노	-11.6895
▁아웃소싱	-11.6895
▁아웅	-11.6895
▁아주머니	-11.6895
▁안개	-11.6895
▁안식년	-11.6895
▁안전사고	-11.6895
▁알바	-11.6895
▁알아듣	-11.6895
▁압축	-11.6895
▁약분	-11.6895
▁약어	-11.6895
▁양동환	-11.6895
▁양립	-11.6895
▁양모	-11.6895
▁양사	-11.6895
▁양산	-11.6895
▁양아치	-11.6895
▁양치	-11.6895
▁어떠	-11.6895
▁어우르	-11.6895
▁어함	-11.6895
▁억압	-11.6895
▁얼룩	-11.6895
▁얽히	-11.6895
▁엄지	-11.6895
▁에어	-11.6895
▁에이전트	-11.6895
▁엔카	-11.6895
▁여름휴가	-11.6895
▁역경	-11.6895
▁역부족	-11.6895
▁역삼	-11.6895
▁역서	-11.6895
▁연고	-11.6895
▁연구소	-11.6895
▁연극	-11.6895
▁연금	-11.6895
▁연내	-11.6895
▁연수원	-11.6895
▁열망	-11.6895
▁열심	-11.6895
▁열약	-11.6895
▁열중	-11.6895
▁열흘	-11.6895
▁영광	-11.6895
▁영달	-11.6895
▁영리	-11.6895
▁영문	-11.6895
▁영양사	-11.6895
▁예단	-11.6895
▁예정일	-11.6895
▁오더	-11.6895
▁오랫만	-11.6895
▁오브	-11.6895
▁오용	-11.6895
▁오티	-11.6895
▁올려놓	-11.6895
▁옷차림	-11.6895
▁와이파이	-11.6895
▁와인	-11.6895
▁완결성	-11.6895
▁완벽주의	-11.6895
▁완충	-11.6895
▁왕국	-11.6895
▁외국어	-11.6895
▁외비	-11.6895
▁요함	-11.6895
▁욕설	-11.6895
▁용역	-11.6895
▁용이성	-11.6895
▁우선주의	-11.6895
▁우시	-11.6895
▁우월	-11.6895
▁우체국	-11.6895
▁워치	-11.6895
▁원론	-11.6895
▁원복	-11.6895
▁원임	-11.6895
▁월별	-11.6895
▁월평균	-11.6895
▁월회	-11.6895
▁웹젠	-11.6895
▁위기감	-11.6895
▁위법성	-11.6895
▁위자	-11.6895
▁유스	-11.6895
▁유실	-11.6895
▁유야무야	-11.6895
▁유언비어	-11.6895
▁유연	-11.6895
▁유착	-11.6895
▁유튜브	-11.6895
▁유해	-11.6895
▁윤규	-11.6895
▁음지	-11.6895
▁의례	-11.6895
▁의전	-11.6895
▁의향	-11.6895
▁이격	-11.6895
▁이달	-11.6895
▁이동간	-11.6895
▁이동과	-11.6895
▁이듭	-11.6895
▁이리	-11.6895
▁이분법	-11.6895
▁이상일	-11.6895
▁이쑤시개	-11.6895
▁이용료	-11.6895
▁이월	-11.6895
▁이임	-11.6895
▁이치	-11.6895
▁이호수	-11.6895
▁인간관	-11.6895
▁인쇄	-11.6895
▁인위	-11.6895
▁인체	-11.6895
▁인형	-11.6895
▁일개	-11.6895
▁일리	-11.6895
▁일분일초	-11.6895
▁일쑤	-11.6895
▁임길재	-11.6895
▁임대인	-11.6895
▁임대차	-11.6895
▁입점	-11.6895
▁자리매김	-11.6895
▁자만	-11.6895
▁자아	-11.6895
▁자재	-11.6895
▁자조	-11.6895
▁자택	-11.6895
▁자투리	-11.6895
▁작가	-11.6895
▁작금	-11.6895
▁작업등	-11.6895
▁작업량	-11.6895
▁작업자	-11.6895
▁잔소리	-11.6895
▁잔재	-11.6895
▁잡아가	-11.6895
▁잡일	-11.6895
▁잡지	-11.6895
▁장단	-11.6895
▁장동현	-11.6895
▁장수	-11.6895
▁장인	-11.6895
▁재정	-11.6895
▁재택	-11.6895
▁재판장	-11.6895
▁저것	-11.6895
▁저변	-11.6895
▁저서	-11.6895
▁저성장	-11.6895
▁적법	-11.6895
▁전권	-11.6895
▁전근대	-11.6895
▁전기료	-11.6895
▁전동	-11.6895
▁전송망	-11.6895
▁전쟁	-11.6895
▁전체주의	-11.6895
▁전화번호부	-11.6895
▁점하	-11.6895
▁접견실	-11.6895
▁접대비	-11.6895
▁정공법	-11.6895
▁정기주	-11.6895
▁정돈	-11.6895
▁정직	-11.6895
▁정치력	-11.6895
▁정치인	-11.6895
▁제어	-11.6895
▁제왕	-11.6895
▁제전	-11.6895
▁조망	-11.6895
▁조문	-11.6895
▁조바심	-11.6895
▁조식	-11.6895
▁조이	-11.6895
▁조취	-11.6895
▁존칭	-11.6895
▁종로	-11.6895
▁종소리	-11.6895
▁죄인	-11.6895
▁주객	-11.6895
▁주거비	-11.6895
▁주관식	-11.6895
▁주도성	-11.6895
▁주머니	-11.6895
▁주목	-11.6895
▁주무관	-11.6895
▁주식	-11.6895
▁주실	-11.6895
▁주특기	-11.6895
▁중대	-11.6895
▁중대장	-11.6895
▁중앙선	-11.6895
▁중용	-11.6895
▁중학생	-11.6895
▁쥬스	-11.6895
▁쥬얼	-11.6895
▁지대	-11.6895
▁지방사	-11.6895
▁지병	-11.6895
▁지청	-11.6895
▁지휘	-11.6895
▁직종	-11.6895
▁직후	-11.6895
▁진료	-11.6895
▁진리	-11.6895
▁진술서	-11.6895
▁질서	-11.6895
▁질환	-11.6895
▁집결	-11.6895
▁집행정지	-11.6895
▁집회	-11.6895
▁징징대	-11.6895
▁쫓아가	-11.6895
▁차액	-11.6895
▁차치	-11.6895
▁차키	-11.6895
▁참관인	-11.6895
▁찾아오	-11.6895
▁채권	-11.6895
▁채팅	-11.6895
▁척결	-11.6895
▁천년만년	-11.6895
▁천명	-11.6895
▁철폐	-11.6895
▁첫인상	-11.6895
▁첫해	-11.6895
▁체육관	-11.6895
▁체자	-11.6895
▁체화	-11.6895
▁촉발	-11.6895
▁총각	-11.6895
▁최상위	-11.6895
▁최하	-11.6895
▁충당	-11.6895
▁취식	-11.6895
▁측근	-11.6895
▁치하	-11.6895
▁카로	-11.6895
▁캐주얼	-11.6895
▁커브	-11.6895
▁컨설턴트	-11.6895
▁코걸이	-11.6895
▁코스프레	-11.6895
▁쾌변	-11.6895
▁크로스	-11.6895
▁타령	-11.6895
▁타바타	-11.6895
▁타운	-11.6895
▁타자	-11.6895
▁탁구장	-11.6895
▁탁상	-11.6895
▁탈바꿈	-11.6895
▁탈취제	-11.6895
▁탐욕	-11.6895
▁택하	-11.6895
▁터놓	-11.6895
▁터전	-11.6895
▁텀블러	-11.6895
▁테러	-11.6895
▁텐트	-11.6895
▁템포	-11.6895
▁토끼	-11.6895
▁톨게이트	-11.6895
▁통시	-11.6895
▁통행세	-11.6895
▁퇴보	-11.6895
▁투덜대	-11.6895
▁투정	-11.6895
▁퉁명	-11.6895
▁트레이닝	-11.6895
▁트림	-11.6895
▁트윈	-11.6895
▁특기	-11.6895
▁티어	-11.6895
▁파고	-11.6895
▁파급	-11.6895
▁파벌	-11.6895
▁파손	-11.6895
▁파우	-11.6895
▁파주	-11.6895
▁판국	-11.6895
▁판시	-11.6895
▁팔찌	-11.6895
▁패닉	-11.6895
▁페스티벌	-11.6895
▁페이퍼	-11.6895
▁펜션	-11.6895
▁편도	-11.6895
▁평가제도	-11.6895
▁폐단	-11.6895
▁포진	-11.6895
▁포트	-11.6895
▁푸즈	-11.6895
▁프라	-11.6895
▁프라이드	-11.6895
▁프랜	-11.6895
▁프레시	-11.6895
▁프로그래밍	-11.6895
▁프리	-11.6895
▁피아노	-11.6895
▁피자	-11.6895
▁필독	-11.6895
▁필름	-11.6895
▁필터링	-11.6895
▁하급자	-11.6895
▁하리	-11.6895
▁하의상달	-11.6895
▁하이테크	-11.6895
▁학년	-11.6895
▁학문	-11.6895
▁학업	-11.6895
▁학원	-11.6895
▁한방	-11.6895
▁한인	-11.6895
▁한턱	-11.6895
▁할증	-11.6895
▁함정	-11.6895
▁합격	-11.6895
▁합동	-11.6895
▁합의서	-11.6895
▁합하	-11.6895
▁항소심	-11.6895
▁해시	-11.6895
▁해킹	-11.6895
▁행동력	-11.6895
▁행방	-11.6895
▁향식	-11.6895
▁허브	-11.6895
▁허울	-11.6895
▁헬프	-11.6895
▁혁파	-11.6895
▁현격	-11.6895
▁현관	-11.6895
▁현시점	-11.6895
▁현장경영	-11.6895
▁혈압	-11.6895
▁형국	-11.6895
▁형량	-11.6895
▁혜안	-11.6895
▁호구	-11.6895
▁호기심	-11.6895
▁호박	-11.6895
▁호환	-11.6895
▁혼내	-11.6895
▁홍차	-11.6895
▁화재	-11.6895
▁환급	-11.6895
▁황금연휴	-11.6895
▁회귀	-11.6895
▁회전	-11.6895
▁획일화	-11.6895
▁후안무치	-11.6895
▁후진	-11.6895
▁후폭풍	-11.6895
▁휩쓸리	-11.6895
▁휴가비	-11.6895
▁휴대	-11.6895
▁흑색선전	-11.6895
▁act	-12.095
▁ada	-12.095
▁adi	-12.095
▁agiliy	-12.095
▁ahivd	-12.095
▁allig	-12.095
▁amg	-12.095
▁ami	-12.095
▁amok	-12.095
▁ap	-12.095
▁app	-12.095
▁apt	-12.095
▁bakgo	-12.095
▁bgi	-12.095
▁bli	-12.095
▁blok	-12.095
▁blokhai	-12.095
▁boad	-12.095
▁boo	-12.095
▁cai	-12.095
▁caiv	-12.095
▁cba	-12.095
▁cdo	-12.095
▁chang	-12.095
▁choi	-12.095
▁cla	-12.095
▁cloud	-12.095
▁cod	-12.095
▁commi	-12.095
▁cov	-12.095
▁cto	-12.095
▁dah	-12.095
▁ddiad	-12.095
▁dly	-12.095
▁ds	-12.095
▁dv	-12.095
▁gagm	-12.095
▁gaiv	-12.095
▁gidli	-12.095
▁gl	-12.095
▁gli	-12.095
▁gm	-12.095
▁hdmi	-12.095
▁hly	-12.095
▁hm	-12.095
▁hogh	-12.095
▁hom	-12.095
▁ia	-12.095
▁igg	-12.095
▁ighi	-12.095
▁igold	-12.095
▁iho	-12.095
▁iki	-12.095
▁illi	-12.095
▁ival	-12.095
▁kai	-12.095
▁kam	-12.095
▁kbs	-12.095
▁ko	-12.095
▁koa	-12.095
▁lak	-12.095
▁layo	-12.095
▁limi	-12.095
▁liv	-12.095
▁look	-12.095
▁looki	-12.095
▁lp	-12.095
▁lv	-12.095
▁lxa	-12.095
▁mabook	-12.095
▁mall	-12.095
▁mao	-12.095
▁mc	-12.095
▁migaio	-12.095
▁modal	-12.095
▁moio	-12.095
▁mooc	-12.095
▁mysha	-12.095
▁mysvi	-12.095
▁ngaiv	-12.095
▁noi	-12.095
▁nugu	-12.095
▁oal	-12.095
▁ocb	-12.095
▁ocd	-12.095
▁ogam	-12.095
▁ohi	-12.095
▁okholi	-12.095
▁oklo	-12.095
▁omizi	-12.095
▁on	-12.095
▁oodi	-12.095
▁ooki	-12.095
▁ops	-12.095
▁oxy	-12.095
▁oyaly	-12.095
▁pgm	-12.095
▁pii	-12.095
▁pio	-12.095
▁pizza	-12.095
▁plan	-12.095
▁pogammi	-12.095
▁poliy	-12.095
▁poo	-12.095
▁poolio	-12.095
▁povid	-12.095
▁psal	-12.095
▁qa	-12.095
▁qi	-12.095
▁sai	-12.095
▁sc	-12.095
▁scan	-12.095
▁sdd	-12.095
▁sdn	-12.095
▁sdt	-12.095
▁shdo	-12.095
▁shooi	-12.095
▁sin	-12.095
▁sing	-12.095
▁sky	-12.095
▁smb	-12.095
▁sp	-12.095
▁sta	-12.095
▁suvy	-12.095
▁svilla	-12.095
▁tagi	-12.095
▁taki	-12.095
▁thi	-12.095
▁tn	-12.095
▁togh	-12.095
▁toktok	-12.095
▁tpo	-12.095
▁tst	-12.095
▁tx	-12.095
▁typ	-12.095
▁valu	-12.095
▁vio	-12.095
▁vision	-12.095
▁vo	-12.095
▁volm	-12.095
▁xl	-12.095
▁xxxx	-12.095
▁ya	-12.095
▁yo	-12.095
▁가공	-12.095
▁가까워	-12.095
▁가라	-12.095
▁가로	-12.095
▁가로채	-12.095
▁가수	-12.095
▁가스	-12.095
▁가실	-12.095
▁가심	-12.095
▁가양	-12.095
▁가입자	-12.095
▁가전	-12.095
▁가정생활	-12.095
▁가죽	-12.095
▁가하	-12.095
▁가해자	-12.095
▁각색	-12.095
▁각성	-12.095
▁각호	-12.095
▁간기능	-12.095
▁간수	-12.095
▁간월	-12.095
▁간호사	-12.095
▁갈리	-12.095
▁갈아타	-12.095
▁감독관	-12.095
▁감리	-12.095
▁감상	-12.095
▁감시자	-12.095
▁감정싸움	-12.095
▁감탄	-12.095
▁감투	-12.095
▁감행	-12.095
▁강남역	-12.095
▁강력	-12.095
▁강령	-12.095
▁강정수	-12.095
▁강진우	-12.095
▁개고생	-12.095
▁개략	-12.095
▁개무	-12.095
▁개선책	-12.095
▁개수	-12.095
▁개신교	-12.095
▁개인기	-12.095
▁개정안	-12.095
▁객관식	-12.095
▁객관화	-12.095
▁거두	-12.095
▁거려	-12.095
▁거름	-12.095
▁거실	-12.095
▁거주자	-12.095
▁건과	-12.095
▁건별	-12.095
▁건전	-12.095
▁건조	-12.095
▁건축물	-12.095
▁검색창	-12.095
▁검출	-12.095
▁겁박	-12.095
▁겉돌	-12.095
▁겨냥	-12.095
▁격월	-12.095
▁격하	-12.095
▁결력	-12.095
▁결점	-12.095
▁겸임	-12.095
▁겸허	-12.095
▁경남	-12.095
▁경력자	-12.095
▁경멸	-12.095
▁경엽	-12.095
▁경제난	-12.095
▁경주	-12.095
▁계서	-12.095
▁고개	-12.095
▁고교	-12.095
▁고구마	-12.095
▁고군분투	-12.095
▁고령	-12.095
▁고립	-12.095
▁고모	-12.095
▁고발	-12.095
▁고부	-12.095
▁고비	-12.095
▁고성방가	-12.095
▁고속도	-12.095
▁고식	-12.095
▁고안	-12.095
▁고양이	-12.095
▁고전	-12.095
▁고찰	-12.095
▁고평	-12.095
▁곡학아세	-12.095
▁골방	-12.095
▁곱하	-12.095
▁공급자	-12.095
▁공략	-12.095
▁공로패	-12.095
▁공산주의자	-12.095
▁공신력	-12.095
▁공작	-12.095
▁공중분해	-12.095
▁공포	-12.095
▁과로	-12.095
▁과묵	-12.095
▁과세	-12.095
▁과소평가	-12.095
▁과오	-12.095
▁관두	-12.095
▁관리회계	-12.095
▁관서	-12.095
▁관중	-12.095
▁관할	-12.095
▁광기	-12.095
▁광명	-12.095
▁광산	-12.095
▁괴변	-12.095
▁교유	-12.095
▁교육장	-12.095
▁교정	-12.095
▁교통사고	-12.095
▁구글링	-12.095
▁구석	-12.095
▁구스	-12.095
▁구요	-12.095
▁구직	-12.095
▁국립	-12.095
▁국면	-12.095
▁국밥	-12.095
▁국어	-12.095
▁군군	-12.095
▁군림	-12.095
▁굴러	-12.095
▁굴러다니	-12.095
▁권하	-12.095
▁귀결	-12.095
▁귀납	-12.095
▁귀마개	-12.095
▁귀중품	-12.095
▁균형감	-12.095
▁그늘	-12.095
▁그니	-12.095
▁그라운드	-12.095
▁그램	-12.095
▁그레이	-12.095
▁그로	-12.095
▁그르	-12.095
▁그해	-12.095
▁극악	-12.095
▁극장	-12.095
▁근기	-12.095
▁근력	-12.095
▁근무원	-12.095
▁근육	-12.095
▁글쓰기	-12.095
▁글씨	-12.095
▁금감원	-12.095
▁금지법	-12.095
▁금토	-12.095
▁금품	-12.095
▁급간	-12.095
▁급등	-12.095
▁급락	-12.095
▁급선무	-12.095
▁급수	-12.095
▁기년	-12.095
▁기미	-12.095
▁기본금	-12.095
▁기본예절	-12.095
▁기상	-12.095
▁기약	-12.095
▁기어	-12.095
▁기억력	-12.095
▁기우	-12.095
▁기제	-12.095
▁기주	-12.095
▁기죽	-12.095
▁기준점	-12.095
▁기질	-12.095
▁기치	-12.095
▁기침	-12.095
▁길목	-12.095
▁김가영	-12.095
▁김대중	-12.095
▁김성욱	-12.095
▁김수석	-12.095
▁김신배	-12.095
▁김용	-12.095
▁김용태	-12.095
▁김원종	-12.095
▁김진우	-12.095
▁김철주	-12.095
▁김현수	-12.095
▁김형국	-12.095
▁까내리	-12.095
▁깜빡하	-12.095
▁꼬이	-12.095
▁꼬투리	-12.095
▁꽁짜	-12.095
▁꾸역	-12.095
▁꿈꾸	-12.095
▁끌어안	-12.095
▁나마	-12.095
▁나사	-12.095
▁나열식	-12.095
▁나올	-12.095
▁나용	-12.095
▁낙점	-12.095
▁낙후	-12.095
▁난이도	-12.095
▁난지	-12.095
▁날아오	-12.095
▁남과	-12.095
▁남음	-12.095
▁내규	-12.095
▁내밀	-12.095
▁내부망	-12.095
▁내비치	-12.095
▁내서	-12.095
▁내신	-12.095
▁내어주	-12.095
▁내용증명	-12.095
▁내포	-12.095
▁냄새나	-12.095
▁냉동	-12.095
▁냉소주의	-12.095
▁냉장	-12.095
▁넘나드	-12.095
▁네거티브	-12.095
▁네모	-12.095
▁넥스	-12.095
▁노블	-12.095
▁노이로제	-12.095
▁녹아들	-12.095
▁녹취	-12.095
▁논거	-12.095
▁논제	-12.095
▁논조	-12.095
▁놀래	-12.095
▁농간	-12.095
▁농산물	-12.095
▁높임말	-12.095
▁놓아두	-12.095
▁놓이	-12.095
▁놔주	-12.095
▁누설	-12.095
▁누수	-12.095
▁눈물	-12.095
▁뉴런	-12.095
▁늘이	-12.095
▁니어	-12.095
▁다과	-12.095
▁다물	-12.095
▁다수결	-12.095
▁다의	-12.095
▁다이렉트	-12.095
▁다자	-12.095
▁다자간	-12.095
▁단리	-12.095
▁단상	-12.095
▁단자	-12.095
▁단지	-12.095
▁달기	-12.095
▁달아보	-12.095
▁달째	-12.095
▁담구	-12.095
▁담날	-12.095
▁담론	-12.095
▁담아내	-12.095
▁당금	-12.095
▁당연	-12.095
▁당연시	-12.095
▁당연지사	-12.095
▁대놓	-12.095
▁대대장	-12.095
▁대덕	-12.095
▁대만	-12.095
▁대박	-12.095
▁대변기	-12.095
▁대변인	-12.095
▁대변자	-12.095
▁대시보드	-12.095
▁대인	-12.095
▁대입	-12.095
▁대학생	-12.095
▁대항	-12.095
▁더나	-12.095
▁더듬	-12.095
▁더미	-12.095
▁데려가	-12.095
▁데스	-12.095
▁데이	-12.095
▁데이비드	-12.095
▁도둑놈	-12.095
▁도망치	-12.095
▁도맡	-12.095
▁도서실	-12.095
▁도요	-12.095
▁도우	-12.095
▁도제식	-12.095
▁독립운동가	-12.095
▁돈거래	-12.095
▁돌다리	-12.095
▁돌려놓	-12.095
▁돌보	-12.095
▁돌연사	-12.095
▁동과	-12.095
▁동당	-12.095
▁동도	-12.095
▁동반성	-12.095
▁동생	-12.095
▁동일시	-12.095
▁동종사	-12.095
▁동중	-12.095
▁동창	-12.095
▁동체	-12.095
▁동탄	-12.095
▁동행	-12.095
▁되돌리	-12.095
▁되집	-12.095
▁되찾	-12.095
▁두드러지	-12.095
▁두들기	-12.095
▁둘러보	-12.095
▁뒤돌	-12.095
▁뒤바뀌	-12.095
▁뒤지	-12.095
▁뒷말	-12.095
▁뒷문	-12.095
▁뒷전	-12.095
▁드론	-12.095
▁들려오	-12.095
▁들먹이	-12.095
▁들판	-12.095
▁등가성	-12.095
▁등용	-12.095
▁따내	-12.095
▁때우	-12.095
▁떠나가	-12.095
▁떠도	-12.095
▁떠맡	-12.095
▁떠올리	-12.095
▁떨리	-12.095
▁라돈	-12.095
▁라스베이거스	-12.095
▁라운드	-12.095
▁라운지	-12.095
▁라이더	-12.095
▁라이브	-12.095
▁라이언	-12.095
▁레스	-12.095
▁레코	-12.095
▁레포트	-12.095
▁련지	-12.095
▁로만	-12.095
▁로망	-12.095
▁로션	-12.095
▁로즈	-12.095
▁롯데	-12.095
▁루저	-12.095
▁루트	-12.095
▁리그	-12.095
▁리리	-12.095
▁리서치	-12.095
▁리터	-12.095
▁립스틱	-12.095
▁마라	-12.095
▁마비	-12.095
▁마쉬	-12.095
▁마이에	-12.095
▁마이크로	-12.095
▁막아주	-12.095
▁막지	-12.095
▁막판	-12.095
▁만년필	-12.095
▁만성	-12.095
▁만의	-12.095
▁만한	-12.095
▁말살	-12.095
▁말장난	-12.095
▁말죽	-12.095
▁맘고생	-12.095
▁망설이	-12.095
▁맞교환	-12.095
▁매기	-12.095
▁매니	-12.095
▁매신	-12.095
▁매유	-12.095
▁매점	-12.095
▁맨먼스	-12.095
▁맹인	-12.095
▁머그	-12.095
▁머니	-12.095
▁머릿속	-12.095
▁머릿수	-12.095
▁머슴	-12.095
▁먹자	-12.095
▁먹지	-12.095
▁메모지	-12.095
▁메인	-12.095
▁면대	-12.095
▁면면	-12.095
▁면박	-12.095
▁면역력	-12.095
▁면전	-12.095
▁면책	-12.095
▁명기	-12.095
▁명문	-12.095
▁명세	-12.095
▁명약관화	-12.095
▁명언	-12.095
▁명함	-12.095
▁명확성	-12.095
▁몇일	-12.095
▁모금함	-12.095
▁모니	-12.095
▁모로	-12.095
▁모성	-12.095
▁모수	-12.095
▁모욕	-12.095
▁모토	-12.095
▁모회사	-12.095
▁목매	-12.095
▁목부	-12.095
▁목욕탕	-12.095
▁몰고가	-12.095
▁몰이	-12.095
▁몸담	-12.095
▁몽블랑	-12.095
▁무관	-12.095
▁무너지	-12.095
▁무력	-12.095
▁무력감	-12.095
▁무선랜	-12.095
▁무식	-12.095
▁무언	-12.095
▁무용	-12.095
▁무용지물	-12.095
▁무작위	-12.095
▁묵묵부답	-12.095
▁문맥	-12.095
▁문명	-12.095
▁문어	-12.095
▁문제삼	-12.095
▁물거품	-12.095
▁물들	-12.095
▁뭉개	-12.095
▁미꾸라지	-12.095
▁미들웨어	-12.095
▁미래상	-12.095
▁미시	-12.095
▁미약	-12.095
▁미준	-12.095
▁미진	-12.095
▁민생	-12.095
▁민승기	-12.095
▁밀어붙이기	-12.095
▁바다	-12.095
▁바디	-12.095
▁바람막이	-12.095
▁바이	-12.095
▁바치	-12.095
▁박기	-12.095
▁박문각	-12.095
▁박수일	-12.095
▁박정석	-12.095
▁박주혜	-12.095
▁반년	-12.095
▁반대급부	-12.095
▁반대편	-12.095
▁반대표	-12.095
▁반목	-12.095
▁반반	-12.095
▁반즈	-12.095
▁반출	-12.095
▁받침대	-12.095
▁발단	-12.095
▁발등	-12.095
▁발렌	-12.095
▁발명	-12.095
▁발부	-12.095
▁발식	-12.095
▁발자국	-12.095
▁발전성	-12.095
▁발판	-12.095
▁밥값	-12.095
▁방역	-12.095
▁방영	-12.095
▁방점	-12.095
▁방정식	-12.095
▁배송	-12.095
▁배치도	-12.095
▁배치전환	-12.095
▁배회	-12.095
▁백억	-12.095
▁백호	-12.095
▁밸리	-12.095
▁뱅크	-12.095
▁뱅킹	-12.095
▁버스비	-12.095
▁버팀목	-12.095
▁번가	-12.095
▁번호표	-12.095
▁벌금형	-12.095
▁범주	-12.095
▁법칙	-12.095
▁법학	-12.095
▁베스트	-12.095
▁베푸	-12.095
▁벽면	-12.095
▁변곡점	-12.095
▁변동성	-12.095
▁변두리	-12.095
▁변상	-12.095
▁변종	-12.095
▁변태	-12.095
▁별명	-12.095
▁별세	-12.095
▁병들	-12.095
▁병맛	-12.095
▁병목현상	-12.095
▁병신	-12.095
▁보노	-12.095
▁보답	-12.095
▁보더스	-12.095
▁보드	-12.095
▁보레	-12.095
▁보상금	-12.095
▁보수성	-12.095
▁보증금	-12.095
▁보험법	-12.095
▁복용	-12.095
▁복제	-12.095
▁복직	-12.095
▁본건	-12.095
▁본받	-12.095
▁본사가	-12.095
▁본심	-12.095
▁본의	-12.095
▁본점	-12.095
▁본체	-12.095
▁봉투	-12.095
▁부감	-12.095
▁부근	-12.095
▁부내	-12.095
▁부답	-12.095
▁부도	-12.095
▁부도덕	-12.095
▁부동산	-12.095
▁부러지	-12.095
▁부사수	-12.095
▁부서장	-12.095
▁부속품	-12.095
▁부스러기	-12.095
▁부스럭대	-12.095
▁부와	-12.095
▁부익부	-12.095
▁부임	-12.095
▁부제	-12.095
▁부지	-12.095
▁부지런	-12.095
▁부처	-12.095
▁부추기	-12.095
▁부치	-12.095
▁부탁드리	-12.095
▁부회장	-12.095
▁부흥	-12.095
▁북치	-12.095
▁분개	-12.095
▁분내	-12.095
▁분명	-12.095
▁분발	-12.095
▁분별력	-12.095
▁분업	-12.095
▁분의	-12.095
▁분홍	-12.095
▁분화	-12.095
▁불가결	-12.095
▁불공정성	-12.095
▁불구경	-12.095
▁불량	-12.095
▁불복	-12.095
▁불식	-12.095
▁불이행	-12.095
▁불특정	-12.095
▁불피	-12.095
▁불협화음	-12.095
▁붉은색	-12.095
▁붙히	-12.095
▁브라더스	-12.095
▁브라우저	-12.095
▁브레인	-12.095
▁비극	-12.095
▁비닐장갑	-12.095
▁비대칭	-12.095
▁비법	-12.095
▁비상경보	-12.095
▁비속어	-12.095
▁비스	-12.095
▁비실	-12.095
▁비오	-12.095
▁비일비재	-12.095
▁비자	-12.095
▁비정상화	-12.095
▁비트	-12.095
▁비합법	-12.095
▁비활성	-12.095
▁빈익빈	-12.095
▁빈정	-12.095
▁빌리	-12.095
▁빨대	-12.095
▁뺏어가	-12.095
▁삐비	-12.095
▁삐지	-12.095
▁사격	-12.095
▁사견	-12.095
▁사고력	-12.095
▁사기업	-12.095
▁사상시	-12.095
▁사업가	-12.095
▁사용법	-12.095
▁사조	-12.095
▁사족	-12.095
▁사죄	-12.095
▁사직원	-12.095
▁사치	-12.095
▁사칙	-12.095
▁사회봉사	-12.095
▁사회생활	-12.095
▁산식	-12.095
▁산책	-12.095
▁산현	-12.095
▁살림	-12.095
▁살아나	-12.095
▁삼각김밥	-12.095
▁상가	-12.095
▁상거래	-12.095
▁상고	-12.095
▁상대편	-12.095
▁상습	-12.095
▁상실감	-12.095
▁상존	-12.095
▁상항	-12.095
▁생동감	-12.095
▁생색	-12.095
▁생체	-12.095
▁생필품	-12.095
▁서든	-12.095
▁서무	-12.095
▁서번트	-12.095
▁서브	-12.095
▁서비스업	-12.095
▁서편	-12.095
▁선거전	-12.095
▁선거후	-12.095
▁선대	-12.095
▁선봉	-12.095
▁선불	-12.095
▁선수	-12.095
▁선스	-12.095
▁선입관	-12.095
▁선전물	-12.095
▁선진국	-12.095
▁선풍	-12.095
▁설움	-12.095
▁섭외	-12.095
▁성남대로	-12.095
▁성별	-12.095
▁성사	-12.095
▁성장기	-12.095
▁성적	-12.095
▁성정	-12.095
▁세균	-12.095
▁세기	-12.095
▁세로	-12.095
▁세요	-12.095
▁세일즈	-12.095
▁세전	-12.095
▁세지	-12.095
▁소고기	-12.095
▁소득세	-12.095
▁소란	-12.095
▁소리내	-12.095
▁소모전	-12.095
▁소셜	-12.095
▁소원	-12.095
▁소지자	-12.095
▁소침	-12.095
▁소폭	-12.095
▁속단	-12.095
▁속사정	-12.095
▁속옷	-12.095
▁손대	-12.095
▁손목	-12.095
▁손바닥	-12.095
▁손봉기	-12.095
▁손상	-12.095
▁손자	-12.095
▁송곳	-12.095
▁송이	-12.095
▁쇠퇴	-12.095
▁쇼파	-12.095
▁쇼핑백	-12.095
▁수다	-12.095
▁수도권	-12.095
▁수분	-12.095
▁수순	-12.095
▁수신제가	-12.095
▁수십억	-12.095
▁수영장	-12.095
▁수용력	-12.095
▁수입	-12.095
▁수작	-12.095
▁수장	-12.095
▁수제	-12.095
▁수중	-12.095
▁수혜	-12.095
▁수확	-12.095
▁숙명	-12.095
▁숙부모	-12.095
▁숙성	-12.095
▁순기능	-12.095
▁순리	-12.095
▁순발력	-12.095
▁순회	-12.095
▁슈팅	-12.095
▁슈퍼	-12.095
▁슈퍼맨	-12.095
▁스나	-12.095
▁스로	-12.095
▁스먼	-12.095
▁스위치	-12.095
▁스코어	-12.095
▁스태프	-12.095
▁스탠스	-12.095
▁스텐	-12.095
▁스토	-12.095
▁스트레치	-12.095
▁스틱	-12.095
▁스포츠	-12.095
▁스피커	-12.095
▁슬라이드	-12.095
▁슬픔	-12.095
▁승급	-12.095
▁승복	-12.095
▁승부	-12.095
▁승시	-12.095
▁시물	-12.095
▁시사	-12.095
▁시설물	-12.095
▁시시비비	-12.095
▁시의	-12.095
▁시전	-12.095
▁시중	-12.095
▁식견	-12.095
▁식료품	-12.095
▁식물	-12.095
▁신간	-12.095
▁신구	-12.095
▁신방안	-12.095
▁신분증	-12.095
▁신빙	-12.095
▁신사	-12.095
▁신상	-12.095
▁신원	-12.095
▁신의	-12.095
▁신조협려	-12.095
▁신판	-12.095
▁신한	-12.095
▁실력자	-12.095
▁실리	-12.095
▁실속	-12.095
▁실재	-12.095
▁실추	-12.095
▁실해	-12.095
▁실행자	-12.095
▁실향	-12.095
▁심제	-12.095
▁싱크대	-12.095
▁쌍욕	-12.095
▁쓰러지	-12.095
▁아날로그	-12.095
▁아동	-12.095
▁아디	-12.095
▁아메바	-12.095
▁아모레	-12.095
▁아무개	-12.095
▁아무데	-12.095
▁아웃	-12.095
▁아재	-12.095
▁아첨	-12.095
▁아파트	-12.095
▁악명	-12.095
▁악습	-12.095
▁악역	-12.095
▁안가	-12.095
▁안경	-12.095
▁안과	-12.095
▁안내판	-12.095
▁안드로이드	-12.095
▁안마사	-12.095
▁안면	-12.095
▁안심	-12.095
▁알고	-12.095
▁알레르기	-12.095
▁알맹이	-12.095
▁암시	-12.095
▁암울	-12.095
▁암호화	-12.095
▁앙망	-12.095
▁앞쪽	-12.095
▁애도	-12.095
▁애로	-12.095
▁애매모호	-12.095
▁애용	-12.095
▁애착심	-12.095
▁액수	-12.095
▁야단	-12.095
▁약국	-12.095
▁약칭	-12.095
▁양극	-12.095
▁양력설	-12.095
▁양반	-12.095
▁양부	-12.095
▁양분	-12.095
▁양심선언	-12.095
▁양호	-12.095
▁어로	-12.095
▁어마	-12.095
▁어불성설	-12.095
▁어처구니	-12.095
▁어학	-12.095
▁어휘	-12.095
▁억양	-12.095
▁언덕	-12.095
▁언로	-12.095
▁언행일치	-12.095
▁얼라	-12.095
▁얼라인	-12.095
▁얼리	-12.095
▁얽매	-12.095
▁엄두	-12.095
▁엄지손가락	-12.095
▁업력	-12.095
▁업태	-12.095
▁에센	-12.095
▁에이전시	-12.095
▁에코	-12.095
▁에피소드	-12.095
▁엑센	-12.095
▁엑소더스	-12.095
▁엔진	-12.095
▁여대	-12.095
▁여도	-12.095
▁여름철	-12.095
▁여액	-12.095
▁여의도	-12.095
▁여장	-12.095
▁여전	-12.095
▁여정	-12.095
▁여타	-12.095
▁여파	-12.095
▁여하	-12.095
▁역랑	-12.095
▁역량계	-12.095
▁역삼각형	-12.095
▁역주행	-12.095
▁역차별	-12.095
▁역풍	-12.095
▁연달	-12.095
▁연례	-12.095
▁연례행사	-12.095
▁연배	-12.095
▁연봉체계	-12.095
▁연주	-12.095
▁연합	-12.095
▁열거	-12.095
▁열등	-12.095
▁열매	-12.095
▁열받	-12.095
▁열풍	-12.095
▁염색	-12.095
▁영망	-12.095
▁영속	-12.095
▁영양가	-12.095
▁영웅	-12.095
▁영웅전	-12.095
▁영원	-12.095
▁영위	-12.095
▁옆자리	-12.095
▁예견	-12.095
▁예정자	-12.095
▁오늘날	-12.095
▁오래	-12.095
▁오래가	-12.095
▁오르막	-12.095
▁오리진	-12.095
▁오실	-12.095
▁오차	-12.095
▁오케이	-12.095
▁오퍼레이션	-12.095
▁옥죄	-12.095
▁올인	-12.095
▁와해	-12.095
▁완료시	-12.095
▁완제품	-12.095
▁외지	-12.095
▁요가	-12.095
▁요청서	-12.095
▁욕고	-12.095
▁욕망	-12.095
▁용단	-12.095
▁우루	-12.095
▁우세	-12.095
▁우열	-12.095
▁우울	-12.095
▁우주	-12.095
▁우협	-12.095
▁운동장	-12.095
▁운동화	-12.095
▁운명	-12.095
▁울타리	-12.095
▁울트라	-12.095
▁워커힐	-12.095
▁웍스	-12.095
▁원대	-12.095
▁원문	-12.095
▁원서	-12.095
▁원성	-12.095
▁원장	-12.095
▁원판결	-12.095
▁월단	-12.095
▁월드	-12.095
▁월초	-12.095
▁웨건	-12.095
▁위계질서	-12.095
▁위력	-12.095
▁위반자	-12.095
▁위안	-12.095
▁위지	-12.095
▁위탁	-12.095
▁윈도우즈	-12.095
▁유교	-12.095
▁유니폼	-12.095
▁유대인	-12.095
▁유령	-12.095
▁유모차	-12.095
▁유심	-12.095
▁유아	-12.095
▁유연제	-12.095
▁유의미	-12.095
▁유익	-12.095
▁유투	-12.095
▁유하	-12.095
▁유학	-12.095
▁유혹	-12.095
▁유훈	-12.095
▁육박	-12.095
▁육체	-12.095
▁윤경	-12.095
▁윤자	-12.095
▁은실	-12.095
▁은퇴	-12.095
▁음대	-12.095
▁음모	-12.095
▁음모론	-12.095
▁응변	-12.095
▁응시	-12.095
▁응전	-12.095
▁응하	-12.095
▁의기	-12.095
▁의기소침	-12.095
▁의기투합	-12.095
▁의리	-12.095
▁의무실	-12.095
▁의중	-12.095
▁의학	-12.095
▁이과	-12.095
▁이너	-12.095
▁이동거	-12.095
▁이동기	-12.095
▁이동의	-12.095
▁이면	-12.095
▁이면주	-12.095
▁이모	-12.095
▁이물질	-12.095
▁이미선	-12.095
▁이민	-12.095
▁이병희	-12.095
▁이상시	-12.095
▁이상황	-12.095
▁이성준	-12.095
▁이시	-12.095
▁이완	-12.095
▁이익금	-12.095
▁이자	-12.095
▁이재명	-12.095
▁이종	-12.095
▁이직률	-12.095
▁이쪽	-12.095
▁익년	-12.095
▁인간미	-12.095
▁인계	-12.095
▁인과	-12.095
▁인덕	-12.095
▁인문학	-12.095
▁인발	-12.095
▁인스턴트	-12.095
▁인신	-12.095
▁인심	-12.095
▁인지도	-12.095
▁인테리어	-12.095
▁인텔	-12.095
▁일각	-12.095
▁일급	-12.095
▁일기장	-12.095
▁일대일	-12.095
▁일러스트레이터	-12.095
▁일례	-12.095
▁일말	-12.095
▁일면식	-12.095
▁일산	-12.095
▁일삼	-12.095
▁일선	-12.095
▁일안	-12.095
▁일중독	-12.095
▁일체	-12.095
▁일탈	-12.095
▁일회용	-12.095
▁임금제	-12.095
▁임원용	-12.095
▁입김	-12.095
▁입법	-12.095
▁입생로랑	-12.095
▁입주	-12.095
▁자각	-12.095
▁자극제	-12.095
▁자네	-12.095
▁자단	-12.095
▁자막	-12.095
▁자석	-12.095
▁자야	-12.095
▁자용	-12.095
▁자임	-12.095
▁자존심	-12.095
▁자치	-12.095
▁자판	-12.095
▁자판기	-12.095
▁자필	-12.095
▁잔류	-12.095
▁잔인	-12.095
▁잔존	-12.095
▁잠들	-12.095
▁잠식	-12.095
▁잠자	-12.095
▁잡초	-12.095
▁장구	-12.095
▁장례비	-12.095
▁장만	-12.095
▁장모님	-12.095
▁장미	-12.095
▁장부	-12.095
▁장인어른	-12.095
▁장착	-12.095
▁장학금	-12.095
▁장현기	-12.095
▁재료	-12.095
▁재무제표	-12.095
▁재문	-12.095
▁재생	-12.095
▁재선거	-12.095
▁재설	-12.095
▁재작년	-12.095
▁재점검	-12.095
▁재처리	-12.095
▁저드	-12.095
▁저속	-12.095
▁저쩌	-12.095
▁저출산	-12.095
▁적립	-12.095
▁적막	-12.095
▁적법성	-12.095
▁적응도	-12.095
▁적정선	-12.095
▁적체	-12.095
▁전격	-12.095
▁전단지	-12.095
▁전등	-12.095
▁전례	-12.095
▁전문직	-12.095
▁전산실	-12.095
▁전선	-12.095
▁전자서명	-12.095
▁전전	-12.095
▁전전긍긍	-12.095
▁전직	-12.095
▁전투	-12.095
▁전투기	-12.095
▁전환자	-12.095
▁절기	-12.095
▁점철	-12.095
▁정가	-12.095
▁정교화	-12.095
▁정독	-12.095
▁정략	-12.095
▁정례화	-12.095
▁정면	-12.095
▁정반합	-12.095
▁정신없	-12.095
▁정심	-12.095
▁정예	-12.095
▁정은주	-12.095
▁정인	-12.095
▁정주영	-12.095
▁정크	-12.095
▁정통성	-12.095
▁정품	-12.095
▁제각각	-12.095
▁제너럴	-12.095
▁제로베이스	-12.095
▁제면	-12.095
▁제명	-12.095
▁제복	-12.095
▁제스	-12.095
▁제일	-12.095
▁제조업	-12.095
▁제주	-12.095
▁제주도	-12.095
▁제지	-12.095
▁제프	-12.095
▁조리사	-12.095
▁조보상	-12.095
▁조봉	-12.095
▁조연	-12.095
▁조용	-12.095
▁조정자	-12.095
▁조종	-12.095
▁족구	-12.095
▁존립	-12.095
▁종교	-12.095
▁종업원	-12.095
▁좌익	-12.095
▁좌충우돌	-12.095
▁죄지	-12.095
▁주류	-12.095
▁주사	-12.095
▁주안점	-12.095
▁주이	-12.095
▁주중	-12.095
▁주직	-12.095
▁주차료	-12.095
▁주택	-12.095
▁죽어나	-12.095
▁준법정신	-12.095
▁준용	-12.095
▁준직	-12.095
▁줄서기	-12.095
▁중구난방	-12.095
▁중위	-12.095
▁중책	-12.095
▁중층	-12.095
▁쥐꼬리	-12.095
▁쥬니어	-12.095
▁즉시	-12.095
▁즐거움	-12.095
▁즐겨찾기	-12.095
▁증과	-12.095
▁증분	-12.095
▁증세	-12.095
▁증폭	-12.095
▁지기	-12.095
▁지나다니	-12.095
▁지난달	-12.095
▁지망	-12.095
▁지멘스	-12.095
▁지문	-12.095
▁지방간	-12.095
▁지분	-12.095
▁지사	-12.095
▁지식인	-12.095
▁지중해	-12.095
▁지칭	-12.095
▁지하철역	-12.095
▁직간접	-12.095
▁직과	-12.095
▁직보	-12.095
▁직업	-12.095
▁직인	-12.095
▁직제	-12.095
▁진과	-12.095
▁진담	-12.095
▁진상	-12.095
▁진정서	-12.095
▁진해	-12.095
▁질타	-12.095
▁집게	-12.095
▁집권	-12.095
▁집적	-12.095
▁집합체	-12.095
▁징검다리	-12.095
▁징조	-12.095
▁짝퉁	-12.095
▁쪼이	-12.095
▁쫓겨나	-12.095
▁찌푸리	-12.095
▁차시	-12.095
▁차체	-12.095
▁찬밥	-12.095
▁참가자	-12.095
▁참으	-12.095
▁창연	-12.095
▁찾아다니	-12.095
▁채찍질	-12.095
▁처먹	-12.095
▁처하	-12.095
▁천막	-12.095
▁천장	-12.095
▁천재	-12.095
▁천차만별	-12.095
▁첨단	-12.095
▁첨병	-12.095
▁청건	-12.095
▁청결	-12.095
▁청곡	-12.095
▁청구서	-12.095
▁청년	-12.095
▁청시	-12.095
▁청인	-12.095
▁청탁	-12.095
▁체어	-12.095
▁체인	-12.095
▁초등학생	-12.095
▁초록색	-12.095
▁초보	-12.095
▁초상권	-12.095
▁초석	-12.095
▁초월	-12.095
▁촌구석	-12.095
▁촌철살인	-12.095
▁총의	-12.095
▁총점	-12.095
▁최고점	-12.095
▁최대근	-12.095
▁최은호	-12.095
▁최종현	-12.095
▁최철	-12.095
▁추동	-12.095
▁추론	-12.095
▁추어	-12.095
▁추억	-12.095
▁추이	-12.095
▁추천인	-12.095
▁추첨	-12.095
▁축내	-12.095
▁축제	-12.095
▁출발지	-12.095
▁출석부	-12.095
▁출소	-12.095
▁출연	-12.095
▁충견	-12.095
▁충동	-12.095
▁충분	-12.095
▁충분조건	-12.095
▁충치	-12.095
▁취록	-12.095
▁취임	-12.095
▁취침	-12.095
▁치유	-12.095
▁치킨	-12.095
▁카메라	-12.095
▁카운트	-12.095
▁캐나다	-12.095
▁캐쉬	-12.095
▁캐시	-12.095
▁커트라인	-12.095
▁컨스	-12.095
▁컬럼	-12.095
▁컴백	-12.095
▁컴팩트	-12.095
▁케이	-12.095
▁코디	-12.095
▁코메디	-12.095
▁코스트	-12.095
▁코앞	-12.095
▁코인	-12.095
▁콘트롤	-12.095
▁콜라보	-12.095
▁쾌감	-12.095
▁쿠션	-12.095
▁크리스마스	-12.095
▁타개	-12.095
▁타격	-12.095
▁타이어	-12.095
▁타이틀	-12.095
▁타이핑	-12.095
▁타지	-12.095
▁타협점	-12.095
▁탁자	-12.095
▁탄천	-12.095
▁탈락자	-12.095
▁탈출	-12.095
▁탐색	-12.095
▁탑재	-12.095
▁태만	-12.095
▁택일	-12.095
▁테제	-12.095
▁텐션	-12.095
▁텔레	-12.095
▁토달	-12.095
▁토리	-12.095
▁토양	-12.095
▁토크	-12.095
▁통째	-12.095
▁통칭	-12.095
▁퇴실	-12.095
▁퇴출	-12.095
▁투서	-12.095
▁투지	-12.095
▁투표율	-12.095
▁투표자	-12.095
▁트랜스	-12.095
▁트렌디	-12.095
▁특권	-12.095
▁특급	-12.095
▁특보	-12.095
▁특색	-12.095
▁특허	-12.095
▁틀리	-12.095
▁틀어막	-12.095
▁티케	-12.095
▁티타임	-12.095
▁파견사	-12.095
▁파란색	-12.095
▁파생	-12.095
▁파행	-12.095
▁팔로우	-12.095
▁팔순	-12.095
▁패밀리	-12.095
▁패배주의	-12.095
▁패스트	-12.095
▁패키지	-12.095
▁퍼블릭	-12.095
▁퍼시픽	-12.095
▁퍼트리	-12.095
▁편달	-12.095
▁편의주의	-12.095
▁편지	-12.095
▁편파	-12.095
▁편향성	-12.095
▁편협	-12.095
▁평안	-12.095
▁평이	-12.095
▁평택	-12.095
▁평행	-12.095
▁폐합	-12.095
▁포스트	-12.095
▁포항	-12.095
▁폰트	-12.095
▁표결	-12.095
▁표본	-12.095
▁표점	-12.095
▁푸시	-12.095
▁풀칠	-12.095
▁품목	-12.095
▁풍경	-12.095
▁풍년	-12.095
▁풍토	-12.095
▁프라이즈	-12.095
▁프랑스	-12.095
▁프로세서	-12.095
▁프리미엄	-12.095
▁프리젠테이션	-12.095
▁플란트	-12.095
▁플레이어	-12.095
▁플루언스	-12.095
▁피라미드형	-12.095
▁피싱	-12.095
▁피아	-12.095
▁피어	-12.095
▁피티	-12.095
▁피피티	-12.095
▁핀란드	-12.095
▁핀잔	-12.095
▁핀테크	-12.095
▁필라테스	-12.095
▁필립	-12.095
▁핑크	-12.095
▁하계	-12.095
▁하드	-12.095
▁하복	-12.095
▁하양	-12.095
▁하위직	-12.095
▁하이	-12.095
▁하절기	-12.095
▁하차	-12.095
▁학력	-12.095
▁한계점	-12.095
▁한국인	-12.095
▁한귀	-12.095
▁한달전	-12.095
▁한반도	-12.095
▁한성주	-12.095
▁한창	-12.095
▁함유	-12.095
▁합의점	-12.095
▁항공	-12.095
▁항변	-12.095
▁항아리	-12.095
▁해답	-12.095
▁해아리	-12.095
▁해안	-12.095
▁해운	-12.095
▁해태	-12.095
▁행간	-12.095
▁행복감	-12.095
▁행지	-12.095
▁향하	-12.095
▁허경영	-12.095
▁허덕이	-12.095
▁허례허식	-12.095
▁허물	-12.095
▁헌재	-12.095
▁험지	-12.095
▁헤더	-12.095
▁헤드	-12.095
▁헤어	-12.095
▁현금화	-12.095
▁현대차	-12.095
▁현선	-12.095
▁현수	-12.095
▁혈중	-12.095
▁협동	-12.095
▁형광	-12.095
▁호악	-12.095
▁호출	-12.095
▁혹사	-12.095
▁혹자	-12.095
▁혼용	-12.095
▁혼인	-12.095
▁홀대	-12.095
▁홀릭	-12.095
▁홍길동	-12.095
▁홍지연	-12.095
▁화물	-12.095
▁화사	-12.095
▁화살	-12.095
▁화살표	-12.095
▁화석	-12.095
▁화장지	-12.095
▁화장품	-12.095
▁화풀이	-12.095
▁환갑	-12.095
▁환불	-12.095
▁환상	-12.095
▁환전	-12.095
▁환절기	-12.095
▁활약	-12.095
▁황망	-12.095
▁황제	-12.095
▁회도	-12.095
▁회선	-12.095
▁회시	-12.095
▁회의체	-12.095
▁회자	-12.095
▁회정	-12.095
▁회하	-12.095
▁획인	-12.095
▁횡단보도	-12.095
▁횡포	-12.095
▁효수	-12.095
▁후기	-12.095
▁후니	-12.095
▁후략	-12.095
▁후문	-12.095
▁후발	-12.095
▁후일	-12.095
▁후임자	-12.095
▁후진국	-12.095
▁훈방	-12.095
▁훈수	-12.095
▁휘발	-12.095
▁휩쓸	-12.095
▁aai	-12.7881
▁aaio	-12.7881
▁aaiv	-12.7881
▁aally	-12.7881
▁ab	-12.7881
▁ablab	-12.7881
▁addd	-12.7881
▁adial	-12.7881
▁adigial	-12.7881
▁adii	-12.7881
▁adiio	-12.7881
▁adly	-12.7881
▁admi	-12.7881
▁agai	-12.7881
▁agli	-12.7881
▁ahiv	-12.7881
▁ahivm	-12.7881
▁aka	-12.7881
▁akdo	-12.7881
▁aki	-12.7881
▁alady	-12.7881
▁alam	-12.7881
▁alao	-12.7881
▁alay	-12.7881
▁algi	-12.7881
▁aliz	-12.7881
▁alla	-12.7881
▁alli	-12.7881
▁allia	-12.7881
▁alloaio	-12.7881
▁allod	-12.7881
▁alyi	-12.7881
▁ama	-12.7881
▁amazon	-12.7881
▁amo	-12.7881
▁ams	-12.7881
▁amto	-12.7881
▁amy	-12.7881
▁aptadva	-12.7881
▁asa	-12.7881
▁asap	-12.7881
▁auil	-12.7881
▁av	-12.7881
▁ava	-12.7881
▁bal	-12.7881
▁balla	-12.7881
▁bhavio	-12.7881
▁bia	-12.7881
▁biddi	-12.7881
▁biili	-12.7881
▁bildi	-12.7881
▁bizpa	-12.7881
▁blog	-12.7881
▁bloki	-12.7881
▁bmai	-12.7881
▁bmits	-12.7881
▁bms	-12.7881
▁body	-12.7881
▁book	-12.7881
▁box	-12.7881
▁boxi	-12.7881
▁bt	-12.7881
▁businss	-12.7881
▁by	-12.7881
▁bzz	-12.7881
▁cachmx	-12.7881
▁cali	-12.7881
▁capah	-12.7881
▁cas	-12.7881
▁cav	-12.7881
▁cb	-12.7881
▁cdi	-12.7881
▁cham	-12.7881
▁chku	-12.7881
▁ck	-12.7881
▁claim	-12.7881
▁cm	-12.7881
▁cmbs	-12.7881
▁cnn	-12.7881
▁codi	-12.7881
▁cognition	-12.7881
▁collo	-12.7881
▁colo	-12.7881
▁comi	-12.7881
▁commaio	-12.7881
▁commiaio	-12.7881
▁commm	-12.7881
▁company	-12.7881
▁cool	-12.7881
▁cp	-12.7881
▁cu	-12.7881
▁cut	-12.7881
▁cvc	-12.7881
▁daaaho	-12.7881
▁dad	-12.7881
▁dadli	-12.7881
▁dali	-12.7881
▁dam	-12.7881
▁data	-12.7881
▁dayo	-12.7881
▁dbak	-12.7881
▁dbig	-12.7881
▁dd	-12.7881
▁dddddddt	-12.7881
▁ddia	-12.7881
▁dial	-12.7881
▁dict	-12.7881
▁dio	-12.7881
▁dligaio	-12.7881
▁dloi	-12.7881
▁dlt	-12.7881
▁dma	-12.7881
▁doid	-12.7881
▁dok	-12.7881
▁dol	-12.7881
▁dom	-12.7881
▁domail	-12.7881
▁domain	-12.7881
▁dos	-12.7881
▁dsk	-12.7881
▁dtclod	-12.7881
▁gaag	-12.7881
▁gai	-12.7881
▁gdol	-12.7881
▁gg	-12.7881
▁ggaio	-12.7881
▁ghk	-12.7881
▁gidca	-12.7881
▁giy	-12.7881
▁glaio	-12.7881
▁gloy	-12.7881
▁goooooooooooooooogl	-12.7881
▁gsp	-12.7881
▁gtm	-12.7881
▁hadalk	-12.7881
▁hado	-12.7881
▁hald	-12.7881
▁halday	-12.7881
▁hallg	-12.7881
▁havy	-12.7881
▁hddl	-12.7881
▁hgmo	-12.7881
▁hiag	-12.7881
▁hiahy	-12.7881
▁hidd	-12.7881
▁highlvl	-12.7881
▁hih	-12.7881
▁hii	-12.7881
▁hili	-12.7881
▁hima	-12.7881
▁hio	-12.7881
▁his	-12.7881
▁hki	-12.7881
▁hllo	-12.7881
▁hlp	-12.7881
▁holdi	-12.7881
▁hoo	-12.7881
▁hool	-12.7881
▁hp	-12.7881
▁hq	-12.7881
▁iai	-12.7881
▁ialy	-12.7881
▁iao	-12.7881
▁idc	-12.7881
▁ight	-12.7881
▁iiaiv	-12.7881
▁ilaio	-12.7881
▁ild	-12.7881
▁ildi	-12.7881
▁ilii	-12.7881
▁illl	-12.7881
▁imal	-12.7881
▁imimay	-12.7881
▁imy	-12.7881
▁imysha	-12.7881
▁ind	-12.7881
▁input	-12.7881
▁ioi	-12.7881
▁ioy	-12.7881
▁ipma	-12.7881
▁ipo	-12.7881
▁iq	-12.7881
▁isk	-12.7881
▁iso	-12.7881
▁itm	-12.7881
▁jhi	-12.7881
▁jia	-12.7881
▁jv	-12.7881
▁jy	-12.7881
▁ka	-12.7881
▁kd	-12.7881
▁kdi	-12.7881
▁kg	-12.7881
▁kh	-12.7881
▁killi	-12.7881
▁kkkk	-12.7881
▁kli	-12.7881
▁klim	-12.7881
▁kmi	-12.7881
▁kms	-12.7881
▁kmy	-12.7881
▁kyha	-12.7881
▁kyma	-12.7881
▁kyod	-12.7881
▁laim	-12.7881
▁laiv	-12.7881
▁lan	-12.7881
▁laom	-12.7881
▁lav	-12.7881
▁lcd	-12.7881
▁ligh	-12.7881
▁limii	-12.7881
▁lin	-12.7881
▁lio	-12.7881
▁llililililili	-12.7881
▁lly	-12.7881
▁loadma	-12.7881
▁lob	-12.7881
▁logi	-12.7881
▁logial	-12.7881
▁logo	-12.7881
▁long	-12.7881
▁loss	-12.7881
▁loy	-12.7881
▁lsvy	-12.7881
▁lvag	-12.7881
▁lx	-12.7881
▁mad	-12.7881
▁magi	-12.7881
▁maix	-12.7881
▁map	-12.7881
▁max	-12.7881
▁mbc	-12.7881
▁mbo	-12.7881
▁mdm	-12.7881
▁mgs	-12.7881
▁middl	-12.7881
▁mil	-12.7881
▁mipvs	-12.7881
▁mlita	-12.7881
▁mn	-12.7881
▁moiv	-12.7881
▁moivai	-12.7881
▁mps	-12.7881
▁msa	-12.7881
▁myta	-12.7881
▁naiv	-12.7881
▁nam	-12.7881
▁nas	-12.7881
▁nda	-12.7881
▁ngoiaio	-12.7881
▁ni	-12.7881
▁nict	-12.7881
▁nimby	-12.7881
▁nk	-12.7881
▁nm	-12.7881
▁noh	-12.7881
▁nomal	-12.7881
▁non	-12.7881
▁noo	-12.7881
▁ns	-12.7881
▁nvo	-12.7881
▁nxco	-12.7881
▁nxt	-12.7881
▁oag	-12.7881
▁oahi	-12.7881
▁oaiv	-12.7881
▁oamio	-12.7881
▁oc	-12.7881
▁ocal	-12.7881
▁odi	-12.7881
▁odio	-12.7881
▁ogh	-12.7881
▁oial	-12.7881
▁oigi	-12.7881
▁oiial	-12.7881
▁oiially	-12.7881
▁okay	-12.7881
▁okcashbag	-12.7881
▁okli	-12.7881
▁okload	-12.7881
▁olda	-12.7881
▁olidaio	-12.7881
▁oligh	-12.7881
▁olio	-12.7881
▁ology	-12.7881
▁omal	-12.7881
▁omaly	-12.7881
▁omg	-12.7881
▁omiz	-12.7881
▁omiza	-12.7881
▁ommunication	-12.7881
▁omn	-12.7881
▁omoio	-12.7881
▁only	-12.7881
▁oooo	-12.7881
▁ooooo	-12.7881
▁oot	-12.7881
▁opo	-12.7881
▁otp	-12.7881
▁out	-12.7881
▁output	-12.7881
▁ovao	-12.7881
▁ovo	-12.7881
▁ovtim	-12.7881
▁ovvi	-12.7881
▁ovy	-12.7881
▁paial	-12.7881
▁pain	-12.7881
▁pakag	-12.7881
▁pay	-12.7881
▁pg	-12.7881
▁pha	-12.7881
▁pioiy	-12.7881
▁pll	-12.7881
▁pllcolla	-12.7881
▁plm	-12.7881
▁plz	-12.7881
▁pmaj	-12.7881
▁pmim	-12.7881
▁pmto	-12.7881
▁pocss	-12.7881
▁poili	-12.7881
▁point	-12.7881
▁pol	-12.7881
▁poll	-12.7881
▁pom	-12.7881
▁pook	-12.7881
▁pooli	-12.7881
▁position	-12.7881
▁ppm	-12.7881
▁pst	-12.7881
▁qal	-12.7881
▁qaliiaio	-12.7881
▁qhs	-12.7881
▁qikli	-12.7881
▁qoa	-12.7881
▁qsh	-12.7881
▁saggy	-12.7881
▁sagy	-12.7881
▁sak	-12.7881
▁sakhold	-12.7881
▁samsung	-12.7881
▁sat	-12.7881
▁sau	-12.7881
▁sb	-12.7881
▁scout	-12.7881
▁sdssoa	-12.7881
▁sg	-12.7881
▁sh	-12.7881
▁shadoi	-12.7881
▁shm	-12.7881
▁shoma	-12.7881
▁sig	-12.7881
▁sih	-12.7881
▁sii	-12.7881
▁sil	-12.7881
▁sim	-12.7881
▁sios	-12.7881
▁siz	-12.7881
▁skthx	-12.7881
▁sktlom	-12.7881
▁slak	-12.7881
▁slla	-12.7881
▁smaok	-12.7881
▁soag	-12.7881
▁soba	-12.7881
▁soial	-12.7881
▁sok	-12.7881
▁sol	-12.7881
▁solay	-12.7881
▁sop	-12.7881
▁sos	-12.7881
▁spdy	-12.7881
▁spot	-12.7881
▁spux	-12.7881
▁sql	-12.7881
▁ss	-12.7881
▁ssd	-12.7881
▁sskk	-12.7881
▁ssmsma	-12.7881
▁sto	-12.7881
▁stop	-12.7881
▁stp	-12.7881
▁stup	-12.7881
▁sux	-12.7881
▁svay	-12.7881
▁syl	-12.7881
▁tagno	-12.7881
▁tahoma	-12.7881
▁tai	-12.7881
▁tal	-12.7881
▁tax	-12.7881
▁thogh	-12.7881
▁thx	-12.7881
▁tik	-12.7881
▁timi	-12.7881
▁timing	-12.7881
▁tip	-12.7881
▁tissot	-12.7881
▁tl	-12.7881
▁tlo	-12.7881
▁tmax	-12.7881
▁tmp	-12.7881
▁toay	-12.7881
▁tok	-12.7881
▁topbottom	-12.7881
▁topdon	-12.7881
▁ttc	-12.7881
▁tvgbs	-12.7881
▁un	-12.7881
▁unit	-12.7881
▁uscas	-12.7881
▁usim	-12.7881
▁utu	-12.7881
▁vc	-12.7881
